{
  "version": "1.0",
  "truncation": null,
  "padding": null,
  "added_tokens": [
    {
      "id": 0,
      "content": "</INST>",
      "single_word": false,
      "lstrip": false,
      "rstrip": false,
      "normalized": false,
      "special": true
    },
    {
      "id": 1,
      "content": "</s>",
      "single_word": false,
      "lstrip": false,
      "rstrip": false,
      "normalized": false,
      "special": true
    },
    {
      "id": 2,
      "content": "<ASSISTANT>",
      "single_word": false,
      "lstrip": false,
      "rstrip": false,
      "normalized": false,
      "special": true
    },
    {
      "id": 3,
      "content": "<INST>",
      "single_word": false,
      "lstrip": false,
      "rstrip": false,
      "normalized": false,
      "special": true
    },
    {
      "id": 4,
      "content": "<RESPONSE>",
      "single_word": false,
      "lstrip": false,
      "rstrip": false,
      "normalized": false,
      "special": true
    },
    {
      "id": 5,
      "content": "<USER>",
      "single_word": false,
      "lstrip": false,
      "rstrip": false,
      "normalized": false,
      "special": true
    },
    {
      "id": 6,
      "content": "<pad>",
      "single_word": false,
      "lstrip": false,
      "rstrip": false,
      "normalized": false,
      "special": true
    },
    {
      "id": 7,
      "content": "<s>",
      "single_word": false,
      "lstrip": false,
      "rstrip": false,
      "normalized": false,
      "special": true
    },
    {
      "id": 8,
      "content": "<unk>",
      "single_word": false,
      "lstrip": false,
      "rstrip": false,
      "normalized": false,
      "special": true
    }
  ],
  "normalizer": {
    "type": "NFC"
  },
  "pre_tokenizer": {
    "type": "ByteLevel",
    "add_prefix_space": true,
    "trim_offsets": true,
    "use_regex": true
  },
  "post_processor": {
    "type": "TemplateProcessing",
    "single": [
      {
        "SpecialToken": {
          "id": "<s>",
          "type_id": 0
        }
      },
      {
        "Sequence": {
          "id": "A",
          "type_id": 0
        }
      },
      {
        "SpecialToken": {
          "id": "</s>",
          "type_id": 0
        }
      }
    ],
    "pair": [
      {
        "SpecialToken": {
          "id": "<s>",
          "type_id": 0
        }
      },
      {
        "Sequence": {
          "id": "A",
          "type_id": 0
        }
      },
      {
        "SpecialToken": {
          "id": "</s>",
          "type_id": 0
        }
      },
      {
        "SpecialToken": {
          "id": "</s>",
          "type_id": 0
        }
      },
      {
        "Sequence": {
          "id": "B",
          "type_id": 0
        }
      },
      {
        "SpecialToken": {
          "id": "</s>",
          "type_id": 0
        }
      }
    ],
    "special_tokens": {
      "</s>": {
        "id": "</s>",
        "ids": [
          1
        ],
        "tokens": [
          "</s>"
        ]
      },
      "<s>": {
        "id": "<s>",
        "ids": [
          7
        ],
        "tokens": [
          "<s>"
        ]
      }
    }
  },
  "decoder": {
    "type": "ByteLevel",
    "add_prefix_space": true,
    "trim_offsets": true,
    "use_regex": true
  },
  "model": {
    "type": "BPE",
    "dropout": null,
    "unk_token": "<unk>",
    "continuing_subword_prefix": null,
    "end_of_word_suffix": null,
    "fuse_unk": false,
    "byte_fallback": false,
    "ignore_merges": false,
    "vocab": {
      "</INST>": 0,
      "</s>": 1,
      "<ASSISTANT>": 2,
      "<INST>": 3,
      "<RESPONSE>": 4,
      "<USER>": 5,
      "<pad>": 6,
      "<s>": 7,
      "<unk>": 8,
      "!": 9,
      "\"": 10,
      "#": 11,
      "$": 12,
      "%": 13,
      "&": 14,
      "'": 15,
      "(": 16,
      ")": 17,
      "*": 18,
      "+": 19,
      ",": 20,
      "-": 21,
      ".": 22,
      "/": 23,
      "0": 24,
      "1": 25,
      "2": 26,
      "3": 27,
      "4": 28,
      "5": 29,
      "6": 30,
      "7": 31,
      "8": 32,
      "9": 33,
      ":": 34,
      ";": 35,
      "<": 36,
      "=": 37,
      ">": 38,
      "?": 39,
      "@": 40,
      "A": 41,
      "B": 42,
      "C": 43,
      "D": 44,
      "E": 45,
      "F": 46,
      "G": 47,
      "H": 48,
      "I": 49,
      "J": 50,
      "K": 51,
      "L": 52,
      "M": 53,
      "N": 54,
      "O": 55,
      "P": 56,
      "Q": 57,
      "R": 58,
      "S": 59,
      "T": 60,
      "U": 61,
      "V": 62,
      "W": 63,
      "X": 64,
      "Y": 65,
      "Z": 66,
      "[": 67,
      "\\": 68,
      "]": 69,
      "^": 70,
      "_": 71,
      "`": 72,
      "a": 73,
      "b": 74,
      "c": 75,
      "d": 76,
      "e": 77,
      "f": 78,
      "g": 79,
      "h": 80,
      "i": 81,
      "j": 82,
      "k": 83,
      "l": 84,
      "m": 85,
      "n": 86,
      "o": 87,
      "p": 88,
      "q": 89,
      "r": 90,
      "s": 91,
      "t": 92,
      "u": 93,
      "v": 94,
      "w": 95,
      "x": 96,
      "y": 97,
      "z": 98,
      "{": 99,
      "|": 100,
      "}": 101,
      "~": 102,
      "¡": 103,
      "¢": 104,
      "£": 105,
      "¤": 106,
      "¥": 107,
      "¦": 108,
      "§": 109,
      "¨": 110,
      "©": 111,
      "ª": 112,
      "«": 113,
      "¬": 114,
      "®": 115,
      "¯": 116,
      "°": 117,
      "±": 118,
      "²": 119,
      "³": 120,
      "´": 121,
      "µ": 122,
      "¶": 123,
      "·": 124,
      "¸": 125,
      "¹": 126,
      "º": 127,
      "»": 128,
      "¼": 129,
      "½": 130,
      "¾": 131,
      "¿": 132,
      "À": 133,
      "Á": 134,
      "Â": 135,
      "Ã": 136,
      "Ä": 137,
      "Å": 138,
      "Æ": 139,
      "Ç": 140,
      "È": 141,
      "É": 142,
      "Ê": 143,
      "Ë": 144,
      "Ì": 145,
      "Í": 146,
      "Î": 147,
      "Ï": 148,
      "Ð": 149,
      "Ñ": 150,
      "Ò": 151,
      "Ó": 152,
      "Ô": 153,
      "Õ": 154,
      "Ö": 155,
      "×": 156,
      "Ø": 157,
      "Ù": 158,
      "Ú": 159,
      "Û": 160,
      "Ü": 161,
      "Ý": 162,
      "Þ": 163,
      "ß": 164,
      "à": 165,
      "á": 166,
      "â": 167,
      "ã": 168,
      "ä": 169,
      "å": 170,
      "æ": 171,
      "ç": 172,
      "è": 173,
      "é": 174,
      "ê": 175,
      "ë": 176,
      "ì": 177,
      "í": 178,
      "î": 179,
      "ï": 180,
      "ð": 181,
      "ñ": 182,
      "ò": 183,
      "ó": 184,
      "ô": 185,
      "õ": 186,
      "ö": 187,
      "÷": 188,
      "ø": 189,
      "ù": 190,
      "ú": 191,
      "û": 192,
      "ü": 193,
      "ý": 194,
      "þ": 195,
      "ÿ": 196,
      "Ā": 197,
      "ā": 198,
      "Ă": 199,
      "ă": 200,
      "Ą": 201,
      "ą": 202,
      "Ć": 203,
      "ć": 204,
      "Ĉ": 205,
      "ĉ": 206,
      "Ċ": 207,
      "ċ": 208,
      "Č": 209,
      "č": 210,
      "Ď": 211,
      "ď": 212,
      "Đ": 213,
      "đ": 214,
      "Ē": 215,
      "ē": 216,
      "Ĕ": 217,
      "ĕ": 218,
      "Ė": 219,
      "ė": 220,
      "Ę": 221,
      "ę": 222,
      "Ě": 223,
      "ě": 224,
      "Ĝ": 225,
      "ĝ": 226,
      "Ğ": 227,
      "ğ": 228,
      "Ġ": 229,
      "ġ": 230,
      "Ģ": 231,
      "ģ": 232,
      "Ĥ": 233,
      "ĥ": 234,
      "Ħ": 235,
      "ħ": 236,
      "Ĩ": 237,
      "ĩ": 238,
      "Ī": 239,
      "ī": 240,
      "Ĭ": 241,
      "ĭ": 242,
      "Į": 243,
      "į": 244,
      "İ": 245,
      "ı": 246,
      "Ĳ": 247,
      "ĳ": 248,
      "Ĵ": 249,
      "ĵ": 250,
      "Ķ": 251,
      "ķ": 252,
      "ĸ": 253,
      "Ĺ": 254,
      "ĺ": 255,
      "Ļ": 256,
      "ļ": 257,
      "Ľ": 258,
      "ľ": 259,
      "Ŀ": 260,
      "ŀ": 261,
      "Ł": 262,
      "ł": 263,
      "Ń": 264,
      "Ġt": 265,
      "Ġa": 266,
      "he": 267,
      "in": 268,
      "re": 269,
      "Ġthe": 270,
      "on": 271,
      "er": 272,
      "Ġs": 273,
      "čĊ": 274,
      "Ġw": 275,
      "at": 276,
      "Ġo": 277,
      "en": 278,
      "Ġc": 279,
      "it": 280,
      "is": 281,
      "an": 282,
      "or": 283,
      "Ġb": 284,
      "es": 285,
      "ed": 286,
      "Ġf": 287,
      "ing": 288,
      "Ġp": 289,
      "ou": 290,
      "Ġan": 291,
      "al": 292,
      "Ġto": 293,
      "ar": 294,
      "Ġm": 295,
      "Ġin": 296,
      "Ġof": 297,
      "Ġh": 298,
      "Ġd": 299,
      "ĠčĊ": 300,
      "âĢ": 301,
      "as": 302,
      "ic": 303,
      "Ġand": 304,
      "Ġth": 305,
      "le": 306,
      "om": 307,
      "ion": 308,
      "ll": 309,
      "ent": 310,
      "ĠT": 311,
      "Ġn": 312,
      "Ġl": 313,
      "Ġre": 314,
      "st": 315,
      "ve": 316,
      "Ġe": 317,
      "ly": 318,
      "ro": 319,
      "Ġbe": 320,
      "Ġg": 321,
      "id": 322,
      "ĠI": 323,
      "ut": 324,
      "ac": 325,
      "ĠS": 326,
      "ot": 327,
      "ĠA": 328,
      "Ġthat": 329,
      "Ġon": 330,
      "ay": 331,
      "Ġis": 332,
      "et": 333,
      "im": 334,
      "am": 335,
      "ad": 336,
      "ow": 337,
      "se": 338,
      "ig": 339,
      "Ġfor": 340,
      "âĢĻ": 341,
      "ĠC": 342,
      "ver": 343,
      "ur": 344,
      "ct": 345,
      "ld": 346,
      "Ġu": 347,
      "Ġst": 348,
      "Ġy": 349,
      "ĠM": 350,
      "Ġit": 351,
      "Ġhe": 352,
      "ir": 353,
      "ation": 354,
      "ĠB": 355,
      "ith": 356,
      "Ġwh": 357,
      "ce": 358,
      "ĠThe": 359,
      "ter": 360,
      "ol": 361,
      "Ġwe": 362,
      "ĠâĢ": 363,
      "il": 364,
      "Ġwith": 365,
      "Ġas": 366,
      "ĠP": 367,
      "ch": 368,
      "ill": 369,
      "ĠW": 370,
      "nd": 371,
      "Ġwas": 372,
      "Ġyou": 373,
      "ers": 374,
      "ke": 375,
      "ĠH": 376,
      "Ġcon": 377,
      "Ġde": 378,
      "Ġr": 379,
      "ĠD": 380,
      "if": 381,
      "her": 382,
      "ate": 383,
      "Ġat": 384,
      "ag": 385,
      "ĠR": 386,
      "Ġha": 387,
      "ĠF": 388,
      "Ġse": 389,
      "Ġ1": 390,
      "ore": 391,
      "Ġpro": 392,
      "ul": 393,
      "pp": 394,
      "ment": 395,
      "ri": 396,
      "Ġare": 397,
      "est": 398,
      "us": 399,
      "ist": 400,
      "Ġcom": 401,
      "Ġ2": 402,
      "and": 403,
      "op": 404,
      "ain": 405,
      "Ġ(": 406,
      "ĠN": 407,
      "igh": 408,
      "rom": 409,
      "ort": 410,
      "od": 411,
      "Ġne": 412,
      "un": 413,
      "um": 414,
      "Ġex": 415,
      "ĠG": 416,
      "ĠâĢľ": 417,
      "res": 418,
      "ab": 419,
      "âĢĿ": 420,
      "Ġnot": 421,
      "ĠL": 422,
      "Ġv": 423,
      "ess": 424,
      "Ġhave": 425,
      "ity": 426,
      "ould": 427,
      "em": 428,
      "Ġor": 429,
      "Ġby": 430,
      "th": 431,
      "os": 432,
      "ant": 433,
      "ive": 434,
      "Ġfrom": 435,
      "Ġal": 436,
      "ĠE": 437,
      "el": 438,
      "'s": 439,
      "oc": 440,
      "Ġsu": 441,
      "art": 442,
      "Ġsh": 443,
      "Ġthis": 444,
      "ĠO": 445,
      "nt": 446,
      "qu": 447,
      "ight": 448,
      "pe": 449,
      "ust": 450,
      "Ġ\"": 451,
      "Ġle": 452,
      "ĠJ": 453,
      "ies": 454,
      "end": 455,
      "Ġch": 456,
      "Ġsa": 457,
      "out": 458,
      "Ġab": 459,
      "all": 460,
      "ie": 461,
      "ack": 462,
      "00": 463,
      "red": 464,
      "Ġhas": 465,
      "ally": 466,
      "Ġpl": 467,
      "Ġgo": 468,
      "ard": 469,
      "iv": 470,
      "Ġhis": 471,
      "ome": 472,
      "ap": 473,
      "gh": 474,
      "ost": 475,
      "ear": 476,
      "Ġtr": 477,
      "our": 478,
      "ast": 479,
      "Ġj": 480,
      "ak": 481,
      "ĠU": 482,
      "ud": 483,
      "Ġdo": 484,
      "Ġthey": 485,
      "Ġbut": 486,
      "Ġwor": 487,
      "rou": 488,
      "Ġcan": 489,
      "ge": 490,
      "Ġwill": 491,
      "Ġwhe": 492,
      "Ġsaid": 493,
      "Ġk": 494,
      "ich": 495,
      "Ġall": 496,
      "ok": 497,
      "Ġwho": 498,
      "ide": 499,
      "Ġint": 500,
      "ame": 501,
      "ans": 502,
      "ther": 503,
      "ial": 504,
      "Ġout": 505,
      "Ġtheir": 506,
      "ff": 507,
      "ĠTh": 508,
      "ong": 509,
      "ect": 510,
      "ĠIn": 511,
      "pl": 512,
      "ice": 513,
      "pt": 514,
      "ure": 515,
      "Ġmore": 516,
      "one": 517,
      "age": 518,
      "ions": 519,
      "act": 520,
      "ike": 521,
      "Ġme": 522,
      "Ġup": 523,
      "ous": 524,
      "ĠK": 525,
      "ine": 526,
      "Ġad": 527,
      "Ġabout": 528,
      "ated": 529,
      "ra": 530,
      "ber": 531,
      "Ġone": 532,
      "Ġwere": 533,
      "Ġso": 534,
      "Ġus": 535,
      "ime": 536,
      "og": 537,
      "ĠSt": 538,
      "ep": 539,
      "Ġhad": 540,
      "Ġ20": 541,
      "ia": 542,
      "are": 543,
      "ub": 544,
      "cc": 545,
      "Ġwould": 546,
      "Ġcl": 547,
      "Ġim": 548,
      "Ġwhich": 549,
      "ind": 550,
      "ake": 551,
      "ue": 552,
      "Ġcont": 553,
      "iz": 554,
      "very": 555,
      "Ġag": 556,
      "Ġte": 557,
      "Ġoff": 558,
      "Ġcomp": 559,
      "Ġun": 560,
      "Ġbeen": 561,
      "Ġen": 562,
      "so": 563,
      "per": 564,
      "au": 565,
      "ign": 566,
      "ary": 567,
      "ace": 568,
      "ip": 569,
      "Ġyear": 570,
      "ew": 571,
      "Ġlike": 572,
      "ere": 573,
      "ven": 574,
      "ook": 575,
      "Ġinc": 576,
      "ĠIt": 577,
      "ays": 578,
      "Ġman": 579,
      "Ġpe": 580,
      "ry": 581,
      "ose": 582,
      "Ġres": 583,
      "Ġper": 584,
      "ite": 585,
      "able": 586,
      "ass": 587,
      "ord": 588,
      "Ġsp": 589,
      "ire": 590,
      "Ġother": 591,
      "ĠY": 592,
      "mer": 593,
      "Ġ201": 594,
      "Ġsome": 595,
      "ile": 596,
      "ib": 597,
      "ence": 598,
      "ople": 599,
      "ks": 600,
      "ations": 601,
      "Ġover": 602,
      "Ġthere": 603,
      "ical": 604,
      "Ġdis": 605,
      "ress": 606,
      "ult": 607,
      "ĠCh": 608,
      "int": 609,
      "Ġnew": 610,
      "own": 611,
      "Ġthan": 612,
      "Ġar": 613,
      "Ġalso": 614,
      "Ġbec": 615,
      "Ġthem": 616,
      "ance": 617,
      "ru": 618,
      "ough": 619,
      "ount": 620,
      "Ġapp": 621,
      "port": 622,
      "Ġyour": 623,
      "ail": 624,
      "Ġpart": 625,
      "ĠV": 626,
      "Ġwhen": 627,
      "Ġwhat": 628,
      "ree": 629,
      "ond": 630,
      "orm": 631,
      "Ġpeople": 632,
      "Ġsc": 633,
      "fter": 634,
      "Ġ3": 635,
      "Ġqu": 636,
      "ase": 637,
      "av": 638,
      "Ġany": 639,
      "Ġjust": 640,
      "Ġits": 641,
      "ach": 642,
      "Ġtime": 643,
      "Ġkn": 644,
      "Ġher": 645,
      "Ġmy": 646,
      "ens": 647,
      "Ġrec": 648,
      "ĠHe": 649,
      "lic": 650,
      "Ġif": 651,
      "reat": 652,
      "Ġget": 653,
      "Ġ-": 654,
      ".âĢĿ": 655,
      "ian": 656,
      "Ġinto": 657,
      "Ġwork": 658,
      "ound": 659,
      "Ġtw": 660,
      "irst": 661,
      "vel": 662,
      "Ġno": 663,
      "ction": 664,
      "du": 665,
      "ings": 666,
      "ory": 667,
      "ick": 668,
      "Ġour": 669,
      "ition": 670,
      "ident": 671,
      "ors": 672,
      "ob": 673,
      "Ġpre": 674,
      "ove": 675,
      "ang": 676,
      "Ġplay": 677,
      "ink": 678,
      "wn": 679,
      "ause": 680,
      "amp": 681,
      "ade": 682,
      "hing": 683,
      "itt": 684,
      "ates": 685,
      "ark": 686,
      "Ġro": 687,
      "Ġshe": 688,
      "Ġpol": 689,
      "Ġ19": 690,
      "vers": 691,
      "Ġco": 692,
      "</": 693,
      "Ġafter": 694,
      ",âĢĿ": 695,
      "ne": 696,
      "Ġcould": 697,
      "Ġfirst": 698,
      "Ġhow": 699,
      "ious": 700,
      "Ġacc": 701,
      "nder": 702,
      "Ġhim": 703,
      "'t": 704,
      "ild": 705,
      "aw": 706,
      "ons": 707,
      "Ġpo": 708,
      "ĠWe": 709,
      "Ġonly": 710,
      "Ġfe": 711,
      "Ġatt": 712,
      "ict": 713,
      "hed": 714,
      "ĠBut": 715,
      "Ġpr": 716,
      "Ġtwo": 717,
      "ov": 718,
      "ish": 719,
      "Ġcomm": 720,
      "Ġspe": 721,
      "form": 722,
      "Ġact": 723,
      "we": 724,
      "erv": 725,
      "Ġbl": 726,
      "ĠWh": 727,
      "ft": 728,
      "ĠThis": 729,
      "Ġbet": 730,
      "Ġdec": 731,
      ".\"": 732,
      "Ġ4": 733,
      "ning": 734,
      "Ġback": 735,
      "ĠâĢĵ": 736,
      "te": 737,
      "ces": 738,
      "Ġmost": 739,
      "ĠAnd": 740,
      "ood": 741,
      "ck": 742,
      "Ġam": 743,
      "oy": 744,
      "Ġdid": 745,
      "iff": 746,
      "rough": 747,
      "round": 748,
      "ater": 749,
      "Ġagain": 750,
      "ĠâĢĶ": 751,
      "ual": 752,
      "day": 753,
      "ise": 754,
      "Ġwant": 755,
      "Ġdes": 756,
      "Ġunder": 757,
      "..": 758,
      "Ġ$": 759,
      "sel": 760,
      "ull": 761,
      "Ġcons": 762,
      "Ġbecause": 763,
      "rit": 764,
      "Ġnow": 765,
      "lud": 766,
      "ents": 767,
      "Ġyears": 768,
      "Ġ5": 769,
      "man": 770,
      "ublic": 771,
      "Ġneed": 772,
      "tern": 773,
      "ec": 774,
      "Ġeven": 775,
      "iss": 776,
      "Ġinv": 777,
      "Ġknow": 778,
      "ĠAs": 779,
      "ĠUn": 780,
      "Ġsee": 781,
      "ments": 782,
      "Ġadd": 783,
      "ced": 784,
      ",\"": 785,
      "old": 786,
      "Ġind": 787,
      "Ġsec": 788,
      "Ġ[": 789,
      "fore": 790,
      "Ġevery": 791,
      "uch": 792,
      "urn": 793,
      "Ġmake": 794,
      "Ġsupp": 795,
      "pect": 796,
      "Ġem": 797,
      "ock": 798,
      "Ġthese": 799,
      "ĠTr": 800,
      "oll": 801,
      "Ġwhere": 802,
      "ject": 803,
      "xt": 804,
      "ational": 805,
      "vern": 806,
      "Ġbu": 807,
      "Ġlook": 808,
      "oss": 809,
      "Ġdon": 810,
      "Ġev": 811,
      "ump": 812,
      "Ġway": 813,
      "ating": 814,
      "Ġright": 815,
      "Ġbeing": 816,
      "Ġrem": 817,
      "ily": 818,
      "ng": 819,
      "Ġmay": 820,
      "Ġthen": 821,
      "lect": 822,
      "row": 823,
      "Ġmany": 824,
      "iew": 825,
      "Ġdiff": 826,
      "Ġdef": 827,
      "Ġrel": 828,
      "ont": 829,
      "ason": 830,
      "Ġcall": 831,
      "Ġthink": 832,
      "Ġinclud": 833,
      "ied": 834,
      "ased": 835,
      "les": 836,
      "aking": 837,
      "meric": 838,
      "Ġreg": 839,
      "Ġimp": 840,
      ").": 841,
      "Ġthrough": 842,
      "ath": 843,
      "rib": 844,
      "ited": 845,
      "The": 846,
      "Ġshould": 847,
      "Ġsy": 848,
      "Ġsay": 849,
      "Ġfl": 850,
      "Ġpres": 851,
      "Ġlast": 852,
      "uring": 853,
      "Ġvery": 854,
      "Ġthose": 855,
      "ower": 856,
      "other": 857,
      "Ġmuch": 858,
      "ific": 859,
      "ities": 860,
      "Ġstate": 861,
      "Ġbr": 862,
      "ĠRe": 863,
      "ative": 864,
      "Ġshow": 865,
      "hen": 866,
      "ty": 867,
      "ĠNew": 868,
      "arg": 869,
      "Ġwell": 870,
      "oth": 871,
      "Ġ200": 872,
      "ell": 873,
      "Ġph": 874,
      "Ġcount": 875,
      "Ġdoes": 876,
      "als": 877,
      "und": 878,
      "ting": 879,
      "Ġend": 880,
      "Ġown": 881,
      "Ġdown": 882,
      "ics": 883,
      "ĠAmeric": 884,
      "arly": 885,
      "Ġbel": 886,
      "Ġuse": 887,
      "Ġass": 888,
      "ange": 889,
      "Ġlong": 890,
      "ters": 891,
      "ince": 892,
      "Ġbefore": 893,
      "omet": 894,
      "--": 895,
      "gr": 896,
      "ward": 897,
      "Ġmon": 898,
      "Ġgovern": 899,
      "ible": 900,
      "Ġstart": 901,
      "Ġreport": 902,
      "Ġke": 903,
      "up": 904,
      "ues": 905,
      "ts": 906,
      "Ġfin": 907,
      "Ġ6": 908,
      "Ġteam": 909,
      "ble": 910,
      "Ġmade": 911,
      "ife": 912,
      "olog": 913,
      "ĠAl": 914,
      "),": 915,
      "ener": 916,
      "Ġsuch": 917,
      "ren": 918,
      "oun": 919,
      "ix": 920,
      "erson": 921,
      "ĠYou": 922,
      "Ġsm": 923,
      "com": 924,
      "Ġgoing": 925,
      "ility": 926,
      "ism": 927,
      "Ġworld": 928,
      "ful": 929,
      "ek": 930,
      "Ġhel": 931,
      "ually": 932,
      "ists": 933,
      "Ġstud": 934,
      "Ġgood": 935,
      "Ġac": 936,
      "tain": 937,
      "Ġsub": 938,
      "Ġeff": 939,
      "Ġsur": 940,
      "Ġagainst": 941,
      "Ġset": 942,
      "Ġgame": 943,
      "ys": 944,
      "its": 945,
      "ork": 946,
      "Ġgu": 947,
      "Ġpoint": 948,
      "Ġent": 949,
      "ĠIf": 950,
      "ars": 951,
      "âĢĶ": 952,
      "gan": 953,
      "stem": 954,
      "000": 955,
      "ier": 956,
      "Ġprov": 957,
      "Ġstill": 958,
      "roup": 959,
      "Ġwhile": 960,
      "Ġhelp": 961,
      "illion": 962,
      "Ġlead": 963,
      ".</": 964,
      "Ġmin": 965,
      "ween": 966,
      "ax": 967,
      "Ġob": 968,
      "ank": 969,
      "ms": 970,
      "alk": 971,
      "imes": 972,
      "Ġsays": 973,
      "cy": 974,
      "Ġgr": 975,
      "Ġprodu": 976,
      "Ġinst": 977,
      "Ġinter": 978,
      "Ġstr": 979,
      "io": 980,
      "cess": 981,
      "Ġsim": 982,
      "Ġconf": 983,
      "self": 984,
      "Ġcol": 985,
      "ĠFor": 986,
      "Ġtake": 987,
      "Ġsame": 988,
      "ures": 989,
      "Ġthough": 990,
      "ĠAr": 991,
      "arch": 992,
      "Ġbetween": 993,
      "Ġcr": 994,
      "Ġdiffere": 995,
      "ollow": 996,
      "Ġoffic": 997,
      "uss": 998,
      "ool": 999,
      "Ġdisc": 1000,
      "ever": 1001,
      "hes": 1002,
      "land": 1003,
      "ah": 1004,
      "ution": 1005,
      "Ġop": 1006,
      "ĠDe": 1007,
      "Ġed": 1008,
      "air": 1009,
      "Ġhigh": 1010,
      "read": 1011,
      "ĠAn": 1012,
      "Ġnum": 1013,
      "Ġsign": 1014,
      "Ġlaw": 1015,
      "way": 1016,
      "gg": 1017,
      "Ġgovernment": 1018,
      "ner": 1019,
      "Ġ10": 1020,
      "ĠSh": 1021,
      "led": 1022,
      "ĠThey": 1023,
      "ros": 1024,
      "ames": 1025,
      "atch": 1026,
      "Ġ7": 1027,
      "ĠLe": 1028,
      "any": 1029,
      "cent": 1030,
      "Ġter": 1031,
      "ĠCom": 1032,
      "Ġsomet": 1033,
      "hip": 1034,
      "Ġref": 1035,
      "velop": 1036,
      "Ġtrans": 1037,
      "Ġins": 1038,
      "ĠIs": 1039,
      "Ġrun": 1040,
      "Ġser": 1041,
      "Ġfound": 1042,
      "Ġhere": 1043,
      "Ġaround": 1044,
      "ives": 1045,
      "Ġthree": 1046,
      "Ġmem": 1047,
      "ather": 1048,
      "Ġmed": 1049,
      "ave": 1050,
      "Ġreal": 1051,
      "ouse": 1052,
      "Ġused": 1053,
      "ĠTrump": 1054,
      "Ġexp": 1055,
      "ved": 1056,
      "ĠSe": 1057,
      "az": 1058,
      "cept": 1059,
      "oot": 1060,
      "Ġsystem": 1061,
      "Ġreally": 1062,
      "Ġmod": 1063,
      "ving": 1064,
      "Ġsupport": 1065,
      "ci": 1066,
      "Ġgroup": 1067,
      "cer": 1068,
      "Ġcour": 1069,
      "ĠThat": 1070,
      "con": 1071,
      "ĠCl": 1072,
      "ets": 1073,
      "ale": 1074,
      "ins": 1075,
      "Ġpublic": 1076,
      "Ġret": 1077,
      "Ġhand": 1078,
      "ĠThere": 1079,
      "Ġspec": 1080,
      "ph": 1081,
      "ying": 1082,
      "Ġgreat": 1083,
      "pr": 1084,
      "ense": 1085,
      "Ġsl": 1086,
      "Ġext": 1087,
      "Ġ8": 1088,
      "Ġcar": 1089,
      "Ġcur": 1090,
      "Ġfam": 1091,
      "irect": 1092,
      "alth": 1093,
      "ton": 1094,
      ".[": 1095,
      "Ġ0": 1096,
      "Ġhapp": 1097,
      "Ġfact": 1098,
      "Ġwom": 1099,
      "Ġfr": 1100,
      "Ġexper": 1101,
      "Ġcap": 1102,
      "Ġboth": 1103,
      "Ġfind": 1104,
      "Ġday": 1105,
      "Ġread": 1106,
      "ular": 1107,
      "Ġ'": 1108,
      "ines": 1109,
      "Ġrep": 1110,
      "oh": 1111,
      "Ġdet": 1112,
      "uth": 1113,
      "ices": 1114,
      "ered": 1115,
      "Ġduring": 1116,
      "Ġcre": 1117,
      "Ġbig": 1118,
      "ĠSo": 1119,
      "min": 1120,
      "Ġmonth": 1121,
      "Ġserv": 1122,
      "ision": 1123,
      "Ġdevelop": 1124,
      "Ġ9": 1125,
      "akes": 1126,
      "Ġperson": 1127,
      "ĠOn": 1128,
      "ivers": 1129,
      "Ġfollow": 1130,
      "Ġiss": 1131,
      "Ġtold": 1132,
      "Ġsince": 1133,
      "ically": 1134,
      "ared": 1135,
      "ages": 1136,
      "Ġweek": 1137,
      "att": 1138,
      "med": 1139,
      "Ġwar": 1140,
      "Ġfew": 1141,
      "ĠAd": 1142,
      "orth": 1143,
      "Ġcent": 1144,
      "ording": 1145,
      "Ġpolit": 1146,
      "Ġleg": 1147,
      "aj": 1148,
      "get": 1149,
      "ves": 1150,
      "ef": 1151,
      "ash": 1152,
      "Ġexpl": 1153,
      "Ġlot": 1154,
      "Ġbelie": 1155,
      "ĠFr": 1156,
      "Ġgener": 1157,
      "Ġtoo": 1158,
      "Ġopp": 1159,
      "ric": 1160,
      "der": 1161,
      "ĠAt": 1162,
      "rent": 1163,
      "ata": 1164,
      "anc": 1165,
      "iet": 1166,
      "Ġcontin": 1167,
      "Ġrequ": 1168,
      "Ġprot": 1169,
      "ĠPro": 1170,
      "Ġfil": 1171,
      "bers": 1172,
      "ex": 1173,
      "ention": 1174,
      "Ġput": 1175,
      "ness": 1176,
      "Ġcle": 1177,
      "ĠHow": 1178,
      "Ġresp": 1179,
      "ized": 1180,
      "Ġanother": 1181,
      "Ġinf": 1182,
      "ĠâĢĺ": 1183,
      "Ġsomething": 1184,
      "chool": 1185,
      "Ġdifferent": 1186,
      "Ġcor": 1187,
      "Ġloc": 1188,
      "ute": 1189,
      "Ġsoc": 1190,
      "Ġinvest": 1191,
      "uc": 1192,
      "Ġpower": 1193,
      "Ġ.": 1194,
      "Ġcommun": 1195,
      "Ġart": 1196,
      "Ġpass": 1197,
      "Ġplan": 1198,
      "Ġlife": 1199,
      "Ġhead": 1200,
      "ience": 1201,
      "the": 1202,
      "Ġthings": 1203,
      "ody": 1204,
      "ik": 1205,
      "Ġrele": 1206,
      "Ġfar": 1207,
      "ned": 1208,
      "thing": 1209,
      "Ġmet": 1210,
      "arl": 1211,
      "Ġposs": 1212,
      "Ġvot": 1213,
      "Ġche": 1214,
      "ross": 1215,
      "erest": 1216,
      "Ġcamp": 1217,
      "Ġbo": 1218,
      "arge": 1219,
      "ĠRep": 1220,
      "ants": 1221,
      "Ġmight": 1222,
      "Ġask": 1223,
      "view": 1224,
      "Ġdep": 1225,
      "ize": 1226,
      "Ġeach": 1227,
      "ient": 1228,
      "iness": 1229,
      "ret": 1230,
      "Ġchild": 1231,
      "Ġnever": 1232,
      "Ġnext": 1233,
      "ĠUS": 1234,
      "ield": 1235,
      "Ġsecond": 1236,
      "Ġquest": 1237,
      "Ġadv": 1238,
      "Ġmark": 1239,
      "Ġbus": 1240,
      "Ġdem": 1241,
      "Ġcome": 1242,
      "Ġgot": 1243,
      "ĠBl": 1244,
      "Ġbest": 1245,
      "Ġopen": 1246,
      "Ġallow": 1247,
      "ital": 1248,
      "ee": 1249,
      "ittle": 1250,
      "son": 1251,
      "Ġseem": 1252,
      "20": 1253,
      "Ġpost": 1254,
      "Ġfeel": 1255,
      "ple": 1256,
      "Ġpercent": 1257,
      "Ġpri": 1258,
      "cl": 1259,
      "gram": 1260,
      "ug": 1261,
      "Ġhome": 1262,
      "ten": 1263,
      "Ġdirect": 1264,
      "rat": 1265,
      "Ġdist": 1266,
      "Ġwr": 1267,
      "ired": 1268,
      "Ġincre": 1269,
      "Ġcontro": 1270,
      "orn": 1271,
      "osed": 1272,
      "Ġresult": 1273,
      "Ġhard": 1274,
      "Ġimport": 1275,
      "Ġcare": 1276,
      "Ġcomple": 1277,
      "ately": 1278,
      "less": 1279,
      "Ġplace": 1280,
      "Ġav": 1281,
      "Ġwithout": 1282,
      "ĠInd": 1283,
      "Ġmillion": 1284,
      "Ġincluding": 1285,
      "chn": 1286,
      "Ġinform": 1287,
      "Ġhum": 1288,
      "ĠShe": 1289,
      "conom": 1290,
      "Ġide": 1291,
      "Ġproble": 1292,
      "ama": 1293,
      "Ġtop": 1294,
      "Ġbuild": 1295,
      "ĠZ": 1296,
      "Ġnumber": 1297,
      "gy": 1298,
      "aim": 1299,
      "Ġcountry": 1300,
      "oney": 1301,
      "Ġgl": 1302,
      "Ġstand": 1303,
      "ably": 1304,
      "Ġel": 1305,
      "ral": 1306,
      "co": 1307,
      "ished": 1308,
      "riend": 1309,
      "Ġfour": 1310,
      "Ġlet": 1311,
      "Ġbetter": 1312,
      "Ġpartic": 1313,
      "ĠWhen": 1314,
      "ways": 1315,
      "Ġrecent": 1316,
      "Ġtri": 1317,
      "Ġmov": 1318,
      "Ġinterest": 1319,
      "ration": 1320,
      "ĠQ": 1321,
      "Ġless": 1322,
      "Ġturn": 1323,
      "Ġlittle": 1324,
      "Ġseason": 1325,
      "Ġappro": 1326,
      "Ġbeh": 1327,
      "We": 1328,
      "ĠPh": 1329,
      "Ġbro": 1330,
      "line": 1331,
      "Ġcalled": 1332,
      "Ġmil": 1333,
      "ĠBe": 1334,
      "ract": 1335,
      "Ġcase": 1336,
      "ised": 1337,
      "Ġdr": 1338,
      "app": 1339,
      "Ġattack": 1340,
      "Ġpop": 1341,
      "Ġrest": 1342,
      "ency": 1343,
      "Ġann": 1344,
      "Ġleft": 1345,
      "Ġmove": 1346,
      "ling": 1347,
      "Ġkeep": 1348,
      "Ġfun": 1349,
      "ode": 1350,
      "Ġdidn": 1351,
      "Ġfull": 1352,
      "ina": 1353,
      "leg": 1354,
      "ering": 1355,
      "Ġmain": 1356,
      "ĠWhat": 1357,
      "ajor": 1358,
      "inal": 1359,
      "ted": 1360,
      "Ġprev": 1361,
      "Ġtest": 1362,
      "Ġeffect": 1363,
      "uro": 1364,
      "Ġusing": 1365,
      "Ġprogram": 1366,
      "me": 1367,
      "ature": 1368,
      "Ġval": 1369,
      "Ġpay": 1370,
      "ĠAmerican": 1371,
      "be": 1372,
      "__": 1373,
      "Ġpolice": 1374,
      "Ġform": 1375,
      "Ġeconom": 1376,
      "Ġpos": 1377,
      "Ġnews": 1378,
      "Ġdata": 1379,
      "Ġwin": 1380,
      "ĠOb": 1381,
      "Ġlevel": 1382,
      "ains": 1383,
      "Ġchar": 1384,
      "iving": 1385,
      "ined": 1386,
      "ready": 1387,
      "Ġsmall": 1388,
      "uck": 1389,
      "Ġlist": 1390,
      "Ġschool": 1391,
      "to": 1392,
      "ology": 1393,
      "ided": 1394,
      "10": 1395,
      "'re": 1396,
      "ger": 1397,
      "ploy": 1398,
      "Ġeas": 1399,
      "Ġprocess": 1400,
      "ĠGo": 1401,
      "ird": 1402,
      "Ġwomen": 1403,
      "Ġchange": 1404,
      "nce": 1405,
      "reen": 1406,
      "ĠCan": 1407,
      "Ġhist": 1408,
      "ĠUnited": 1409,
      "Ġcurrent": 1410,
      "Ġprom": 1411,
      "ians": 1412,
      "Ġrece": 1413,
      "Ġdri": 1414,
      "Ġcompany": 1415,
      "Ġpresident": 1416,
      "used": 1417,
      "Ġ=": 1418,
      "ohn": 1419,
      "ĠChr": 1420,
      "Ġty": 1421,
      "Ġalready": 1422,
      "Ġ--": 1423,
      "iver": 1424,
      "ruct": 1425,
      "ĠAll": 1426,
      "rap": 1427,
      "Ġbre": 1428,
      "Ġwhy": 1429,
      "Ġunt": 1430,
      "Ġmat": 1431,
      "Ġalways": 1432,
      "Ġsol": 1433,
      "Ġexpect": 1434,
      "Ġmoney": 1435,
      "Ġlater": 1436,
      "Ġclass": 1437,
      "Ġtechn": 1438,
      "Ġbusiness": 1439,
      "Ġbook": 1440,
      "Ġofficial": 1441,
      "ĠSp": 1442,
      "stand": 1443,
      "Ġthing": 1444,
      "Ġproject": 1445,
      "wit": 1446,
      "Ġjob": 1447,
      "ases": 1448,
      "iversity": 1449,
      "It": 1450,
      "Ġclaim": 1451,
      "Ġorgan": 1452,
      "Ġ18": 1453,
      "aign": 1454,
      "Ġ12": 1455,
      "Ġtalk": 1456,
      "ards": 1457,
      "Ġinformation": 1458,
      "Ġdesign": 1459,
      "aff": 1460,
      "Ġprof": 1461,
      "Ġable": 1462,
      "Ġchang": 1463,
      "Ġmajor": 1464,
      "Ġstory": 1465,
      "iven": 1466,
      "lection": 1467,
      "Ġhealth": 1468,
      "Ġrese": 1469,
      "ertain": 1470,
      "Ġpast": 1471,
      "Ġvis": 1472,
      "ead": 1473,
      "ĠOne": 1474,
      "urs": 1475,
      "Ġfree": 1476,
      "ption": 1477,
      "outh": 1478,
      "here": 1479,
      "ĠPres": 1480,
      "Ġaway": 1481,
      "ĠPl": 1482,
      "Ġoper": 1483,
      "ĠMr": 1484,
      "ior": 1485,
      "Ġmust": 1486,
      "Ġcity": 1487,
      "ĠSc": 1488,
      "...": 1489,
      "ĠTo": 1490,
      "ural": 1491,
      "ample": 1492,
      "ĠMar": 1493,
      "Ġhappen": 1494,
      "Ġimportant": 1495,
      "ĠJohn": 1496,
      "Ġsk": 1497,
      "uthor": 1498,
      "urity": 1499,
      "acy": 1500,
      "Ġkill": 1501,
      "ury": 1502,
      "Ġold": 1503,
      "ured": 1504,
      "Ġvar": 1505,
      "Ġdoesn": 1506,
      "ending": 1507,
      "Ġest": 1508,
      "Ġleast": 1509,
      "Ġpat": 1510,
      "Ġgrow": 1511,
      "ission": 1512,
      "Ġ15": 1513,
      "ĠCon": 1514,
      "ained": 1515,
      "ĠBr": 1516,
      "Ġedit": 1517,
      "Ġcost": 1518,
      "els": 1519,
      "Ġtell": 1520,
      "Ġmen": 1521,
      "ides": 1522,
      "Ġconst": 1523,
      "ider": 1524,
      "ott": 1525,
      "Ġdays": 1526,
      "Ġhop": 1527,
      "ney": 1528,
      "ox": 1529,
      "Ġcame": 1530,
      "Ġstre": 1531,
      "tt": 1532,
      "Ġcampaign": 1533,
      "Ġenough": 1534,
      "Ġaff": 1535,
      "ĠOr": 1536,
      "Ġview": 1537,
      "Ġkind": 1538,
      "Ġmaking": 1539,
      "ccess": 1540,
      "ern": 1541,
      "side": 1542,
      "Ġmar": 1543,
      "sc": 1544,
      "Ġlarge": 1545,
      "ĠRepublic": 1546,
      "oad": 1547,
      "Ġfamily": 1548,
      "ĠComm": 1549,
      "Ġrecord": 1550,
      "Ġfriend": 1551,
      "Ġelect": 1552,
      "ush": 1553,
      "Ġtax": 1554,
      "ley": 1555,
      "eral": 1556,
      "Ġpolic": 1557,
      "Ġsit": 1558,
      "ality": 1559,
      "âĢ¦": 1560,
      "ror": 1561,
      "ator": 1562,
      "ĠNo": 1563,
      "ising": 1564,
      "pped": 1565,
      "Ġuntil": 1566,
      "ified": 1567,
      "ional": 1568,
      "Ġvide": 1569,
      "ived": 1570,
      "Ġpolitical": 1571,
      "ĠMc": 1572,
      "Ġdeal": 1573,
      "arent": 1574,
      "ries": 1575,
      "alf": 1576,
      "augh": 1577,
      "Ġworking": 1578,
      "Ġline": 1579,
      "Ġtook": 1580,
      "ued": 1581,
      "Ġdeb": 1582,
      "Ġve": 1583,
      "----": 1584,
      "ĠMay": 1585,
      "ĠDem": 1586,
      "aps": 1587,
      "Ġfore": 1588,
      "bs": 1589,
      "aining": 1590,
      "ony": 1591,
      "Ġair": 1592,
      "ister": 1593,
      "Ġes": 1594,
      "ane": 1595,
      "Ġdel": 1596,
      "ĠRuss": 1597,
      "Ġbecome": 1598,
      "Ġactually": 1599,
      "Ġintern": 1600,
      "ocrat": 1601,
      "iol": 1602,
      "Ġmean": 1603,
      "ĠSy": 1604,
      "ĠPresident": 1605,
      "ember": 1606,
      "Ġ11": 1607,
      "work": 1608,
      "Ġfund": 1609,
      "ware": 1610,
      "ĠEuro": 1611,
      "Ġoften": 1612,
      "Ġformer": 1613,
      "Ġgive": 1614,
      "by": 1615,
      "Ġever": 1616,
      "ĠWith": 1617,
      "Ġwon": 1618,
      "Ġaccording": 1619,
      "oint": 1620,
      "most": 1621,
      "eng": 1622,
      "year": 1623,
      "ann": 1624,
      "Ġgames": 1625,
      "Ġreturn": 1626,
      "iqu": 1627,
      "aring": 1628,
      "Ġhuman": 1629,
      "Ġ,": 1630,
      "Ġword": 1631,
      "Ġbas": 1632,
      "ison": 1633,
      "ization": 1634,
      "ĠAm": 1635,
      "Ġorder": 1636,
      "Ġname": 1637,
      "Ġtimes": 1638,
      "gin": 1639,
      "wh": 1640,
      "Ġ199": 1641,
      "iber": 1642,
      "Ġdev": 1643,
      "ron": 1644,
      "Ġbit": 1645,
      "ither": 1646,
      "Ġsever": 1647,
      "uture": 1648,
      "ĠCol": 1649,
      "icle": 1650,
      "Ġperform": 1651,
      "ER": 1652,
      "Ġcharac": 1653,
      "raft": 1654,
      "Ġmarket": 1655,
      "Ġsing": 1656,
      "Ġfac": 1657,
      "Ġdoing": 1658,
      "idd": 1659,
      "Ġnight": 1660,
      "Ġra": 1661,
      "Ġappear": 1662,
      "for": 1663,
      "Ġlear": 1664,
      "Ġplayers": 1665,
      "aken": 1666,
      "ĠAfter": 1667,
      "ched": 1668,
      "Ġla": 1669,
      "Th": 1670,
      "iam": 1671,
      "Ġtoday": 1672,
      "ĠIm": 1673,
      "Ġhaving": 1674,
      "Ġseen": 1675,
      "Ġearly": 1676,
      "ĠTe": 1677,
      "Ġevent": 1678,
      "Ġmedia": 1679,
      "50": 1680,
      "rop": 1681,
      "Ġsocial": 1682,
      "Ġpot": 1683,
      "//": 1684,
      "Ġchildren": 1685,
      "Ġwhether": 1686,
      "sh": 1687,
      "Ġcrit": 1688,
      "ium": 1689,
      "Ġcontrol": 1690,
      "idence": 1691,
      "Ġseveral": 1692,
      "mber": 1693,
      "Ġmeet": 1694,
      "Ġsure": 1695,
      "Ġpress": 1696,
      "Ġwent": 1697,
      "Ġfive": 1698,
      "iously": 1699,
      "artment": 1700,
      "ene": 1701,
      "Ġprop": 1702,
      "ĠObama": 1703,
      "Ġyoung": 1704,
      "Ġmilit": 1705,
      "ories": 1706,
      "Ġequ": 1707,
      "Ġquestion": 1708,
      "let": 1709,
      "Ġlikely": 1710,
      "Ġocc": 1711,
      "ĠYork": 1712,
      "une": 1713,
      "Ġmembers": 1714,
      "ands": 1715,
      "Ġeng": 1716,
      "ĠEurope": 1717,
      "Ġcertain": 1718,
      "br": 1719,
      "Ġwater": 1720,
      "ots": 1721,
      "enn": 1722,
      "Ġexample": 1723,
      "ĠNot": 1724,
      "Ġdone": 1725,
      "Ġvers": 1726,
      "Ġarg": 1727,
      "ĠStates": 1728,
      "Ġside": 1729,
      "Ġinvol": 1730,
      "Ġshort": 1731,
      "Ġ#": 1732,
      "Ġsuccess": 1733,
      "ended": 1734,
      "Ġant": 1735,
      "Ġalong": 1736,
      "ĠEx": 1737,
      "vert": 1738,
      "ential": 1739,
      "Ġhour": 1740,
      "ball": 1741,
      "ially": 1742,
      "11": 1743,
      "Ġmonths": 1744,
      "ats": 1745,
      "empt": 1746,
      "ĠCo": 1747,
      "ubl": 1748,
      "Ġdesc": 1749,
      "lf": 1750,
      "Ġwithin": 1751,
      "Ġcourse": 1752,
      "ague": 1753,
      "Ġfight": 1754,
      "ĠState": 1755,
      "Ġsex": 1756,
      "uff": 1757,
      "Ġonce": 1758,
      "Ġi": 1759,
      "ster": 1760,
      "Ġamong": 1761,
      "ulation": 1762,
      "imate": 1763,
      "Ġactiv": 1764,
      "urch": 1765,
      "rew": 1766,
      "Ġfuture": 1767,
      "nect": 1768,
      "iting": 1769,
      "Ġ]": 1770,
      "Ġinvestig": 1771,
      "Ġunderstand": 1772,
      "Ġpossible": 1773,
      "ortun": 1774,
      "Ġconcer": 1775,
      "Ġcho": 1776,
      "ones": 1777,
      "Ġmeans": 1778,
      "ggest": 1779,
      "Ġproblem": 1780,
      "Ġauthor": 1781,
      "Ġpriv": 1782,
      "Ġthought": 1783,
      "itive": 1784,
      "ĠPol": 1785,
      "Ġviol": 1786,
      "Ġavail": 1787,
      "ourn": 1788,
      "ĠHowever": 1789,
      "Ġproduct": 1790,
      "ivid": 1791,
      "Ġknown": 1792,
      "oci": 1793,
      "Ġnon": 1794,
      "gress": 1795,
      "Ġyet": 1796,
      "Ġhold": 1797,
      "Ġacross": 1798,
      "Ġ2016": 1799,
      "Ġprotect": 1800,
      "Ġlocal": 1801,
      "ald": 1802,
      "Ġcommunity": 1803,
      "Ġfail": 1804,
      "Ġwrit": 1805,
      "ler": 1806,
      "19": 1807,
      "Ġreason": 1808,
      "Ġ&": 1809,
      "ĠChrist": 1810,
      "Ġsuggest": 1811,
      "inc": 1812,
      "Ġmakes": 1813,
      "Ġorig": 1814,
      "arm": 1815,
      "ĠHouse": 1816,
      "verage": 1817,
      "por": 1818,
      "Ġasked": 1819,
      "not": 1820,
      "book": 1821,
      "orld": 1822,
      "ederal": 1823,
      "back": 1824,
      "Ġ30": 1825,
      "Ġgiven": 1826,
      "ĠX": 1827,
      "aged": 1828,
      "Ġreported": 1829,
      "ensive": 1830,
      "Ġmus": 1831,
      "Ġothers": 1832,
      "Ġstrong": 1833,
      "Ġbelieve": 1834,
      "ĠFl": 1835,
      "Ġprob": 1836,
      "Ġvideo": 1837,
      "ĠSen": 1838,
      "Ġgetting": 1839,
      "ĠWhile": 1840,
      "Ġben": 1841,
      "ĠPr": 1842,
      "Ġlight": 1843,
      "ances": 1844,
      "ĠUniversity": 1845,
      "ĠMin": 1846,
      "Ġannoun": 1847,
      "ober": 1848,
      "Ġident": 1849,
      "itions": 1850,
      "ored": 1851,
      "ĠDemocrat": 1852,
      "Ġca": 1853,
      "Ġsent": 1854,
      "Ġcut": 1855,
      "Ġlim": 1856,
      "iron": 1857,
      "iety": 1858,
      "lement": 1859,
      "ĠDon": 1860,
      "Ġsour": 1861,
      "Ġcond": 1862,
      "urther": 1863,
      "my": 1864,
      "Ġcreat": 1865,
      "Ġ2015": 1866,
      "ĠÂ": 1867,
      "ashing": 1868,
      "'ve": 1869,
      "Ġnet": 1870,
      "ĠCent": 1871,
      "Ġ16": 1872,
      "Ġnational": 1873,
      "Ġstarted": 1874,
      "rest": 1875,
      "Ġsaf": 1876,
      "Ġclose": 1877,
      "30": 1878,
      "Ġland": 1879,
      "Ġavailable": 1880,
      "Ġdeath": 1881,
      ".,": 1882,
      "Ġhig": 1883,
      "aster": 1884,
      "Ġindust": 1885,
      "Ġpar": 1886,
      "Ġbased": 1887,
      "Ġissue": 1888,
      "Ġlove": 1889,
      "Ġlow": 1890,
      "Ġaccount": 1891,
      "Ġfollowing": 1892,
      "Ġhistory": 1893,
      "Ġmom": 1894,
      "Ġemploy": 1895,
      "use": 1896,
      "ĠAmerica": 1897,
      "selves": 1898,
      "Ġago": 1899,
      "orts": 1900,
      "12": 1901,
      "ability": 1902,
      "Ġcomes": 1903,
      "Ġtrying": 1904,
      "Ġparty": 1905,
      "ument": 1906,
      "Ġalmost": 1907,
      "Ġseries": 1908,
      "uly": 1909,
      "utes": 1910,
      "Ġtoget": 1911,
      "ĠSec": 1912,
      "Ġtogether": 1913,
      "Ġidea": 1914,
      "ination": 1915,
      "Ġfoc": 1916,
      "of": 1917,
      "hers": 1918,
      "Ġaccess": 1919,
      "ief": 1920,
      "reed": 1921,
      "ilar": 1922,
      "ails": 1923,
      "Ġisn": 1924,
      "itional": 1925,
      "resent": 1926,
      "Ġclear": 1927,
      "Ġ2014": 1928,
      "ĠNe": 1929,
      "AT": 1930,
      "Ġadded": 1931,
      "ĠGr": 1932,
      "Ġtrad": 1933,
      "Ġpract": 1934,
      "Ġ14": 1935,
      "Ġimpro": 1936,
      "pro": 1937,
      "erence": 1938,
      "Ġexperience": 1939,
      "ĠCanad": 1940,
      "though": 1941,
      "Ġfilm": 1942,
      "Ġhalf": 1943,
      "af": 1944,
      "ged": 1945,
      "ĠBro": 1946,
      "ream": 1947,
      "ustom": 1948,
      "Ġrul": 1949,
      "unch": 1950,
      "ien": 1951,
      "Ġlooking": 1952,
      "ividual": 1953,
      "Ġsix": 1954,
      "ĠEng": 1955,
      "ograp": 1956,
      "ring": 1957,
      "Ġanything": 1958,
      "rael": 1959,
      "Ġlive": 1960,
      "Ġanal": 1961,
      "ĠMan": 1962,
      "rict": 1963,
      "Ġcomplete": 1964,
      "witter": 1965,
      "eb": 1966,
      "Ġarea": 1967,
      "inton": 1968,
      "erman": 1969,
      "Ġfav": 1970,
      "Ġmiss": 1971,
      "minist": 1972,
      "Ġris": 1973,
      "Ġpresent": 1974,
      "ĠSu": 1975,
      "ai": 1976,
      "Ġsaying": 1977,
      "nes": 1978,
      "ĠNorth": 1979,
      "ĠWar": 1980,
      "Ġbad": 1981,
      "raw": 1982,
      "rug": 1983,
      "Ġvict": 1984,
      "ert": 1985,
      "cially": 1986,
      "ows": 1987,
      "Ġ13": 1988,
      "aid": 1989,
      "ĠCar": 1990,
      "Ġbill": 1991,
      "Ġtaken": 1992,
      "uge": 1993,
      "Ġphot": 1994,
      "ps": 1995,
      "Ġmor": 1996,
      "Ġcourt": 1997,
      "Ġentire": 1998,
      "Ġtry": 1999,
      "Ġcompet": 2000,
      "ators": 2001,
      "Ġaut": 2002,
      "ĠNow": 2003,
      "Ġz": 2004,
      "Ġbehind": 2005,
      "Ġ|": 2006,
      "Ġ17": 2007,
      "ĠAb": 2008,
      "'m": 2009,
      "Ġtre": 2010,
      "Ġer": 2011,
      "play": 2012,
      "wards": 2013,
      "ĠBar": 2014,
      "Ġnear": 2015,
      "Ġmult": 2016,
      "osp": 2017,
      "ĠJust": 2018,
      "ĠAf": 2019,
      "Ġsecurity": 2020,
      "Ġmilitary": 2021,
      "Ġface": 2022,
      "Ġ:": 2023,
      "Ġproper": 2024,
      "âĢĵ": 2025,
      "ĠDep": 2026,
      "Ġdiscuss": 2027,
      "Ġ/": 2028,
      "ĠBrit": 2029,
      "Ġrather": 2030,
      "Ġindividual": 2031,
      "Ġtot": 2032,
      "IN": 2033,
      "Ġthreat": 2034,
      "Ġsingle": 2035,
      "Ġstudy": 2036,
      "Ġmind": 2037,
      "ĠCal": 2038,
      "Ġquick": 2039,
      "Ġpubl": 2040,
      "15": 2041,
      "ĠRes": 2042,
      "ĠApp": 2043,
      "ĠEd": 2044,
      "Ġwanted": 2045,
      "Ġfall": 2046,
      "atic": 2047,
      "irc": 2048,
      "Ġmess": 2049,
      "ĠInst": 2050,
      "aper": 2051,
      "ĠNational": 2052,
      "Ġpolicy": 2053,
      "ĠIsrael": 2054,
      "ĠHis": 2055,
      "ales": 2056,
      "Ġsomeone": 2057,
      "ĠClinton": 2058,
      "lling": 2059,
      "ids": 2060,
      "Ġsum": 2061,
      "Ġfood": 2062,
      "ĠBy": 2063,
      "Ġblack": 2064,
      "Ġcult": 2065,
      "ĠHar": 2066,
      "par": 2067,
      "off": 2068,
      "Ġspecial": 2069,
      "Ġredu": 2070,
      "Ġbring": 2071,
      "ĠMy": 2072,
      "ĠThese": 2073,
      "Ġplayer": 2074,
      "Ġkey": 2075,
      "ĠAust": 2076,
      "Ġcomb": 2077,
      "ĠWorld": 2078,
      "ply": 2079,
      "Ġattempt": 2080,
      "ĠDav": 2081,
      "Ġcompan": 2082,
      "ĠSome": 2083,
      "ĠCity": 2084,
      "sy": 2085,
      "ON": 2086,
      "Ġtaking": 2087,
      "Ġpret": 2088,
      "ĠMe": 2089,
      "ify": 2090,
      "**": 2091,
      "Ġfoot": 2092,
      "olution": 2093,
      "Ġelse": 2094,
      "elt": 2095,
      "viron": 2096,
      "Ġbody": 2097,
      "Ġspace": 2098,
      "Ġfront": 2099,
      "ĠGe": 2100,
      "Ġprobably": 2101,
      "ches": 2102,
      "Ġnothing": 2103,
      "Ġcou": 2104,
      "ashington": 2105,
      "rote": 2106,
      "://": 2107,
      "icult": 2108,
      "ĠGu": 2109,
      "Ġjo": 2110,
      ".)": 2111,
      "Ġresearch": 2112,
      "go": 2113,
      "Ġconnect": 2114,
      "ĠPart": 2115,
      "Ġsw": 2116,
      "Ġcoming": 2117,
      "amed": 2118,
      "ming": 2119,
      "Ġhowever": 2120,
      "Ġpoints": 2121,
      "Ġdescrib": 2122,
      "Ġear": 2123,
      "ault": 2124,
      "cing": 2125,
      "Ġsimilar": 2126,
      "reme": 2127,
      "Ġbenef": 2128,
      "ĠJan": 2129,
      "Ġeither": 2130,
      "Ġsignific": 2131,
      "ĠDo": 2132,
      "Ġcoun": 2133,
      "Ġdecision": 2134,
      "ully": 2135,
      "irl": 2136,
      "aces": 2137,
      "Ġexist": 2138,
      "hy": 2139,
      "Ġmass": 2140,
      "ĠWashington": 2141,
      "Ġ2013": 2142,
      "Ġsus": 2143,
      "Ġtarg": 2144,
      "Ġimm": 2145,
      "Ġfeat": 2146,
      "Ġconv": 2147,
      "ana": 2148,
      "Ġenc": 2149,
      "Ġhouse": 2150,
      "Ġrights": 2151,
      "mb": 2152,
      "Ġwa": 2153,
      "asing": 2154,
      "Ġcreate": 2155,
      "Ġfurther": 2156,
      "Ġdoc": 2157,
      "Ġhit": 2158,
      "Ġfire": 2159,
      "Ġchall": 2160,
      "ung": 2161,
      "over": 2162,
      "Ġwrote": 2163,
      "yn": 2164,
      "ĠSouth": 2165,
      "Ġservice": 2166,
      "Ġban": 2167,
      "Ġfig": 2168,
      "Ġthird": 2169,
      "ĠMed": 2170,
      "Ġrepl": 2171,
      "Ġstop": 2172,
      "Ġpick": 2173,
      "Ġcompl": 2174,
      "Ġbegin": 2175,
      "ively": 2176,
      "Ġfield": 2177,
      "Ġissues": 2178,
      "now": 2179,
      "sw": 2180,
      "Ġwhole": 2181,
      "Ġrelations": 2182,
      "Ġstep": 2183,
      "ĠAcc": 2184,
      "Ġsuper": 2185,
      "pping": 2186,
      "ried": 2187,
      "Ġseems": 2188,
      "ently": 2189,
      "Ġ2012": 2190,
      "Ġmeas": 2191,
      "Ġeverything": 2192,
      "ape": 2193,
      "ww": 2194,
      "IS": 2195,
      "Ġcand": 2196,
      "Ġdam": 2197,
      "pecially": 2198,
      "itted": 2199,
      "Ġtra": 2200,
      "Ġexec": 2201,
      "Ġcompanies": 2202,
      "Ġey": 2203,
      "Ġfederal": 2204,
      "pite": 2205,
      "Ġroom": 2206,
      "attle": 2207,
      "Ġwatch": 2208,
      "ĠAss": 2209,
      "Ġdue": 2210,
      "Ġsound": 2211,
      "aul": 2212,
      "ĠIntern": 2213,
      "Ġlab": 2214,
      "ilt": 2215,
      "Ġself": 2216,
      "oon": 2217,
      "uation": 2218,
      "Ġleaders": 2219,
      "16": 2220,
      "Ġinfl": 2221,
      "Ġstates": 2222,
      "AN": 2223,
      "ibility": 2224,
      "Ġrole": 2225,
      "Ġ25": 2226,
      "head": 2227,
      "Ġ2017": 2228,
      "ĠDr": 2229,
      "ivil": 2230,
      "Ġstri": 2231,
      "iday": 2232,
      "ran": 2233,
      "Ġcustom": 2234,
      "ery": 2235,
      "Ġofficials": 2236,
      "Ġreleased": 2237,
      "Ġbegan": 2238,
      "Ġstudents": 2239,
      "rodu": 2240,
      "amer": 2241,
      "Ġopt": 2242,
      "Ġposition": 2243,
      "Ġcharacter": 2244,
      "obal": 2245,
      "Ġ)": 2246,
      "Ġmatter": 2247,
      "ĠChina": 2248,
      "Ġfinal": 2249,
      "Ġoutside": 2250,
      "AR": 2251,
      "Ġener": 2252,
      "ender": 2253,
      "Ġdou": 2254,
      "14": 2255,
      "Ġstatement": 2256,
      "ades": 2257,
      "Ġhimself": 2258,
      "Ġbreak": 2259,
      "Ġtreat": 2260,
      "Ã©": 2261,
      "Ġ100": 2262,
      "Ġdevelopment": 2263,
      "Ġprovide": 2264,
      "Ġstat": 2265,
      "Ġ198": 2266,
      "vironment": 2267,
      "arlier": 2268,
      "Ġinit": 2269,
      "Ġabove": 2270,
      "sec": 2271,
      "Ġitself": 2272,
      "like": 2273,
      "Ġamount": 2274,
      "Ġrepresent": 2275,
      "Ġaction": 2276,
      "Ġhours": 2277,
      "Ġthemselves": 2278,
      "Ġgun": 2279,
      "lim": 2280,
      "Ġoffice": 2281,
      "iod": 2282,
      "Ġcontinue": 2283,
      "ĠGerman": 2284,
      "ĠWill": 2285,
      "Ġbecame": 2286,
      "Ġgeneral": 2287,
      "Ġspecific": 2288,
      "Ġaddress": 2289,
      "Ġneg": 2290,
      "Ġcountries": 2291,
      "aced": 2292,
      "Ġlarg": 2293,
      "Ġtrue": 2294,
      "Ġsimply": 2295,
      "lish": 2296,
      "Ġwasn": 2297,
      "ask": 2298,
      "reg": 2299,
      "Ġsignificant": 2300,
      "'ll": 2301,
      "umb": 2302,
      "OR": 2303,
      "ĠEn": 2304,
      "Ġbar": 2305,
      "Ġground": 2306,
      "ogn": 2307,
      "Ġinterview": 2308,
      "oid": 2309,
      "acebook": 2310,
      "Ġrunning": 2311,
      "Ġdifficult": 2312,
      "ili": 2313,
      "ĠNews": 2314,
      "Ġrad": 2315,
      "ev": 2316,
      "Ġevidence": 2317,
      "arter": 2318,
      "Ġversion": 2319,
      "Ġprofess": 2320,
      "Ġadminist": 2321,
      "ĠTwitter": 2322,
      "Ġcop": 2323,
      "Ġred": 2324,
      "Ġneeds": 2325,
      "Ġagree": 2326,
      "ogle": 2327,
      "angu": 2328,
      "Ġtyp": 2329,
      "Ġeveryone": 2330,
      "Ġdrug": 2331,
      "Ġgroups": 2332,
      "BC": 2333,
      "Ġappe": 2334,
      "iddle": 2335,
      "eks": 2336,
      "Ġbuilding": 2337,
      "Ġrespons": 2338,
      "Ġball": 2339,
      "Ġdom": 2340,
      "Ġtem": 2341,
      "Ġwoman": 2342,
      "Ġshows": 2343,
      "Ġcommon": 2344,
      "Ġmusic": 2345,
      "Ġdest": 2346,
      "Ġlat": 2347,
      "ĠMus": 2348,
      "Ġneeded": 2349,
      "ĠPe": 2350,
      "Ġinj": 2351,
      "13": 2352,
      "lam": 2353,
      "Ġ50": 2354,
      "Ġbelow": 2355,
      "ĠWest": 2356,
      "ift": 2357,
      "Ġexc": 2358,
      "right": 2359,
      "ournal": 2360,
      "Ġrelease": 2361,
      "Ġsaw": 2362,
      "Ġpretty": 2363,
      "Ġdeep": 2364,
      "ĠWhite": 2365,
      "ribut": 2366,
      "Ġinclude": 2367,
      "Ġquite": 2368,
      "Ġmot": 2369,
      "Ġplayed": 2370,
      "isc": 2371,
      "ote": 2372,
      "Ġindustry": 2373,
      "body": 2374,
      "Ġap": 2375,
      "Ġsense": 2376,
      "ĠOct": 2377,
      "Ġenergy": 2378,
      "Ġplaying": 2379,
      "Ġcandid": 2380,
      "Ġmag": 2381,
      "Ġphys": 2382,
      "yle": 2383,
      "ival": 2384,
      "Ġgen": 2385,
      "Ġwhite": 2386,
      "Ġlegal": 2387,
      "atur": 2388,
      "ĠSte": 2389,
      "Ġlate": 2390,
      "Ġhtt": 2391,
      "Ġfriends": 2392,
      "ĠMich": 2393,
      "ĠFacebook": 2394,
      "Ġ+": 2395,
      "Ġcharg": 2396,
      "Ġalleg": 2397,
      "ES": 2398,
      "Ġinstead": 2399,
      "ĠCong": 2400,
      "Ġabs": 2401,
      "ĠPer": 2402,
      "Ġlost": 2403,
      "bo": 2404,
      "Ġespecially": 2405,
      "Ġvalue": 2406,
      "Ġbillion": 2407,
      "ique": 2408,
      "osing": 2409,
      "Ġhom": 2410,
      "Ġhost": 2411,
      "Ġ{": 2412,
      "oring": 2413,
      "lev": 2414,
      "Ġanim": 2415,
      "istic": 2416,
      "Ġ24": 2417,
      "Ġple": 2418,
      "where": 2419,
      "17": 2420,
      "Ġforward": 2421,
      "ager": 2422,
      "Ġobject": 2423,
      "ĠSm": 2424,
      "Ġrecently": 2425,
      "ĠSept": 2426,
      "Ġtrack": 2427,
      "time": 2428,
      "Ġelection": 2429,
      "irt": 2430,
      "Ġweeks": 2431,
      "Ġvote": 2432,
      "AS": 2433,
      "Ġsuff": 2434,
      "Ġjud": 2435,
      "Ġdeter": 2436,
      "ĠMarch": 2437,
      "epend": 2438,
      "Ġchanges": 2439,
      "Ġperiod": 2440,
      "Ġopportun": 2441,
      "medi": 2442,
      "Ġlo": 2443,
      "Ġpain": 2444,
      "ĠMore": 2445,
      "Ġlonger": 2446,
      "ript": 2447,
      "ached": 2448,
      "oke": 2449,
      "ij": 2450,
      "Ġsite": 2451,
      "Ġaccept": 2452,
      "Ġep": 2453,
      "hod": 2454,
      "Ġsoon": 2455,
      "Ġshoot": 2456,
      "Ġmoment": 2457,
      "Ġhope": 2458,
      "Ġeconomic": 2459,
      "duct": 2460,
      "ĠRepublican": 2461,
      "ights": 2462,
      "Ġpie": 2463,
      "itting": 2464,
      "Ġcheck": 2465,
      "Ġdecl": 2466,
      "irm": 2467,
      "ĠAug": 2468,
      "ental": 2469,
      "ĠHere": 2470,
      "Ġwrong": 2471,
      "Ġblock": 2472,
      "ĠDepartment": 2473,
      "ĠEl": 2474,
      "18": 2475,
      "Ġconsum": 2476,
      "ĠEm": 2477,
      "Ġrelig": 2478,
      "ĠGoogle": 2479,
      "den": 2480,
      "ĠAccording": 2481,
      "ĠSyri": 2482,
      "Ġtit": 2483,
      "Ġcirc": 2484,
      "Ġpotential": 2485,
      "Ġhigher": 2486,
      "Ġworks": 2487,
      "Ġconsider": 2488,
      "lege": 2489,
      "Ġfocus": 2490,
      "ners": 2491,
      "Ġshare": 2492,
      "Ġcred": 2493,
      "ancial": 2494,
      "____": 2495,
      "Ġeduc": 2496,
      "arc": 2497,
      "ĠJune": 2498,
      "Ġheld": 2499,
      "lt": 2500,
      "alt": 2501,
      "oe": 2502,
      "cial": 2503,
      "iding": 2504,
      "ns": 2505,
      "onse": 2506,
      "Ġwebs": 2507,
      "key": 2508,
      "Ġonline": 2509,
      "fer": 2510,
      "ĠRed": 2511,
      "Ġstay": 2512,
      "Ġwalk": 2513,
      "Ġfunction": 2514,
      "Ġled": 2515,
      "overed": 2516,
      "Ġreve": 2517,
      "ularly": 2518,
      "Ġwords": 2519,
      "Ġparent": 2520,
      "Ġpred": 2521,
      "ĠOff": 2522,
      "Ġ*": 2523,
      "ĠAct": 2524,
      "hel": 2525,
      "Ġstru": 2526,
      "Ġresults": 2527,
      "Ġdi": 2528,
      "fect": 2529,
      "Ġwind": 2530,
      "Ġrisk": 2531,
      "Ġreview": 2532,
      "ĠApr": 2533,
      "Ġrev": 2534,
      "lear": 2535,
      "Ġcode": 2536,
      "Ġsold": 2537,
      "Ġlaws": 2538,
      "Ġcontract": 2539,
      "ients": 2540,
      "==": 2541,
      "Ġce": 2542,
      "Ġarticle": 2543,
      "ees": 2544,
      "Ġtotal": 2545,
      "aut": 2546,
      "cil": 2547,
      "ĠJuly": 2548,
      "ole": 2549,
      "Ġaud": 2550,
      "Ġapplic": 2551,
      "Ġservices": 2552,
      "omm": 2553,
      "Ġste": 2554,
      "Ġpersonal": 2555,
      "Ġminutes": 2556,
      "uary": 2557,
      "asons": 2558,
      "ham": 2559,
      "Ġanyone": 2560,
      "Ġage": 2561,
      "ilities": 2562,
      "put": 2563,
      "anger": 2564,
      "Ġ2011": 2565,
      "25": 2566,
      "Ġfavor": 2567,
      "itution": 2568,
      "Ġprim": 2569,
      "Ġtarget": 2570,
      "Ġupd": 2571,
      "Ġansw": 2572,
      "Ġrate": 2573,
      "haps": 2574,
      "ule": 2575,
      "Ġpopular": 2576,
      "Ġden": 2577,
      "ĠHill": 2578,
      "ateg": 2579,
      "Ġexpress": 2580,
      "ĠCongress": 2581,
      "apan": 2582,
      "Ġhy": 2583,
      "ĠMond": 2584,
      "Ġvol": 2585,
      "Ġearlier": 2586,
      "ĠDes": 2587,
      "Ġnecess": 2588,
      "Ġdead": 2589,
      "Ġrespect": 2590,
      "Ġcomput": 2591,
      "ĠAustral": 2592,
      "aging": 2593,
      "ĠGod": 2594,
      "Ġtechnology": 2595,
      "Ġgoal": 2596,
      "Ġcreated": 2597,
      "Ġexpected": 2598,
      "Ġenvironment": 2599,
      "uel": 2600,
      "ends": 2601,
      "iter": 2602,
      "rel": 2603,
      "Ġproblems": 2604,
      "Ġsurpr": 2605,
      "Ġbase": 2606,
      "Ġ@": 2607,
      "ude": 2608,
      "val": 2609,
      "Ġreceived": 2610,
      "St": 2611,
      "Ġport": 2612,
      "reet": 2613,
      "na": 2614,
      "Ġscient": 2615,
      "Ġprivate": 2616,
      "Ġincrease": 2617,
      "isl": 2618,
      "Ġways": 2619,
      "Ġcomment": 2620,
      "Ġeasy": 2621,
      "Ġanti": 2622,
      "Ġpack": 2623,
      "iple": 2624,
      "In": 2625,
      "Ġforce": 2626,
      "Ġshot": 2627,
      "Ġquestions": 2628,
      "ĠCont": 2629,
      "Ġcannot": 2630,
      "ĠAg": 2631,
      "Ġannounced": 2632,
      "action": 2633,
      "eter": 2634,
      "ĠFriday": 2635,
      "Ġlangu": 2636,
      "Ġimpact": 2637,
      "Ġpur": 2638,
      "EN": 2639,
      "aterial": 2640,
      "ittee": 2641,
      "ples": 2642,
      "atives": 2643,
      "Ġ<": 2644,
      "Ġet": 2645,
      "ĠCour": 2646,
      "hern": 2647,
      "aving": 2648,
      "Ġinvolved": 2649,
      "ĠApril": 2650,
      "Ġ197": 2651,
      "Ġtype": 2652,
      "ray": 2653,
      "Ġdiv": 2654,
      "lex": 2655,
      "hood": 2656,
      "ĠCount": 2657,
      "itiz": 2658,
      "Ġspeak": 2659,
      "Ġexact": 2660,
      "Ġmodel": 2661,
      "ĠTues": 2662,
      "itten": 2663,
      "ĠEven": 2664,
      "ĠPal": 2665,
      "Ġexecut": 2666,
      "Ġnearly": 2667,
      "ires": 2668,
      "Ġcivil": 2669,
      "ĠMonday": 2670,
      "Ġrelationship": 2671,
      "Ġterror": 2672,
      "Ġstaff": 2673,
      "Ġsen": 2674,
      "ĠRussia": 2675,
      "ĠDavid": 2676,
      "okes": 2677,
      "Ġcases": 2678,
      "Ġinside": 2679,
      "icro": 2680,
      "Ġoriginal": 2681,
      "ĠTuesday": 2682,
      "60": 2683,
      "rem": 2684,
      "ĠJapan": 2685,
      "omb": 2686,
      "Ġcontent": 2687,
      "ĠQu": 2688,
      "Ġresponse": 2689,
      "Ġleave": 2690,
      "ãģ": 2691,
      "che": 2692,
      "ises": 2693,
      "This": 2694,
      "lled": 2695,
      "ams": 2696,
      "Ġcapt": 2697,
      "ips": 2698,
      "Ġfans": 2699,
      "ĠAmericans": 2700,
      "Ġur": 2701,
      "Ġcoll": 2702,
      "Ġ2010": 2703,
      "eed": 2704,
      "Ġinternational": 2705,
      "ĠCor": 2706,
      "ĠGl": 2707,
      "Ġarrest": 2708,
      "ĠGeor": 2709,
      "Ġaverage": 2710,
      "ĠFirst": 2711,
      "ĠWed": 2712,
      "Ġbroad": 2713,
      "Ġliving": 2714,
      "Ġheart": 2715,
      "bor": 2716,
      "ĠSan": 2717,
      "bit": 2718,
      "ky": 2719,
      "Ġreports": 2720,
      "Ġworth": 2721,
      "Ġsource": 2722,
      "Ġkilled": 2723,
      "Ġnation": 2724,
      "Ġcal": 2725,
      "cast": 2726,
      "ellig": 2727,
      "Ġbecom": 2728,
      "atural": 2729,
      "onst": 2730,
      "Ġusers": 2731,
      "Ġworked": 2732,
      "ests": 2733,
      "Ġsoft": 2734,
      "oto": 2735,
      "Ġobs": 2736,
      "Ġimmedi": 2737,
      "ĠPaul": 2738,
      "Ġ40": 2739,
      "Ġsubject": 2740,
      "ctor": 2741,
      "ites": 2742,
      "joy": 2743,
      "Ġestab": 2744,
      "Ġchance": 2745,
      "Ġrespond": 2746,
      "ging": 2747,
      "Ġclub": 2748,
      "ops": 2749,
      "Ġcell": 2750,
      "Ġglobal": 2751,
      "Ġtakes": 2752,
      "ĠSpe": 2753,
      "Ġability": 2754,
      "ael": 2755,
      "ĠCalif": 2756,
      "Ġadm": 2757,
      "rought": 2758,
      "Ġweap": 2759,
      "Ġoil": 2760,
      "Ġassoci": 2761,
      "Ġworkers": 2762,
      "Ġterms": 2763,
      "ĠHer": 2764,
      "Ġprice": 2765,
      "izing": 2766,
      "Ġdirector": 2767,
      "ze": 2768,
      "Ġroad": 2769,
      "Ġpublished": 2770,
      "ological": 2771,
      "Ġtou": 2772,
      "osition": 2773,
      "Ġcollect": 2774,
      "Ġdefin": 2775,
      "ĠSund": 2776,
      "ĠFeb": 2777,
      "Ġfinancial": 2778,
      "unt": 2779,
      "Ġlog": 2780,
      "Ġmid": 2781,
      "Ġsqu": 2782,
      "Ġdecided": 2783,
      "ovember": 2784,
      "Ġlack": 2785,
      "Ġphone": 2786,
      "Ġgave": 2787,
      "Ġmother": 2788,
      "Ġbuy": 2789,
      "ĠPost": 2790,
      "Ġgirl": 2791,
      "ĠJanuary": 2792,
      "Ġstore": 2793,
      "Ġemer": 2794,
      "ĠSch": 2795,
      "Ġinflu": 2796,
      "ĠSeptember": 2797,
      "Ġrequire": 2798,
      "Ġcapital": 2799,
      "Ġhappened": 2800,
      "Ġ21": 2801,
      "Ġforeign": 2802,
      "clus": 2803,
      "Ġfem": 2804,
      "rain": 2805,
      "mon": 2806,
      "Ġgoes": 2807,
      "He": 2808,
      "Ġcurrently": 2809,
      "Ġsituation": 2810,
      "based": 2811,
      "ĠAng": 2812,
      "aled": 2813,
      "Ġwhose": 2814,
      "oved": 2815,
      "Ġlives": 2816,
      "Ġoffer": 2817,
      "Ġindic": 2818,
      "Ġmaterial": 2819,
      "Ġtal": 2820,
      "ĠIslam": 2821,
      "ino": 2822,
      "Ġill": 2823,
      "ĠTw": 2824,
      "Ġmember": 2825,
      "ĠWednes": 2826,
      "Ġâ": 2827,
      "Ġbur": 2828,
      "Ġplans": 2829,
      "ought": 2830,
      "Ġaffect": 2831,
      "ĠNovember": 2832,
      "ĠThurs": 2833,
      "ĠTV": 2834,
      "Ġmethod": 2835,
      "vertise": 2836,
      "Ġ22": 2837,
      "Ġarri": 2838,
      "Ġparticip": 2839,
      "Ġpict": 2840,
      "rect": 2841,
      "Ġmeeting": 2842,
      "Ġrecogn": 2843,
      "Ġteams": 2844,
      "Ġturned": 2845,
      "ruction": 2846,
      "Ġbank": 2847,
      "Ġnetwork": 2848,
      "Ġevents": 2849,
      "fully": 2850,
      "ĠWednesday": 2851,
      "\".": 2852,
      "ese": 2853,
      "Ġsimple": 2854,
      "order": 2855,
      "Ġintrodu": 2856,
      "Ġnorm": 2857,
      "Ġcy": 2858,
      "Ġareas": 2859,
      "Ġtext": 2860,
      "ills": 2861,
      "ĠThursday": 2862,
      "ĠAfric": 2863,
      "Ġregard": 2864,
      "Ġ}": 2865,
      "Ġhuge": 2866,
      "Ġcouple": 2867,
      "Ġpage": 2868,
      "ĠCourt": 2869,
      "oo": 2870,
      "Ġperformance": 2871,
      "Ġtool": 2872,
      "Ġvia": 2873,
      "Ġapproach": 2874,
      "Ġcareer": 2875,
      "oud": 2876,
      "bl": 2877,
      "Ġmis": 2878,
      "aur": 2879,
      "ĠKe": 2880,
      "Ġfelt": 2881,
      "ety": 2882,
      "Ġemail": 2883,
      "ĠEuropean": 2884,
      "Ġord": 2885,
      "ĠAugust": 2886,
      "Ġrace": 2887,
      "ĠOctober": 2888,
      "apt": 2889,
      "load": 2890,
      "Ġquickly": 2891,
      "Ġround": 2892,
      "Ġhon": 2893,
      "ĠOf": 2894,
      "\",": 2895,
      "aily": 2896,
      "oor": 2897,
      "Ġimprove": 2898,
      "Ġengine": 2899,
      "ĠCanada": 2900,
      "Ġnumbers": 2901,
      "istan": 2902,
      "Ġvictim": 2903,
      "--------": 2904,
      "40": 2905,
      "Ġadministration": 2906,
      "rown": 2907,
      "ĠCaliforn": 2908,
      "ĠBritish": 2909,
      "ĠSunday": 2910,
      "Ġpull": 2911,
      "ett": 2912,
      "Ġbuilt": 2913,
      "fl": 2914,
      "Ġfre": 2915,
      "chie": 2916,
      "Ġloss": 2917,
      "Ġpers": 2918,
      "ĠThen": 2919,
      "avy": 2920,
      "ructure": 2921,
      "You": 2922,
      "Ġfather": 2923,
      "Ġthous": 2924,
      "ume": 2925,
      "Ġdig": 2926,
      "Ġeconomy": 2927,
      "ĠBlack": 2928,
      "Ġboy": 2929,
      "Ġproduction": 2930,
      "Ġheard": 2931,
      "ĠSw": 2932,
      "Ġmatch": 2933,
      "ED": 2934,
      "Ġwebsite": 2935,
      "Ġenjoy": 2936,
      "Ġsecret": 2937,
      "Ġallowed": 2938,
      "down": 2939,
      "Ġboard": 2940,
      "Ġrepe": 2941,
      "Ġhands": 2942,
      "Ġspent": 2943,
      "Ġtrade": 2944,
      "Ġwide": 2945,
      "Ġlower": 2946,
      "Ġtravel": 2947,
      "face": 2948,
      "cember": 2949,
      "Ġcover": 2950,
      "ĠPat": 2951,
      "Ġpoll": 2952,
      "atory": 2953,
      "Ġincluded": 2954,
      "Ġ23": 2955,
      "Ġwants": 2956,
      "Wh": 2957,
      "Ġtown": 2958,
      "Ġlegisl": 2959,
      "uses": 2960,
      "Ġknew": 2961,
      "Ġneigh": 2962,
      "Ġbehav": 2963,
      "?âĢĿ": 2964,
      "orters": 2965,
      "iction": 2966,
      "ech": 2967,
      "ĠIS": 2968,
      "ĠRussian": 2969,
      "ĠCalifornia": 2970,
      "Ġsepar": 2971,
      "estern": 2972,
      "ĠInt": 2973,
      "Ġvisit": 2974,
      "Ġgets": 2975,
      "ÂŃ": 2976,
      "Ġperfect": 2977,
      "ences": 2978,
      "ened": 2979,
      "ishing": 2980,
      "ĠPar": 2981,
      "anks": 2982,
      "Ġmovement": 2983,
      "ĠUK": 2984,
      "agement": 2985,
      "gest": 2986,
      "Ġtried": 2987,
      "ession": 2988,
      "ctions": 2989,
      "âĢĿ.": 2990,
      "ĠKore": 2991,
      "de": 2992,
      "Ġbi": 2993,
      "Ġcause": 2994,
      "oph": 2995,
      "Ġforces": 2996,
      "Ġens": 2997,
      "ĠMark": 2998,
      "Ġfear": 2999,
      "lin": 3000,
      "Ġparticular": 3001,
      "Ġattention": 3002,
      "ĠFrom": 3003,
      "ris": 3004,
      "ĠDecember": 3005,
      ");": 3006,
      "force": 3007,
      "ĠTH": 3008,
      "Ġpopulation": 3009,
      "ceed": 3010,
      "Ġbrought": 3011,
      "Ġlooks": 3012,
      "Ġreach": 3013,
      "Ġvarious": 3014,
      "hic": 3015,
      "ĠFin": 3016,
      "ibly": 3017,
      "Ġvo": 3018,
      "ĠChe": 3019,
      "Ġbud": 3020,
      "uk": 3021,
      "Ġgrowth": 3022,
      "Ġsett": 3023,
      "Ġprevious": 3024,
      "ening": 3025,
      "Ġmention": 3026,
      "Ġlink": 3027,
      "arily": 3028,
      "urd": 3029,
      "sequ": 3030,
      "aker": 3031,
      "AL": 3032,
      "idents": 3033,
      "Ġmorning": 3034,
      "'d": 3035,
      "cle": 3036,
      "field": 3037,
      "undred": 3038,
      "ma": 3039,
      "ĠSenate": 3040,
      "Ġfair": 3041,
      "Ġfell": 3042,
      "Ġtraining": 3043,
      "Ġimage": 3044,
      "hold": 3045,
      "idered": 3046,
      "Ġprogress": 3047,
      "yond": 3048,
      "alled": 3049,
      "Ġsize": 3050,
      "ĠPark": 3051,
      "cies": 3052,
      "raz": 3053,
      "Ġcontact": 3054,
      "Ġhot": 3055,
      "Ġdemand": 3056,
      "Ġrac": 3057,
      "ĠIndia": 3058,
      "ĠStreet": 3059,
      "][": 3060,
      "ny": 3061,
      "Ġsong": 3062,
      "99": 3063,
      "ledge": 3064,
      "Ġleader": 3065,
      "Ġhor": 3066,
      "Ġ...": 3067,
      "Ġcitiz": 3068,
      "Ġrules": 3069,
      "ĠKing": 3070,
      "ground": 3071,
      "Ġliber": 3072,
      "Ġess": 3073,
      "iers": 3074,
      "ĠIran": 3075,
      "Ġsearch": 3076,
      "ecause": 3077,
      "ification": 3078,
      "Ġlatest": 3079,
      "AC": 3080,
      "come": 3081,
      "iant": 3082,
      "Ġprep": 3083,
      "inks": 3084,
      "ĠCons": 3085,
      "Ġstrugg": 3086,
      "Ġupon": 3087,
      "ĠJew": 3088,
      "Ġcoach": 3089,
      "Ġfast": 3090,
      "Ġtalking": 3091,
      "ĠTex": 3092,
      "Ġindepend": 3093,
      "ĠDonald": 3094,
      "ondon": 3095,
      "Ġspeed": 3096,
      "uments": 3097,
      "Ġwond": 3098,
      "ges": 3099,
      "Ġfeatures": 3100,
      "arth": 3101,
      "ĠTimes": 3102,
      "Ġaddition": 3103,
      "Ġexam": 3104,
      "ĠParty": 3105,
      "Ġreb": 3106,
      "elligence": 3107,
      "rim": 3108,
      "vent": 3109,
      "IT": 3110,
      "ĠCounty": 3111,
      "ĠPolice": 3112,
      "Ġconsidered": 3113,
      "Ġlanguage": 3114,
      "het": 3115,
      "aries": 3116,
      "ĠUp": 3117,
      "ĠSatur": 3118,
      "ĠCenter": 3119,
      "bed": 3120,
      "Ġstar": 3121,
      "OS": 3122,
      "Ġmedical": 3123,
      "Ġund": 3124,
      "ĠRom": 3125,
      "Ġlevels": 3126,
      "Ġ2008": 3127,
      "Ġslow": 3128,
      "raq": 3129,
      "ille": 3130,
      "imately": 3131,
      "Ġachie": 3132,
      "Ġinvestigation": 3133,
      "ĠMcC": 3134,
      "unk": 3135,
      "ĠSand": 3136,
      "Ġconduct": 3137,
      "Ġmach": 3138,
      "Ġcard": 3139,
      "Ġsn": 3140,
      "Ġsort": 3141,
      "ope": 3142,
      "Ġcritic": 3143,
      "IC": 3144,
      "ament": 3145,
      "Ġdoll": 3146,
      "ysis": 3147,
      "Ġpaper": 3148,
      "Ġbox": 3149,
      "uf": 3150,
      "ĠMuslim": 3151,
      "asc": 3152,
      "ĠNet": 3153,
      "Ġpen": 3154,
      "Ġconserv": 3155,
      "Ġprior": 3156,
      "ĠLet": 3157,
      "Ġsexual": 3158,
      "pir": 3159,
      "Ġsystems": 3160,
      "Ġsafe": 3161,
      "Ġparents": 3162,
      "Ġdocument": 3163,
      "Ġhear": 3164,
      "Ġjobs": 3165,
      "Ġwritten": 3166,
      "Ġsens": 3167,
      "atform": 3168,
      "igr": 3169,
      "Ġspokes": 3170,
      "ĠSaturday": 3171,
      "ĠTur": 3172,
      "Ġdraw": 3173,
      "Ġincreasing": 3174,
      "ĠIraq": 3175,
      "Ġseven": 3176,
      "Ġseek": 3177,
      "ruary": 3178,
      "200": 3179,
      "idge": 3180,
      "If": 3181,
      "Ġprevent": 3182,
      "sych": 3183,
      "ani": 3184,
      "ĠLondon": 3185,
      "ĠLab": 3186,
      "Ġextreme": 3187,
      "Ġlearn": 3188,
      "Ġeffort": 3189,
      "ĠSim": 3190,
      "Ġ2009": 3191,
      "Ġson": 3192,
      "Ġserious": 3193,
      "Ġconc": 3194,
      "ĠMor": 3195,
      "ĠOther": 3196,
      "Ġcompletely": 3197,
      "rast": 3198,
      "Ġscreen": 3199,
      "uit": 3200,
      "Ġinn": 3201,
      "Ġ27": 3202,
      "ĠMichael": 3203,
      "ĠSoc": 3204,
      "Ġ28": 3205,
      "Ġregul": 3206,
      "ining": 3207,
      "Ġrange": 3208,
      "Ġeight": 3209,
      "itch": 3210,
      "ources": 3211,
      "room": 3212,
      "ĠGener": 3213,
      "Ġviolence": 3214,
      "Ġmessage": 3215,
      "Ġbott": 3216,
      "Ġobv": 3217,
      "Ġsurve": 3218,
      "ĠRead": 3219,
      "set": 3220,
      "Ġdespite": 3221,
      "Ġinteresting": 3222,
      "reedom": 3223,
      "ĠEast": 3224,
      "Ġdoub": 3225,
      "ĠJames": 3226,
      "OP": 3227,
      "Ġopportunity": 3228,
      "ico": 3229,
      "ĠMost": 3230,
      "Ġclaims": 3231,
      "22": 3232,
      "Ġparticularly": 3233,
      "rench": 3234,
      "Ġextra": 3235,
      "anced": 3236,
      "Ġanswer": 3237,
      "There": 3238,
      "Ġsociety": 3239,
      "tr": 3240,
      "Ġmajority": 3241,
      "Ġattacks": 3242,
      "light": 3243,
      "ĠPlay": 3244,
      "Ġjournal": 3245,
      "Ġguy": 3246,
      "aming": 3247,
      "atter": 3248,
      "ĠFebruary": 3249,
      "erve": 3250,
      "Ġexactly": 3251,
      "Ġcarry": 3252,
      "entially": 3253,
      "Ġbiggest": 3254,
      "eff": 3255,
      "ux": 3256,
      "ĠâĢ¦": 3257,
      "illed": 3258,
      "Ġclimate": 3259,
      "Ġcross": 3260,
      "ibr": 3261,
      "Ġrequired": 3262,
      "Ġaren": 3263,
      "Ġ26": 3264,
      "ĠÐ": 3265,
      "erc": 3266,
      "isions": 3267,
      "Ġdefense": 3268,
      "Ġhundred": 3269,
      "Ġexcept": 3270,
      "Ġpaid": 3271,
      "Ġexperien": 3272,
      "Ġmodern": 3273,
      "Ġpractice": 3274,
      "ension": 3275,
      "ĠRepublicans": 3276,
      "ĠWhy": 3277,
      "lying": 3278,
      "vertisement": 3279,
      "Ġquarter": 3280,
      "Ġofficers": 3281,
      "ĠBill": 3282,
      "Ġnatural": 3283,
      "ari": 3284,
      "inese": 3285,
      "oses": 3286,
      "Ġcrim": 3287,
      "Ġremain": 3288,
      "Ġscience": 3289,
      "Ġlooked": 3290,
      "ha": 3291,
      "ĠSince": 3292,
      "Ġcertainly": 3293,
      "nces": 3294,
      "Ġhistor": 3295,
      "uclear": 3296,
      "US": 3297,
      "Ġsurv": 3298,
      "utions": 3299,
      "Ġstories": 3300,
      "Ġmiddle": 3301,
      "Ġgas": 3302,
      "Ġlay": 3303,
      "Ġdro": 3304,
      "Ġtable": 3305,
      "Ġstuff": 3306,
      "Ġfinally": 3307,
      "Ġsometimes": 3308,
      "Ġcommunic": 3309,
      "ĠCoun": 3310,
      "Ġproducts": 3311,
      "Ġmovie": 3312,
      "Ġaw": 3313,
      "ospital": 3314,
      "Ġrout": 3315,
      "Ġterm": 3316,
      "Ġimag": 3317,
      "Ġpan": 3318,
      "Ġconvers": 3319,
      "aves": 3320,
      "Ġuser": 3321,
      "Ġleading": 3322,
      "mp": 3323,
      "Ġ>": 3324,
      "ously": 3325,
      "Ġones": 3326,
      "Ġdescribed": 3327,
      "Ġhttp": 3328,
      "Ġchanged": 3329,
      "pper": 3330,
      "Ġdetails": 3331,
      "hib": 3332,
      "Ġult": 3333,
      "Ġsummer": 3334,
      "Ġprison": 3335,
      "ĠRec": 3336,
      "ĠMon": 3337,
      "Ġblood": 3338,
      "Ġquality": 3339,
      "eth": 3340,
      "Ġstarting": 3341,
      "Ġshowed": 3342,
      "ĠDemocratic": 3343,
      "Ġgiving": 3344,
      "icks": 3345,
      "80": 3346,
      "ĠJack": 3347,
      "uing": 3348,
      "Ġoccur": 3349,
      "Ġprovided": 3350,
      "akers": 3351,
      "Ġnamed": 3352,
      "....": 3353,
      "ĠSer": 3354,
      "24": 3355,
      "Ġremains": 3356,
      "Ġcosts": 3357,
      "Ġcomments": 3358,
      "Ġregion": 3359,
      "aught": 3360,
      "ida": 3361,
      "ĠEvery": 3362,
      "ĠMany": 3363,
      "Ġpoor": 3364,
      "Ġdanger": 3365,
      "Ġpath": 3366,
      "enge": 3367,
      "Ġchief": 3368,
      "Ġmultiple": 3369,
      "Ġeducation": 3370,
      "Ġmob": 3371,
      "Ġdamage": 3372,
      "Ġgrowing": 3373,
      "Ġwriting": 3374,
      "coin": 3375,
      "Ġparts": 3376,
      "Ġcontinued": 3377,
      "ĠLast": 3378,
      "Ġdemonst": 3379,
      "Ġthinking": 3380,
      "Ġassist": 3381,
      "ĠTexas": 3382,
      "Ġfix": 3383,
      "ĠDis": 3384,
      "Ġpurp": 3385,
      "ĠChinese": 3386,
      "inary": 3387,
      "ĠApple": 3388,
      "Ġmaintain": 3389,
      "ĠRich": 3390,
      "ĠLeague": 3391,
      "ĠGet": 3392,
      "Ġwrite": 3393,
      "Ġready": 3394,
      "Ġpurch": 3395,
      "urt": 3396,
      "Ġwouldn": 3397,
      "Ġincreased": 3398,
      "ĠGreen": 3399,
      "arr": 3400,
      "Ġdied": 3401,
      "fort": 3402,
      "Ġculture": 3403,
      "Ġfile": 3404,
      "ĠWilliam": 3405,
      "Ġvoters": 3406,
      "Ġrequest": 3407,
      "ago": 3408,
      "mit": 3409,
      "Ġimplement": 3410,
      "Ġmill": 3411,
      "omp": 3412,
      "ĠBo": 3413,
      "Ġefforts": 3414,
      "Ġcamer": 3415,
      "oul": 3416,
      "ables": 3417,
      "ban": 3418,
      "aly": 3419,
      "Ġspot": 3420,
      "Ġcalls": 3421,
      "oper": 3422,
      "Ġhous": 3423,
      "Ġperhaps": 3424,
      "Ġitem": 3425,
      "Ġalone": 3426,
      "Ġguys": 3427,
      "Ġreading": 3428,
      "ĠIndian": 3429,
      "ĠOver": 3430,
      "Ġtowards": 3431,
      "FL": 3432,
      "zz": 3433,
      "Ġcele": 3434,
      "Ġstandard": 3435,
      "Ġalthough": 3436,
      "Ġselect": 3437,
      "Ġusually": 3438,
      "arian": 3439,
      "Ġconsist": 3440,
      "Ġplatform": 3441,
      "ĠAdd": 3442,
      "Ġeffects": 3443,
      "Ġreality": 3444,
      "Ġdirectly": 3445,
      "Ġavoid": 3446,
      "Ġbeyond": 3447,
      "Ġkids": 3448,
      "Ġfootball": 3449,
      "Ġspeech": 3450,
      "iles": 3451,
      "icated": 3452,
      "ĠComp": 3453,
      "Ġ(@": 3454,
      "ĠRober": 3455,
      "Ġsubst": 3456,
      "Ġcouldn": 3457,
      "ara": 3458,
      "ĠBel": 3459,
      "ĠSuper": 3460,
      "Ġscene": 3461,
      "anch": 3462,
      "Ġincludes": 3463,
      "using": 3464,
      "Ġthroughout": 3465,
      "ĠWell": 3466,
      "ĠMart": 3467,
      "Ġstudent": 3468,
      "Ġcomplex": 3469,
      "itute": 3470,
      "inated": 3471,
      "Ġcenter": 3472,
      "rowd": 3473,
      "Ġimmediately": 3474,
      "sp": 3475,
      "ford": 3476,
      "Ġrob": 3477,
      "Ġchalleng": 3478,
      "Ġrecomm": 3479,
      "Ġunf": 3480,
      "ĠBen": 3481,
      "Ġconcept": 3482,
      "ĠDemocrats": 3483,
      "Ġepis": 3484,
      "Ġclos": 3485,
      "Ġver": 3486,
      "ĠOur": 3487,
      "Ġwife": 3488,
      "Ġchoice": 3489,
      "egr": 3490,
      "Ġil": 3491,
      "Ġtro": 3492,
      "Ġ60": 3493,
      "Ġadditional": 3494,
      "ĠMinister": 3495,
      "ston": 3496,
      "Ġresearc": 3497,
      "Ġremember": 3498,
      "Ġsle": 3499,
      "wise": 3500,
      "Ġgone": 3501,
      "Ġsafety": 3502,
      "Ġcast": 3503,
      "Ġdesigned": 3504,
      "Ġten": 3505,
      "Ġcorpor": 3506,
      "ĠServ": 3507,
      "itor": 3508,
      "hest": 3509,
      "Ġagency": 3510,
      "astic": 3511,
      "ĠII": 3512,
      "Ġsoftware": 3513,
      "ĠDay": 3514,
      "aches": 3515,
      "Ġpiece": 3516,
      "rupt": 3517,
      "Ġopin": 3518,
      "Ġdebate": 3519,
      "Ġahead": 3520,
      "Ġfigure": 3521,
      "Ġofficer": 3522,
      "omen": 3523,
      "Ġbrain": 3524,
      "Ġtoward": 3525,
      "Ġswe": 3526,
      "ports": 3527,
      "23": 3528,
      "bur": 3529,
      "ilies": 3530,
      "ĠAssoci": 3531,
      "Ġcounter": 3532,
      "Ġsell": 3533,
      "ĠVal": 3534,
      "ression": 3535,
      "Ġblog": 3536,
      "Ġoption": 3537,
      "yl": 3538,
      "Ġthousands": 3539,
      "agon": 3540,
      "iment": 3541,
      "icient": 3542,
      "Ġletter": 3543,
      "Ġsil": 3544,
      "irth": 3545,
      "Ġrelative": 3546,
      "ĠLike": 3547,
      "imum": 3548,
      "Ġpressure": 3549,
      "AM": 3550,
      "Ġprec": 3551,
      "atever": 3552,
      "Ġreceive": 3553,
      "airs": 3554,
      "Ġmoved": 3555,
      "ampions": 3556,
      "Ġut": 3557,
      "Ġstage": 3558,
      "Ph": 3559,
      "Ġpassed": 3560,
      "adem": 3561,
      "Ġx": 3562,
      "Ġappears": 3563,
      "aph": 3564,
      "ĠFrench": 3565,
      "BI": 3566,
      "olute": 3567,
      "roy": 3568,
      "Ġlaunch": 3569,
      "Ġclean": 3570,
      "ĠTor": 3571,
      "Ġproperty": 3572,
      "Ġmeaning": 3573,
      "Ġhelped": 3574,
      "ĠStar": 3575,
      "Ġdog": 3576,
      "itation": 3577,
      "Ġtwe": 3578,
      "Ġdisapp": 3579,
      "Ġrock": 3580,
      "ĠSci": 3581,
      "Ġcris": 3582,
      "Ġdark": 3583,
      "add": 3584,
      "Ġorganization": 3585,
      "just": 3586,
      "Ġdrive": 3587,
      "Ġalleged": 3588,
      "ĠEnglish": 3589,
      "Ġscore": 3590,
      "Ġsat": 3591,
      "Ġconditions": 3592,
      "Ġtouch": 3593,
      "ĠWind": 3594,
      "berg": 3595,
      "Ġsuspect": 3596,
      "ĠAlthough": 3597,
      "Ġdate": 3598,
      "Ġtour": 3599,
      "Ġmoving": 3600,
      "Ġreasons": 3601,
      "aughter": 3602,
      "Ġign": 3603,
      "?\"": 3604,
      "OT": 3605,
      "Ġpark": 3606,
      "Ġcommand": 3607,
      "itness": 3608,
      "rief": 3609,
      "urning": 3610,
      "Ġdeg": 3611,
      "Ġdevice": 3612,
      "Ġnature": 3613,
      "Ġdifference": 3614,
      "Ġhappy": 3615,
      "ĠAir": 3616,
      "chan": 3617,
      "Ġmaybe": 3618,
      "Ġmyself": 3619,
      "Ġbeginning": 3620,
      "Ġfailed": 3621,
      "Ġnom": 3622,
      "Ġfan": 3623,
      "wood": 3624,
      "men": 3625,
      "new": 3626,
      "Ġbudget": 3627,
      "Ġencour": 3628,
      "ivity": 3629,
      "Ġcharacters": 3630,
      "ĠHam": 3631,
      "Ġnuclear": 3632,
      "Ġcopy": 3633,
      "Ġcomputer": 3634,
      "Ġbattle": 3635,
      "more": 3636,
      "ext": 3637,
      "ĠLa": 3638,
      "Ġaim": 3639,
      "Ġ29": 3640,
      "ocked": 3641,
      "Ġtitle": 3642,
      "Ġcompared": 3643,
      "ĠGovern": 3644,
      "yan": 3645,
      "ĠSyria": 3646,
      "ĠBecause": 3647,
      "ĠTom": 3648,
      "Ġwall": 3649,
      "EC": 3650,
      "Ġcentury": 3651,
      "Ġcollege": 3652,
      "lease": 3653,
      "aling": 3654,
      "Ġleague": 3655,
      "Ġeyes": 3656,
      "Ġstra": 3657,
      "Ġshown": 3658,
      "Ġestim": 3659,
      "Ġyes": 3660,
      "Ġpositive": 3661,
      "Ġbooks": 3662,
      "ĠCap": 3663,
      "Ġrefer": 3664,
      "Ġcontribut": 3665,
      "Ġpowerful": 3666,
      "Ġbal": 3667,
      "Ġlimited": 3668,
      "Ġband": 3669,
      "Ġnecessary": 3670,
      "Ġsche": 3671,
      "Ġarch": 3672,
      "Ġcitizens": 3673,
      "Ġforced": 3674,
      "iable": 3675,
      "Ġdisp": 3676,
      "ufact": 3677,
      "Ġcandidate": 3678,
      "Ġtrust": 3679,
      "Ġconference": 3680,
      "ĠAdvertisement": 3681,
      "ĠHigh": 3682,
      "ource": 3683,
      "enty": 3684,
      "Ġlargest": 3685,
      "ĠDef": 3686,
      "Ġanalysis": 3687,
      "Ġspending": 3688,
      "aint": 3689,
      "Ġsal": 3690,
      "igration": 3691,
      "orks": 3692,
      "27": 3693,
      "Ġnote": 3694,
      "ĠMex": 3695,
      "Ġpresidential": 3696,
      "ĠAnt": 3697,
      "ĠReg": 3698,
      "Ġthrow": 3699,
      "Ġ196": 3700,
      "Ġaware": 3701,
      "ĠPeople": 3702,
      "Ġschools": 3703,
      "ĠInternational": 3704,
      "ET": 3705,
      "Ġmeant": 3706,
      "They": 3707,
      "Ġeventually": 3708,
      "Ġreligious": 3709,
      "Ġexecutive": 3710,
      "venue": 3711,
      "ĠJer": 3712,
      "Ġcorrect": 3713,
      "Ġfeature": 3714,
      "Ġphysical": 3715,
      "Ġfollowed": 3716,
      "ĠSmith": 3717,
      "Ġmix": 3718,
      "Ġfamilies": 3719,
      "Ġilleg": 3720,
      "Ġstreng": 3721,
      "Ġcrowd": 3722,
      "Ġconfir": 3723,
      "Ġcat": 3724,
      "45": 3725,
      "ĠGeorge": 3726,
      "Ġeasily": 3727,
      "Ġfirm": 3728,
      "EL": 3729,
      "Ġcool": 3730,
      "Ġautom": 3731,
      "ĠTod": 3732,
      "orney": 3733,
      "ero": 3734,
      "Ġallows": 3735,
      "Ġesc": 3736,
      "ĠDuring": 3737,
      "ĠAustralia": 3738,
      "Ġdraft": 3739,
      "ube": 3740,
      "Ġpus": 3741,
      "Ġgives": 3742,
      "Ġyourself": 3743,
      "Ġgrad": 3744,
      "Ġfeed": 3745,
      "Ġactions": 3746,
      "Ġtreatment": 3747,
      "ares": 3748,
      "ĠRob": 3749,
      "ressed": 3750,
      "ĠBre": 3751,
      "rated": 3752,
      "35": 3753,
      "cul": 3754,
      "ĠImage": 3755,
      "craft": 3756,
      "board": 3757,
      "ken": 3758,
      "ĠSchool": 3759,
      "Ġdetail": 3760,
      "Ġoverall": 3761,
      "Ġsusp": 3762,
      "band": 3763,
      "iring": 3764,
      "AP": 3765,
      "encies": 3766,
      "ĠGermany": 3767,
      "Ġang": 3768,
      "Ġsmart": 3769,
      "ĠMet": 3770,
      "Ġincome": 3771,
      "ĠAngel": 3772,
      "Ġideas": 3773,
      "Ġappeared": 3774,
      "Ġdisplay": 3775,
      "Ġpolitics": 3776,
      "Ġcentral": 3777,
      "Ġsigned": 3778,
      "ĠEU": 3779,
      "ĠOh": 3780,
      "dd": 3781,
      "Ġweapons": 3782,
      "Ġhar": 3783,
      "Ġanaly": 3784,
      "bum": 3785,
      "Ġpsych": 3786,
      "ĠBer": 3787,
      "ĠBrown": 3788,
      "Ġdecades": 3789,
      "ID": 3790,
      "ĠChristian": 3791,
      "Ġnice": 3792,
      "Ġpromot": 3793,
      "Ġfrequ": 3794,
      "Ġdise": 3795,
      "Ġuses": 3796,
      "ĠÂ£": 3797,
      "Ġsenior": 3798,
      "Ġcrime": 3799,
      "ĠGeneral": 3800,
      "ĠEarth": 3801,
      "iance": 3802,
      "Ġlif": 3803,
      "ĠFlor": 3804,
      "OM": 3805,
      "aud": 3806,
      "Ġunique": 3807,
      "ĠTrans": 3808,
      "Ġcredit": 3809,
      "ĠArt": 3810,
      "26": 3811,
      "ĠBu": 3812,
      "lements": 3813,
      "Ġdoor": 3814,
      "Ġcrisis": 3815,
      "ram": 3816,
      "):": 3817,
      "ĠGold": 3818,
      "Ġaltern": 3819,
      "ĠMac": 3820,
      "Ġdeveloped": 3821,
      "Ġmist": 3822,
      "resh": 3823,
      "Ġconflic": 3824,
      "Ġbenefits": 3825,
      "ĠArab": 3826,
      "riage": 3827,
      "uty": 3828,
      "Ġdrop": 3829,
      "IA": 3830,
      "Ġtruth": 3831,
      "Ġrelated": 3832,
      "Ġnoted": 3833,
      "ĠFranc": 3834,
      "ĠUnion": 3835,
      "Ġsales": 3836,
      "urance": 3837,
      "Ġgoals": 3838,
      "Ġbeaut": 3839,
      "Ġindividuals": 3840,
      "Ġcontinues": 3841,
      "ĠUs": 3842,
      "itely": 3843,
      "box": 3844,
      "ĠâĢ¢": 3845,
      "Ġlic": 3846,
      "rol": 3847,
      "iny": 3848,
      "Ġrap": 3849,
      "Ġrates": 3850,
      "Ġcustomers": 3851,
      "Ġchallenge": 3852,
      "Ġprojects": 3853,
      "Ġsto": 3854,
      "onents": 3855,
      "ĠCouncil": 3856,
      "Ġpredict": 3857,
      "Ġcharge": 3858,
      "ĠTwo": 3859,
      "oes": 3860,
      "Ġapparent": 3861,
      "Ġobserv": 3862,
      "Ġintelligence": 3863,
      "nown": 3864,
      "Ġpeace": 3865,
      "pre": 3866,
      "Ġlarger": 3867,
      "ĠAlex": 3868,
      "Ġpreviously": 3869,
      "change": 3870,
      "ĠScott": 3871,
      "Ġfully": 3872,
      "ĠAnother": 3873,
      "Ġlines": 3874,
      "As": 3875,
      "Ġmeasure": 3876,
      "part": 3877,
      "Ġstraight": 3878,
      "ĠMag": 3879,
      "Ġmanager": 3880,
      "mar": 3881,
      "Ġbrother": 3882,
      "ville": 3883,
      "net": 3884,
      "Ġadvant": 3885,
      "ĠFollow": 3886,
      "Ġrule": 3887,
      "Ġsuccessful": 3888,
      "ĠAlso": 3889,
      "Ġexpand": 3890,
      "Ġemb": 3891,
      "Ġhighly": 3892,
      "Ġclearly": 3893,
      "ĠInternet": 3894,
      "Ġreform": 3895,
      "oti": 3896,
      "ĠLaw": 3897,
      "Ġseemed": 3898,
      "orter": 3899,
      "Ġcriminal": 3900,
      "ĠYes": 3901,
      "Ġprimary": 3902,
      "ki": 3903,
      "owers": 3904,
      "iced": 3905,
      "Ġspread": 3906,
      "Ġminor": 3907,
      "Ġtraff": 3908,
      "ounds": 3909,
      "Ġknowledge": 3910,
      "antly": 3911,
      "Ġweb": 3912,
      "Ġattract": 3913,
      "Ġincident": 3914,
      "Ġresources": 3915,
      "Ġsave": 3916,
      "Ġprograms": 3917,
      "osh": 3918,
      "ategy": 3919,
      "Ġgreater": 3920,
      "Ġreached": 3921,
      "ĠYour": 3922,
      "ĠStud": 3923,
      "Ġspir": 3924,
      "Ġkept": 3925,
      "Ġarm": 3926,
      "Ġfavorite": 3927,
      "Ġsend": 3928,
      "ota": 3929,
      "while": 3930,
      "Ġemot": 3931,
      "Ġcolor": 3932,
      "secut": 3933,
      "Ġfeet": 3934,
      "Ġstudies": 3935,
      "Ġprem": 3936,
      "Ġplaces": 3937,
      "ĠMatt": 3938,
      "dom": 3939,
      "ĠMo": 3940,
      "Ġmanufact": 3941,
      "sey": 3942,
      "Ġrare": 3943,
      "icit": 3944,
      "onent": 3945,
      "Ġshooting": 3946,
      "iders": 3947,
      "ĠAP": 3948,
      "ĠHillary": 3949,
      "ĠEngland": 3950,
      "Ġknows": 3951,
      "Ġorigin": 3952,
      "bon": 3953,
      "Ġregular": 3954,
      "28": 3955,
      "ĠCr": 3956,
      "ingly": 3957,
      "Ġrise": 3958,
      "Ġ2007": 3959,
      "Ġliter": 3960,
      "Ġsources": 3961,
      "ocks": 3962,
      "wide": 3963,
      "Ġfighting": 3964,
      "levision": 3965,
      "Ġlaun": 3966,
      "ĠOp": 3967,
      "term": 3968,
      "roll": 3969,
      "olic": 3970,
      "29": 3971,
      "Ġpun": 3972,
      "Ġactivity": 3973,
      "Ġoptions": 3974,
      "Ġowners": 3975,
      "Ġstatus": 3976,
      "EO": 3977,
      "Ġvoice": 3978,
      "Ġcaused": 3979,
      "Ġfine": 3980,
      "ĠMod": 3981,
      "Ġnormal": 3982,
      "usion": 3983,
      "Ġuns": 3984,
      "ĠChic": 3985,
      "Ġorganiz": 3986,
      "Ġclaimed": 3987,
      "ĠSam": 3988,
      "Ġspend": 3989,
      "Ġended": 3990,
      "Ġcities": 3991,
      "aith": 3992,
      "lick": 3993,
      "ado": 3994,
      "ING": 3995,
      "Ð¾": 3996,
      "ĠFlorida": 3997,
      "Ġenem": 3998,
      "Ġcalling": 3999,
      "ĠPre": 4000,
      "roid": 4001,
      "Ġreflect": 4002,
      "Ġintegr": 4003,
      "ength": 4004,
      "iled": 4005,
      "que": 4006,
      "rs": 4007,
      "ĠPhil": 4008,
      "ifying": 4009,
      "ĠSun": 4010,
      "Ġshut": 4011,
      "Ġprint": 4012,
      "ĠBay": 4013,
      "Ġresearchers": 4014,
      "Ġnames": 4015,
      "100": 4016,
      "Ġhaven": 4017,
      "Ġprices": 4018,
      "Ġfemale": 4019,
      "Ġvirt": 4020,
      "âĢĿ,": 4021,
      "Ġhappens": 4022,
      "Ġemployees": 4023,
      "oles": 4024,
      "Ġtrou": 4025,
      "Ġadding": 4026,
      "ĠPort": 4027,
      "uman": 4028,
      "Ġbasic": 4029,
      "Ġsupposed": 4030,
      "Ġhospital": 4031,
      "uana": 4032,
      "Ġplant": 4033,
      "iverse": 4034,
      "Ġpros": 4035,
      "Ġpolicies": 4036,
      "Ġjump": 4037,
      "Ġraised": 4038,
      "org": 4039,
      "Ġtraditional": 4040,
      "Ġalbum": 4041,
      "Ġabsolute": 4042,
      "Ġconcerns": 4043,
      "Ġstyle": 4044,
      "Ġcharges": 4045,
      "RE": 4046,
      "Ġslight": 4047,
      "70": 4048,
      "Ġcreating": 4049,
      "inger": 4050,
      "Ġacqu": 4051,
      "Ġgrand": 4052,
      "ica": 4053,
      "Ġpatients": 4054,
      "Ġfunding": 4055,
      "ribution": 4056,
      "ĠFrance": 4057,
      "Ġfreedom": 4058,
      "Ġauthorities": 4059,
      "ĠAtt": 4060,
      "Ġscen": 4061,
      "Ġbeat": 4062,
      "33": 4063,
      "Ġcommer": 4064,
      "vere": 4065,
      "Ġlik": 4066,
      "Ġseeing": 4067,
      "ĠChicago": 4068,
      "Ġminister": 4069,
      ".âĢĻ": 4070,
      "ĠSl": 4071,
      "Ġimpl": 4072,
      "Ġcry": 4073,
      "21": 4074,
      "ĠHealth": 4075,
      "ĠMike": 4076,
      "Ġmechan": 4077,
      "Ġactual": 4078,
      "Ġleaving": 4079,
      "ona": 4080,
      "gen": 4081,
      "see": 4082,
      "Ġgreen": 4083,
      "Ġbeg": 4084,
      "Ġir": 4085,
      "Ġbehavior": 4086,
      "alse": 4087,
      "ya": 4088,
      "Ġwait": 4089,
      "Ġposted": 4090,
      "ĠBit": 4091,
      "Ġgold": 4092,
      "ĠAM": 4093,
      "Ġbirth": 4094,
      "Ġstation": 4095,
      "Ġpush": 4096,
      "ĠLou": 4097,
      "AD": 4098,
      "Ġmer": 4099,
      "Ġeye": 4100,
      "ipp": 4101,
      "Ġagreement": 4102,
      "ijuana": 4103,
      "Ġensure": 4104,
      "Ġoffered": 4105,
      "ĠRel": 4106,
      "Ġappl": 4107,
      "ĠMicro": 4108,
      "Ġweight": 4109,
      "Ġeth": 4110,
      "ĠStep": 4111,
      "Ch": 4112,
      "Ġweekend": 4113,
      "ĠSecret": 4114,
      "Ġrank": 4115,
      "mark": 4116,
      "ĠSub": 4117,
      "Ġpropos": 4118,
      "Ġrevealed": 4119,
      "Ġvac": 4120,
      "itude": 4121,
      "Ġwilling": 4122,
      "Ġadop": 4123,
      "Ġvalues": 4124,
      "ĠOnce": 4125,
      "Ġdetermin": 4126,
      ".'": 4127,
      "earch": 4128,
      "ipped": 4129,
      "www": 4130,
      "Ġapplication": 4131,
      "ĠInstead": 4132,
      "ĠMal": 4133,
      "Ġmostly": 4134,
      "Ġestabl": 4135,
      "ĠBush": 4136,
      "acing": 4137,
      "Ġperm": 4138,
      "ĠMil": 4139,
      "ĠDel": 4140,
      "ĠWall": 4141,
      "rian": 4142,
      "ront": 4143,
      "soft": 4144,
      "Ġadult": 4145,
      "Ġpicture": 4146,
      "Ġbrief": 4147,
      "ĠAre": 4148,
      "Ġbelieved": 4149,
      "Ġstrategy": 4150,
      "Ġrecords": 4151,
      "ĠPress": 4152,
      "Ġlearned": 4153,
      "istry": 4154,
      "Ġinstall": 4155,
      "Ġchoose": 4156,
      "Ġwonder": 4157,
      "ĠTer": 4158,
      "ĠInc": 4159,
      "IL": 4160,
      "Ġwhatever": 4161,
      "arliam": 4162,
      "cher": 4163,
      "ĠBig": 4164,
      "Ġdire": 4165,
      "Ġqual": 4166,
      "Ġlawy": 4167,
      "igned": 4168,
      "Ġcommit": 4169,
      "Ġenforce": 4170,
      "Ġmassive": 4171,
      "But": 4172,
      "pri": 4173,
      "Ġcars": 4174,
      "SA": 4175,
      "Ġmount": 4176,
      "ĠLiber": 4177,
      "ste": 4178,
      "Ġstreet": 4179,
      "Ġfeeling": 4180,
      "Ġwild": 4181,
      "ection": 4182,
      "Ġparties": 4183,
      "ĠJohnson": 4184,
      "OU": 4185,
      "Ġarrested": 4186,
      "Ġdevices": 4187,
      "500": 4188,
      "inn": 4189,
      "ĠUnder": 4190,
      "Ġwhom": 4191,
      "aby": 4192,
      "Ġinfluence": 4193,
      "Ġassault": 4194,
      "Ġwat": 4195,
      "Ġenter": 4196,
      "ĠÃ": 4197,
      "ae": 4198,
      "Ġasking": 4199,
      "Ġlose": 4200,
      "ĠEv": 4201,
      "Ġmission": 4202,
      "ented": 4203,
      "ĠFound": 4204,
      "Ġshowing": 4205,
      "Ġprovides": 4206,
      "Ġborder": 4207,
      "Ġtemper": 4208,
      "arliament": 4209,
      "Ġproduced": 4210,
      "ĠPalest": 4211,
      "Ġcritical": 4212,
      "Ġjudge": 4213,
      "Ġconfirmed": 4214,
      "ĠPhoto": 4215,
      "ĠPri": 4216,
      "Ġoperations": 4217,
      "Ġimages": 4218,
      "Ġtend": 4219,
      "Ġnegoti": 4220,
      "90": 4221,
      "point": 4222,
      "ĠJustice": 4223,
      "ĠTHE": 4224,
      "Ġdrink": 4225,
      "ĠWestern": 4226,
      "ĠGreat": 4227,
      "ĠCommittee": 4228,
      "Ġdream": 4229,
      "Ġcelebr": 4230,
      "orial": 4231,
      "ĠCommission": 4232,
      "Ġresidents": 4233,
      "Ġdistrict": 4234,
      "aked": 4235,
      "Ġruns": 4236,
      "Ġfat": 4237,
      "rav": 4238,
      "Ġproduce": 4239,
      "ĠMad": 4240,
      "Ġetc": 4241,
      "ription": 4242,
      "Ġteac": 4243,
      "rows": 4244,
      "Ġcru": 4245,
      "Ġdebt": 4246,
      "no": 4247,
      "cont": 4248,
      "Ġopposition": 4249,
      "estic": 4250,
      "amb": 4251,
      "ĠFrancis": 4252,
      "Ġcore": 4253,
      "Ġbrand": 4254,
      "ĠKorea": 4255,
      "Ġpattern": 4256,
      "Ġsection": 4257,
      "icial": 4258,
      "Ġdefend": 4259,
      "ĠSecurity": 4260,
      "ugg": 4261,
      "Ġindependent": 4262,
      "ags": 4263,
      "cell": 4264,
      "Ġbenefit": 4265,
      "What": 4266,
      "ĠSanders": 4267,
      "Ġadvoc": 4268,
      "Ġhero": 4269,
      "Ġtick": 4270,
      "Ġeffective": 4271,
      "mine": 4272,
      "Ġdollars": 4273,
      "ograph": 4274,
      "ocr": 4275,
      "Ġinterested": 4276,
      "Ġsolution": 4277,
      "Ġdigital": 4278,
      "Ġ;": 4279,
      "ords": 4280,
      "Ġvill": 4281,
      "ĠThose": 4282,
      "abor": 4283,
      "ĠGame": 4284,
      "hicle": 4285,
      "ĠChris": 4286,
      "Ġopening": 4287,
      "Ġhighest": 4288,
      "ĠAny": 4289,
      "Ġworse": 4290,
      "ĠNFL": 4291,
      "Ġresponsible": 4292,
      "rial": 4293,
      "ties": 4294,
      "ĠWindows": 4295,
      "Ġlearning": 4296,
      "Ġ80": 4297,
      "ĠTy": 4298,
      "Ġoffers": 4299,
      "ĠOffice": 4300,
      "That": 4301,
      "Ġreplace": 4302,
      "icians": 4303,
      "Ġagreed": 4304,
      "Ġrestrict": 4305,
      "Ġmemory": 4306,
      "ĠDist": 4307,
      "ĠDirect": 4308,
      "Ġdaily": 4309,
      "iation": 4310,
      "Ġfit": 4311,
      "Ġtrial": 4312,
      "Ġinvestment": 4313,
      "Ġtrain": 4314,
      "ipe": 4315,
      "ĠCommun": 4316,
      "Ġtypes": 4317,
      "Ġmur": 4318,
      "ĠCup": 4319,
      "ĠUk": 4320,
      "Ġoccas": 4321,
      "gency": 4322,
      "Ġ31": 4323,
      "Ġtheory": 4324,
      "CC": 4325,
      "Ġbasis": 4326,
      "Ġmillions": 4327,
      "Ġmarriage": 4328,
      "Ġchem": 4329,
      "Ġkick": 4330,
      "ĠSee": 4331,
      "Ġgenerally": 4332,
      "Ġexplained": 4333,
      "Ġchair": 4334,
      "Ġheavy": 4335,
      "Ġder": 4336,
      "oly": 4337,
      "illing": 4338,
      "Ġtelevision": 4339,
      "Ġproposed": 4340,
      "BA": 4341,
      "Ġopinion": 4342,
      "Ġmiles": 4343,
      "uries": 4344,
      "Ġdefe": 4345,
      "Ġ35": 4346,
      "Ġcondition": 4347,
      "Ġjoin": 4348,
      "Ġmap": 4349,
      "aks": 4350,
      "And": 4351,
      "Ġonto": 4352,
      "Ġprotest": 4353,
      "Ġreject": 4354,
      "Ġmale": 4355,
      "ĠTre": 4356,
      "Ġload": 4357,
      "Ġbecomes": 4358,
      "Ġachieve": 4359,
      "Ġpartners": 4360,
      "ĠCle": 4361,
      "vest": 4362,
      "ĠAc": 4363,
      "Ġassociated": 4364,
      "ĠBoth": 4365,
      "Ġdestroy": 4366,
      "Ġassum": 4367,
      "icip": 4368,
      "Ġvs": 4369,
      "Ġhundreds": 4370,
      "ĠVir": 4371,
      "ĠFox": 4372,
      "Ġopened": 4373,
      "azing": 4374,
      "Ġadvantage": 4375,
      "rate": 4376,
      "ĠHall": 4377,
      "ĠPet": 4378,
      "Ġsurround": 4379,
      "Ġphoto": 4380,
      "Ġunderstanding": 4381,
      "coming": 4382,
      "ĠRobert": 4383,
      "Ġcoal": 4384,
      "outhern": 4385,
      "ander": 4386,
      "Ġobtain": 4387,
      "Ġannounce": 4388,
      "ĠToday": 4389,
      "well": 4390,
      "ĠDet": 4391,
      "Ġship": 4392,
      "Ġice": 4393,
      "Ġsleep": 4394,
      "Ġmanagement": 4395,
      "eline": 4396,
      "====": 4397,
      "Ġborn": 4398,
      "________": 4399,
      "ĠOut": 4400,
      "ĠJud": 4401,
      "orthern": 4402,
      "Ġeasier": 4403,
      "ĠProf": 4404,
      "Ġlimit": 4405,
      "ĠIslamic": 4406,
      "Ġcontrovers": 4407,
      "44": 4408,
      "ĠUN": 4409,
      "Ġinitial": 4410,
      "known": 4411,
      "Ġthus": 4412,
      "Ġaccused": 4413,
      "Ġbecoming": 4414,
      "Ġlegislation": 4415,
      "Ġspl": 4416,
      "Ġ90": 4417,
      "Ġillegal": 4418,
      "oom": 4419,
      "Ġunlike": 4420,
      "Ġspecies": 4421,
      "witch": 4422,
      "ĠCanadian": 4423,
      "ĠThom": 4424,
      "Ġ2006": 4425,
      "Ġprofessional": 4426,
      "Ġdouble": 4427,
      "odes": 4428,
      "BS": 4429,
      "Ġelectric": 4430,
      "Ġcamera": 4431,
      "Ġneighbor": 4432,
      "ĠDespite": 4433,
      "Ġframe": 4434,
      "!!": 4435,
      "ĠMer": 4436,
      "olf": 4437,
      "Ġharm": 4438,
      "AA": 4439,
      "ference": 4440,
      "ĠWil": 4441,
      "Ġwealth": 4442,
      "ĠBank": 4443,
      "Ġlocation": 4444,
      "Ġserved": 4445,
      "Ġresist": 4446,
      "Ġbelief": 4447,
      "met": 4448,
      "GB": 4449,
      "Ġnine": 4450,
      "Ġshared": 4451,
      "Ġserve": 4452,
      "Ġrat": 4453,
      "Ġstrik": 4454,
      "Ġnegative": 4455,
      "Ġwinning": 4456,
      "za": 4457,
      "Ġextremely": 4458,
      "ios": 4459,
      "Ġdocuments": 4460,
      "Ġbottom": 4461,
      "Ġscientists": 4462,
      "Ġactive": 4463,
      "Ġmachine": 4464,
      "Ġbed": 4465,
      "ortunately": 4466,
      "bert": 4467,
      "Ġge": 4468,
      "Ġincred": 4469,
      "Ġsolid": 4470,
      "Ġpurpose": 4471,
      "Ġvictims": 4472,
      "Ġreduce": 4473,
      "Ġaudience": 4474,
      "ĠVer": 4475,
      "Ġreturned": 4476,
      "iful": 4477,
      "Ġamb": 4478,
      "Ġdepartment": 4479,
      "ĠJim": 4480,
      "ĠLeg": 4481,
      "ih": 4482,
      "Ġmarijuana": 4483,
      "ĠPM": 4484,
      "ears": 4485,
      "FC": 4486,
      "lands": 4487,
      "ĠBritain": 4488,
      "Ġchurch": 4489,
      "Ġran": 4490,
      "lant": 4491,
      "ĠJones": 4492,
      "istics": 4493,
      "Ġexisting": 4494,
      "Ġnotice": 4495,
      "ĠPlease": 4496,
      "house": 4497,
      "Ġcommunities": 4498,
      "ĠLos": 4499,
      "Ġexplain": 4500,
      "Ġbomb": 4501,
      "Ġvictory": 4502,
      "equ": 4503,
      "ĠKen": 4504,
      "Ġleadership": 4505,
      "Ġdie": 4506,
      "Ġdoubt": 4507,
      "Ġinstance": 4508,
      "atically": 4509,
      "ĠCarol": 4510,
      "Ġargument": 4511,
      "Ġcomfort": 4512,
      "Ġwatching": 4513,
      "ĠTheir": 4514,
      "ĠInstitute": 4515,
      "Ġteach": 4516,
      "Ġfaith": 4517,
      "Ġunc": 4518,
      "36": 4519,
      "ghan": 4520,
      "Ġputting": 4521,
      "Ġnotes": 4522,
      "Ġmobile": 4523,
      "Ġseparate": 4524,
      "ĠQue": 4525,
      "miss": 4526,
      "ĠMiss": 4527,
      "Ġhearing": 4528,
      "Ġinternet": 4529,
      "acity": 4530,
      "ĠSil": 4531,
      "Ġepisode": 4532,
      "Ġpet": 4533,
      "ĠIsraeli": 4534,
      "Ġfresh": 4535,
      "ĠTim": 4536,
      "ĠMicrosoft": 4537,
      "Ġdefinitely": 4538,
      "asy": 4539,
      "ĠYet": 4540,
      "ĠBur": 4541,
      "Ġbackground": 4542,
      "rad": 4543,
      "Ġvehicle": 4544,
      "Ġviews": 4545,
      "ĠFBI": 4546,
      "Ðµ": 4547,
      "iller": 4548,
      "Ġcommittee": 4549,
      "Ġconservative": 4550,
      "Ġpurs": 4551,
      "Ġcoverage": 4552,
      "works": 4553,
      "how": 4554,
      "32": 4555,
      "ĠChurch": 4556,
      "ĠJeff": 4557,
      "scrib": 4558,
      "Ġfloor": 4559,
      "OL": 4560,
      "Ġlaunched": 4561,
      "ĠFrank": 4562,
      "Ġdirection": 4563,
      "Ð°": 4564,
      "iliar": 4565,
      "ĠInter": 4566,
      "ography": 4567,
      "Ġissued": 4568,
      "Ġsupporters": 4569,
      "Ġtrend": 4570,
      "Ġmax": 4571,
      "Ġdangerous": 4572,
      "inct": 4573,
      "resp": 4574,
      "zen": 4575,
      "Ġradio": 4576,
      "Ġcompetition": 4577,
      "Ġsun": 4578,
      "Ġnorth": 4579,
      "38": 4580,
      "PS": 4581,
      "Ġsuggested": 4582,
      "Ġsites": 4583,
      "Ġdrugs": 4584,
      "ãĤ": 4585,
      "75": 4586,
      "andom": 4587,
      "Ġ70": 4588,
      "inate": 4589,
      "Ġlabor": 4590,
      "orrow": 4591,
      "Ġstructure": 4592,
      "ĠUkrain": 4593,
      "ga": 4594,
      "Ġcards": 4595,
      "ĠChar": 4596,
      "la": 4597,
      "ĠGood": 4598,
      "Ġspoke": 4599,
      "ĠFore": 4600,
      "Ġitems": 4601,
      "Ġrepeated": 4602,
      "Ġtraffic": 4603,
      "gu": 4604,
      "Ġnovel": 4605,
      "Ġcommercial": 4606,
      "Ġdecade": 4607,
      "ario": 4608,
      "Ġstated": 4609,
      "Ġfalse": 4610,
      "do": 4611,
      "ĠSur": 4612,
      "vention": 4613,
      "gers": 4614,
      "going": 4615,
      "Ġcontain": 4616,
      "Ġrefere": 4617,
      "Ġworst": 4618,
      "ĠBack": 4619,
      "Ġclosed": 4620,
      "anted": 4621,
      "Ġtask": 4622,
      "Ġtransfer": 4623,
      "Ġcharged": 4624,
      "ribute": 4625,
      "Ġdisease": 4626,
      "ampionship": 4627,
      "Ġreact": 4628,
      "Ġdriver": 4629,
      "ĠWho": 4630,
      "Ġsmaller": 4631,
      "Ġhus": 4632,
      "Ġnor": 4633,
      "ctors": 4634,
      "which": 4635,
      "Ġded": 4636,
      "Ġrestaur": 4637,
      "bing": 4638,
      "ĠPak": 4639,
      "Ġdaughter": 4640,
      "Ġdriving": 4641,
      "Ġtelling": 4642,
      "ius": 4643,
      "Ġentirely": 4644,
      "semb": 4645,
      "Ġdiscovered": 4646,
      "ĠCur": 4647,
      "Ġhack": 4648,
      "ĠGree": 4649,
      "ĠConst": 4650,
      "Ġplays": 4651,
      "Ġtools": 4652,
      "ĠRyan": 4653,
      "Ġsurface": 4654,
      "Ġcash": 4655,
      "ĠSup": 4656,
      "Ġgay": 4657,
      "34": 4658,
      "Ġtransport": 4659,
      "Ġsupported": 4660,
      "Ġexerc": 4661,
      "ĠPC": 4662,
      "Ġanimals": 4663,
      "Ġconcerned": 4664,
      "rey": 4665,
      "Ġaspect": 4666,
      "ĠRichard": 4667,
      "Ġcompar": 4668,
      "NN": 4669,
      "iling": 4670,
      "Ġfinding": 4671,
      "ulated": 4672,
      "icy": 4673,
      "inter": 4674,
      "ulf": 4675,
      "Ġplease": 4676,
      "andon": 4677,
      "Ġolder": 4678,
      "Ġcateg": 4679,
      "Ġcandidates": 4680,
      "gl": 4681,
      "overy": 4682,
      "ĠKh": 4683,
      "ĠJo": 4684,
      "tered": 4685,
      "azon": 4686,
      "ĠDec": 4687,
      "Ġrequires": 4688,
      "oyal": 4689,
      "Ġstrength": 4690,
      "Ġfarm": 4691,
      "iest": 4692,
      "hem": 4693,
      "oman": 4694,
      "Ġwel": 4695,
      "Ġcontext": 4696,
      "annel": 4697,
      "Ġbusinesses": 4698,
      "Ġactivities": 4699,
      "ibrary": 4700,
      "Ġcaught": 4701,
      "but": 4702,
      "Ġtesting": 4703,
      "Ġlargely": 4704,
      "ait": 4705,
      "Ġannual": 4706,
      "phone": 4707,
      "Ġallowing": 4708,
      "Ġconsequ": 4709,
      "night": 4710,
      "udd": 4711,
      "Ġfuel": 4712,
      "Ġblue": 4713,
      "Ġraise": 4714,
      "eal": 4715,
      "izes": 4716,
      "!âĢĿ": 4717,
      "Ġinsurance": 4718,
      "Ġstock": 4719,
      "Ġmurder": 4720,
      "ossible": 4721,
      "PA": 4722,
      "ĠST": 4723,
      "ĠSal": 4724,
      "Ġstrateg": 4725,
      "ĠJewish": 4726,
      "Ġgeneration": 4727,
      "ĠGOP": 4728,
      "arant": 4729,
      "ception": 4730,
      "Ġconcern": 4731,
      "kins": 4732,
      "ĠRem": 4733,
      "ĠAfghan": 4734,
      "Ġbelieves": 4735,
      "Ġtruly": 4736,
      "EM": 4737,
      "NA": 4738,
      "Ġafford": 4739,
      "Ġaccur": 4740,
      "ĠGroup": 4741,
      "ĠNor": 4742,
      "ĠAfrican": 4743,
      "Ġphil": 4744,
      "ici": 4745,
      "Ġdecisions": 4746,
      "Ġconstruction": 4747,
      "rick": 4748,
      "itable": 4749,
      "Ġjustice": 4750,
      "osure": 4751,
      "ĠTeam": 4752,
      "Ġwitness": 4753,
      "Ġholding": 4754,
      "ĠAfrica": 4755,
      "ĠRock": 4756,
      "ava": 4757,
      "igrants": 4758,
      "ĠAssociation": 4759,
      "ĠJoe": 4760,
      "Ġguess": 4761,
      "Ġpresence": 4762,
      "Ġunit": 4763,
      "Ġattend": 4764,
      "anging": 4765,
      "37": 4766,
      "cript": 4767,
      "48": 4768,
      "Ġtim": 4769,
      "Ġscale": 4770,
      "Ġplanning": 4771,
      "cknow": 4772,
      "Ġrefuge": 4773,
      "olly": 4774,
      "Ġsan": 4775,
      "ĠPalestin": 4776,
      "Ġrough": 4777,
      "Ġtells": 4778,
      "Ġplaced": 4779,
      "pective": 4780,
      "ada": 4781,
      "Ġlength": 4782,
      "bre": 4783,
      "Ġestablish": 4784,
      "ĠLouis": 4785,
      "Ġsequ": 4786,
      "55": 4787,
      "ancy": 4788,
      "Ġmentioned": 4789,
      "spe": 4790,
      "ĠPakistan": 4791,
      "Ġwaiting": 4792,
      "Ġcatch": 4793,
      "ĠVirgin": 4794,
      "Ġspokesman": 4795,
      "ĠMP": 4796,
      "Ġjoined": 4797,
      "ĠMartin": 4798,
      "Ġkid": 4799,
      "ĠFe": 4800,
      "ĠIr": 4801,
      "Ġconflict": 4802,
      "âĢľ": 4803,
      "Ġhasn": 4804,
      "ĠMont": 4805,
      "ST": 4806,
      "Ġmissing": 4807,
      "Ġ2018": 4808,
      "Ġdeliver": 4809,
      "Ġiniti": 4810,
      "ocracy": 4811,
      "ĠJapanese": 4812,
      "ĠGovernment": 4813,
      "ĠFire": 4814,
      "Ġupdate": 4815,
      "igan": 4816,
      "Ġabuse": 4817,
      "Ġrecommend": 4818,
      "Ġinjury": 4819,
      "nel": 4820,
      "ĠAngeles": 4821,
      "Ġinterests": 4822,
      "ĠCEO": 4823,
      "Ġintroduced": 4824,
      "Ġ2005": 4825,
      "Ġproviding": 4826,
      "Ġenforcement": 4827,
      "ĠTime": 4828,
      "Ġestablished": 4829,
      "Ġoccup": 4830,
      "isation": 4831,
      "icon": 4832,
      "Ġremoved": 4833,
      "ĠAndroid": 4834,
      "Ġeat": 4835,
      "cient": 4836,
      "ĠThomas": 4837,
      "ĠJose": 4838,
      "onym": 4839,
      "Ġcells": 4840,
      "bour": 4841,
      "vant": 4842,
      "ĠMexico": 4843,
      "Ġconversation": 4844,
      "Ġbanks": 4845,
      "Ġcancer": 4846,
      "Ġdiscussion": 4847,
      "win": 4848,
      "Ġstopped": 4849,
      "Ġfant": 4850,
      "ady": 4851,
      "cks": 4852,
      "Ġuseful": 4853,
      "icles": 4854,
      "itz": 4855,
      "Ġhttps": 4856,
      "azine": 4857,
      "Ġnewsp": 4858,
      "Ġhomes": 4859,
      "Ġdownload": 4860,
      "Ġoffensive": 4861,
      "Ġassess": 4862,
      "Ġsouth": 4863,
      "Ġsports": 4864,
      "SP": 4865,
      "Ġfourth": 4866,
      "Ġobvious": 4867,
      "Ġcook": 4868,
      "Ġtransl": 4869,
      "ula": 4870,
      "oted": 4871,
      "Ġhousing": 4872,
      "Ġmodels": 4873,
      "Ġbul": 4874,
      "owl": 4875,
      "Ġstick": 4876,
      "kin": 4877,
      "Ġmeasures": 4878,
      "umn": 4879,
      "onto": 4880,
      "ications": 4881,
      "Ġgirls": 4882,
      "Ġoperation": 4883,
      "anda": 4884,
      "ĠBern": 4885,
      "ĠMary": 4886,
      "Ġsetting": 4887,
      "formation": 4888,
      "Ġfiles": 4889,
      "Ġmanaged": 4890,
      "oms": 4891,
      "season": 4892,
      "Ġidentified": 4893,
      "ĠJon": 4894,
      "Ġhair": 4895,
      "Ġfocused": 4896,
      "39": 4897,
      "Ġappropri": 4898,
      "ĠSupreme": 4899,
      "Ġfinished": 4900,
      "ĠResearch": 4901,
      "Ġarrived": 4902,
      "****": 4903,
      "ading": 4904,
      "Ġprefer": 4905,
      "ĠWeb": 4906,
      "Ġspirit": 4907,
      "real": 4908,
      "Ġveter": 4909,
      "Ġearth": 4910,
      "Ġ32": 4911,
      "Ġskills": 4912,
      "Ġfigures": 4913,
      "Ġ2000": 4914,
      "ulate": 4915,
      "place": 4916,
      "Ġconclud": 4917,
      "Ġacknow": 4918,
      "what": 4919,
      "Ġtherefore": 4920,
      "Ġcommitted": 4921,
      "verse": 4922,
      "Ġkeeping": 4923,
      "ups": 4924,
      "Ġfunds": 4925,
      "Ġclick": 4926,
      "Ġexclus": 4927,
      "47": 4928,
      "apped": 4929,
      "ĠPeter": 4930,
      "ĠArmy": 4931,
      "Ġidentity": 4932,
      "ĠPut": 4933,
      "Ġtough": 4934,
      "lig": 4935,
      "Ġexchange": 4936,
      "outs": 4937,
      "Ġotherwise": 4938,
      "Ġfeels": 4939,
      "Ġpartner": 4940,
      "hi": 4941,
      "ication": 4942,
      "Ġrelatively": 4943,
      "Ġowner": 4944,
      "enses": 4945,
      "Ġdetect": 4946,
      "Ġsurvey": 4947,
      "agn": 4948,
      "Ġtrip": 4949,
      "eah": 4950,
      "itutional": 4951,
      "âĢĶâĢĶ": 4952,
      "wing": 4953,
      "Ġsteps": 4954,
      "ronic": 4955,
      "Ġslightly": 4956,
      "ĠSol": 4957,
      "Ġconnection": 4958,
      "Ã¡": 4959,
      "ka": 4960,
      "ĠPrime": 4961,
      "Don": 4962,
      "Ġtweet": 4963,
      "Ġphotos": 4964,
      "dden": 4965,
      "ĠDen": 4966,
      "Ġdepend": 4967,
      "gar": 4968,
      "ocal": 4969,
      "Ġhusband": 4970,
      "Ġweak": 4971,
      "Ġgender": 4972,
      "Ġprotection": 4973,
      "Ġ45": 4974,
      "ĠIN": 4975,
      "uct": 4976,
      "Ġdefensive": 4977,
      "Ġmere": 4978,
      "Ġelements": 4979,
      "49": 4980,
      "icide": 4981,
      "Ġfle": 4982,
      "rency": 4983,
      "Ġcircum": 4984,
      "vis": 4985,
      "isf": 4986,
      "Ġcorner": 4987,
      "Ġstrike": 4988,
      "Ġkilling": 4989,
      "Ġgain": 4990,
      "ils": 4991,
      "ighter": 4992,
      "upp": 4993,
      "Ġcollection": 4994,
      "ania": 4995,
      "ĠCollege": 4996,
      "Ġroll": 4997,
      "##": 4998,
      "ĠPublic": 4999,
      "ucky": 5000,
      "ĠLu": 5001,
      "Ġsuggests": 5002,
      "ancing": 5003,
      "Ġdat": 5004,
      "\":": 5005,
      "Ġsust": 5006,
      "makers": 5007,
      "rig": 5008,
      "Ġaggress": 5009,
      "Ġcommission": 5010,
      "prof": 5011,
      "mas": 5012,
      "Ġwindow": 5013,
      "Ġsupply": 5014,
      "rd": 5015,
      "stream": 5016,
      "ĠAN": 5017,
      "TC": 5018,
      "Ġtaxes": 5019,
      "ĠSecretary": 5020,
      "hens": 5021,
      "Ġbigger": 5022,
      "odies": 5023,
      "hedul": 5024,
      "ĠImages": 5025,
      "Ġfailure": 5026,
      "Ġmicro": 5027,
      "ano": 5028,
      "ĠAtlant": 5029,
      "DA": 5030,
      "Ġmental": 5031,
      "Ġremind": 5032,
      "Ġamazing": 5033,
      "ãĥ": 5034,
      "Ġstruct": 5035,
      "RA": 5036,
      "Ġplanet": 5037,
      "Ġsides": 5038,
      "Ġspeaking": 5039,
      "Ġhappening": 5040,
      "Ġorganizations": 5041,
      "Ġstarts": 5042,
      "Ġnone": 5043,
      "iot": 5044,
      "Ġguard": 5045,
      "Ġplanned": 5046,
      "Ġsudden": 5047,
      "ĠCamp": 5048,
      "ĠMedia": 5049,
      "adium": 5050,
      "Ġfamiliar": 5051,
      "Ġspect": 5052,
      "Ġthanks": 5053,
      "ĠProt": 5054,
      "Ġtalks": 5055,
      "uate": 5056,
      "Ġwish": 5057,
      "When": 5058,
      "ĠBitcoin": 5059,
      "Ġcrew": 5060,
      "Ġhate": 5061,
      "Ġaward": 5062,
      "rees": 5063,
      "lor": 5064,
      "amm": 5065,
      "ĠMos": 5066,
      "Ġdecide": 5067,
      "gypt": 5068,
      "ĠSyrian": 5069,
      "idering": 5070,
      "Ġarmy": 5071,
      "Ġimmigration": 5072,
      "ĠAmazon": 5073,
      "ĠMean": 5074,
      "Ġseconds": 5075,
      "Ġregist": 5076,
      "Ġcarried": 5077,
      "Ġappoint": 5078,
      "Ġscientific": 5079,
      "ynam": 5080,
      "Ġscript": 5081,
      "Ġstanding": 5082,
      "eless": 5083,
      "Ġhelping": 5084,
      "agues": 5085,
      "ĠMars": 5086,
      "range": 5087,
      "ola": 5088,
      "uters": 5089,
      "Ġrevolution": 5090,
      "Ġmulti": 5091,
      "Ġbeer": 5092,
      "ias": 5093,
      "ĠJes": 5094,
      "oston": 5095,
      "ĠBet": 5096,
      "awn": 5097,
      "Ġfiled": 5098,
      "ĠPlan": 5099,
      "ĠService": 5100,
      "Ġenvironmental": 5101,
      "HL": 5102,
      "imal": 5103,
      "Ġdomestic": 5104,
      "ĠToronto": 5105,
      "Ġstandards": 5106,
      "ĠAri": 5107,
      "ocol": 5108,
      "Ġque": 5109,
      "Is": 5110,
      "Ġvariety": 5111,
      "Ġmarkets": 5112,
      "Ġphilos": 5113,
      "gn": 5114,
      "ĠBob": 5115,
      "65": 5116,
      "Ġsch": 5117,
      "Ġbatter": 5118,
      "ĠOpen": 5119,
      "ĠCentral": 5120,
      "Ġturns": 5121,
      "erous": 5122,
      "aven": 5123,
      "ĠSocial": 5124,
      "Ġtack": 5125,
      "Ġimpossible": 5126,
      "Ġaccounts": 5127,
      "Ġpair": 5128,
      "ĠMur": 5129,
      "Ġvotes": 5130,
      "Ġvul": 5131,
      "Ġdegree": 5132,
      "Ġdropped": 5133,
      "Ġcold": 5134,
      "Ġterrit": 5135,
      "Ġneighborhood": 5136,
      "Ġinteract": 5137,
      "Ġacadem": 5138,
      "Ġpossibly": 5139,
      "Ġbalance": 5140,
      "Ġoperating": 5141,
      "Ġserver": 5142,
      "Ġappre": 5143,
      "ĠBefore": 5144,
      "Ġprofessor": 5145,
      "ĠDan": 5146,
      "iser": 5147,
      "aded": 5148,
      "aren": 5149,
      "Ġtests": 5150,
      "Ġalternative": 5151,
      "Ġhonest": 5152,
      "fe": 5153,
      "Ġworry": 5154,
      "illa": 5155,
      "Ġcuts": 5156,
      "Re": 5157,
      "].": 5158,
      "Ġunion": 5159,
      "ipping": 5160,
      "!\"": 5161,
      "Ġrich": 5162,
      "run": 5163,
      "ĠRE": 5164,
      "Ġincreasingly": 5165,
      "ĠFoundation": 5166,
      "cious": 5167,
      "ĠRub": 5168,
      "Ġapply": 5169,
      "Ġprinc": 5170,
      "pm": 5171,
      "ĠUSA": 5172,
      "Ġfellow": 5173,
      "Ġlived": 5174,
      "itect": 5175,
      "Ġ//": 5176,
      "Ġlosing": 5177,
      "Ġchanging": 5178,
      "ruit": 5179,
      "hicles": 5180,
      "arks": 5181,
      "Ġapparently": 5182,
      "with": 5183,
      "Ġdevelopers": 5184,
      "Ġhumans": 5185,
      "ĠFederal": 5186,
      "Ġunivers": 5187,
      "Ġultimately": 5188,
      "Ġagencies": 5189,
      "rastructure": 5190,
      "icted": 5191,
      "ĠCarolina": 5192,
      "ĠVe": 5193,
      "Ġreligion": 5194,
      "ores": 5195,
      "Ġtwice": 5196,
      "ĠDistrict": 5197,
      "Ġsounds": 5198,
      "ĠSecond": 5199,
      "ĠEgypt": 5200,
      "ĠWhe": 5201,
      "Ġsea": 5202,
      "Ġcolle": 5203,
      "ashed": 5204,
      "Ġabsolutely": 5205,
      "Ġath": 5206,
      "och": 5207,
      "ĠChief": 5208,
      "ansion": 5209,
      "0000": 5210,
      "Ġunits": 5211,
      "Ġsoldiers": 5212,
      "stein": 5213,
      "Ġinnov": 5214,
      "Ġcloser": 5215,
      "Ġauthority": 5216,
      "Ġschedul": 5217,
      "Ð¸": 5218,
      "Ġmut": 5219,
      "ipment": 5220,
      "Ġhealthy": 5221,
      "Ġbeautiful": 5222,
      "ĠFree": 5223,
      "=\"": 5224,
      "acks": 5225,
      "ĠMel": 5226,
      "Ġpossibility": 5227,
      "Ġpaying": 5228,
      "No": 5229,
      "roud": 5230,
      "ĠMass": 5231,
      "Ġyards": 5232,
      "ĠSteve": 5233,
      "ÃĤ": 5234,
      "Ġdeveloping": 5235,
      "Ġcorporate": 5236,
      "Ġexpensive": 5237,
      "ĠMiddle": 5238,
      "Ġvast": 5239,
      "Ġwriter": 5240,
      "Ġskin": 5241,
      "Ġflight": 5242,
      "Ġapart": 5243,
      "aine": 5244,
      "Ġregarding": 5245,
      "coh": 5246,
      "ĠBoston": 5247,
      "46": 5248,
      "Ġadjust": 5249,
      "Ġdeploy": 5250,
      "Ġseeking": 5251,
      "Ġexperts": 5252,
      "Ġvir": 5253,
      "CH": 5254,
      "ĠMem": 5255,
      "ĠThough": 5256,
      "Ġimagine": 5257,
      "ĠLat": 5258,
      "ĠSpr": 5259,
      "ĠGal": 5260,
      "isted": 5261,
      "Ġsolar": 5262,
      "Ġapplications": 5263,
      "related": 5264,
      "ĠWatch": 5265,
      "Ġtast": 5266,
      "ĠCru": 5267,
      "Ġ2004": 5268,
      "ĠFrancisco": 5269,
      "Ġsitting": 5270,
      "Ġanimal": 5271,
      "Ġvision": 5272,
      "Ġinternal": 5273,
      "apers": 5274,
      "Ġcapacity": 5275,
      "ĠLee": 5276,
      "ologies": 5277,
      "ĠSing": 5278,
      "atures": 5279,
      "Ġheat": 5280,
      "pire": 5281,
      "Ġcovered": 5282,
      "ĠBook": 5283,
      "Ġpil": 5284,
      "IV": 5285,
      "Ġgar": 5286,
      "ĠJournal": 5287,
      "Ġelim": 5288,
      "look": 5289,
      "Ġpit": 5290,
      "osen": 5291,
      "Ġerror": 5292,
      "Ġunless": 5293,
      "ĠSign": 5294,
      "Ġarms": 5295,
      "ĠTop": 5296,
      "Ġtrail": 5297,
      "Ġresponsibility": 5298,
      "Ġelections": 5299,
      "Ġlob": 5300,
      "ĠEach": 5301,
      "ĠPhot": 5302,
      "ION": 5303,
      "sen": 5304,
      "Americ": 5305,
      "state": 5306,
      "ĠSant": 5307,
      "Ġuniversity": 5308,
      "ENT": 5309,
      "ĠWilliams": 5310,
      "oving": 5311,
      "Ġpresented": 5312,
      "Ġfol": 5313,
      "IM": 5314,
      "Ġfamous": 5315,
      "Ġforms": 5316,
      "enced": 5317,
      "lets": 5318,
      "Ġearn": 5319,
      "idden": 5320,
      "Ġsurprise": 5321,
      "Ġguarant": 5322,
      "Ġfif": 5323,
      "ĠOnly": 5324,
      "ĠCath": 5325,
      "Ġconvention": 5326,
      "Ġattorney": 5327,
      "ĠPower": 5328,
      "Ġodd": 5329,
      "Ġsymb": 5330,
      "ĠHist": 5331,
      "uration": 5332,
      "ĠVirginia": 5333,
      "ortion": 5334,
      "Ġtight": 5335,
      "ÑĤ": 5336,
      "rible": 5337,
      "Ġrid": 5338,
      "ĠConserv": 5339,
      "ĠMs": 5340,
      "ayer": 5341,
      "uster": 5342,
      "Ġsport": 5343,
      "Ġbroken": 5344,
      ".âĢĿ</": 5345,
      "ĠRo": 5346,
      "ĠStill": 5347,
      "Ġteen": 5348,
      "Ġhelps": 5349,
      "Ġintended": 5350,
      "IP": 5351,
      "For": 5352,
      "ĠColor": 5353,
      "Ġinstit": 5354,
      "pret": 5355,
      "under": 5356,
      "ĠCharl": 5357,
      "Ġvehicles": 5358,
      "porary": 5359,
      "Ġestimated": 5360,
      "hand": 5361,
      "Ġflow": 5362,
      "ressive": 5363,
      "Ġshall": 5364,
      "Ġclim": 5365,
      "ĠAustralian": 5366,
      "Ġstreets": 5367,
      "mail": 5368,
      "Ġreserv": 5369,
      "Ġoccurred": 5370,
      "cel": 5371,
      "Ġdetermine": 5372,
      "ĠParis": 5373,
      "Ġconsult": 5374,
      "person": 5375,
      "()": 5376,
      "Ġton": 5377,
      "31": 5378,
      "Ġexpert": 5379,
      "ĠRad": 5380,
      "Ãĥ": 5381,
      "Ġpieces": 5382,
      "Ġfired": 5383,
      "anche": 5384,
      "Ġtroops": 5385,
      "ĠGuard": 5386,
      "alls": 5387,
      "useum": 5388,
      "xual": 5389,
      "Ġlocated": 5390,
      "ĠSaud": 5391,
      "terday": 5392,
      "rie": 5393,
      "ĠShow": 5394,
      "Ġprove": 5395,
      "----------------": 5396,
      "Ġrapid": 5397,
      "Ġstars": 5398,
      "oty": 5399,
      "Ġprepared": 5400,
      "orage": 5401,
      "OW": 5402,
      "Ġbringing": 5403,
      "ĠRiver": 5404,
      "Ġspecifically": 5405,
      "Ġpotentially": 5406,
      "Ġhyp": 5407,
      "Ġnar": 5408,
      "Ġconclus": 5409,
      "eder": 5410,
      "phas": 5411,
      "Ġrandom": 5412,
      "Ġsector": 5413,
      "LE": 5414,
      "Ġstress": 5415,
      "ĠAbout": 5416,
      "Ġboost": 5417,
      "Ġfaster": 5418,
      "Ġgovernments": 5419,
      "ĠNov": 5420,
      "ss": 5421,
      "Ġplenty": 5422,
      "ĠProject": 5423,
      "Ġvulner": 5424,
      "ĠAv": 5425,
      "Ġselling": 5426,
      "Ġequipment": 5427,
      "ĠMedic": 5428,
      "mes": 5429,
      "Ġbaby": 5430,
      "Ġbreat": 5431,
      "Ġseasons": 5432,
      "Ġproposal": 5433,
      "Ġheav": 5434,
      "Ġjail": 5435,
      "ĠWork": 5436,
      "Ġcouncil": 5437,
      "ĠAndrew": 5438,
      "endment": 5439,
      "ader": 5440,
      "Ġruling": 5441,
      "Ġremove": 5442,
      "ĠTra": 5443,
      "ĠNAS": 5444,
      "Ġrefused": 5445,
      "Ġfactors": 5446,
      "Ġinfrastructure": 5447,
      "ini": 5448,
      "cean": 5449,
      "ĠOk": 5450,
      "Ġera": 5451,
      "Ġdin": 5452,
      "Ġoffering": 5453,
      "ĠSum": 5454,
      "Ġsecure": 5455,
      "Ġbroke": 5456,
      "Ġweapon": 5457,
      "ht": 5458,
      "Ġdram": 5459,
      "Ġexpressed": 5460,
      "ĠIsland": 5461,
      "Ġprosecut": 5462,
      "Ġclot": 5463,
      "Ġclin": 5464,
      "Ġvoted": 5465,
      "Ġequal": 5466,
      "Ġchallenges": 5467,
      "Ġmethods": 5468,
      "vey": 5469,
      "Ġconducted": 5470,
      "ĠHol": 5471,
      "road": 5472,
      "war": 5473,
      "Ġ=>": 5474,
      "noon": 5475,
      "isher": 5476,
      "mm": 5477,
      "ureau": 5478,
      "Ġcombat": 5479,
      "Ġelected": 5480,
      "Ġtourn": 5481,
      "DP": 5482,
      "Ġpointed": 5483,
      "Ġcarbon": 5484,
      "ey": 5485,
      "Ġpositions": 5486,
      "ĠSpace": 5487,
      "Ġtrig": 5488,
      ",'": 5489,
      "ĠWhere": 5490,
      "Ġprime": 5491,
      "Ġremained": 5492,
      "ĠHaw": 5493,
      "Ġcultural": 5494,
      "ĠJackson": 5495,
      "rog": 5496,
      "Ġoriginally": 5497,
      "Ġretail": 5498,
      "yr": 5499,
      "ocking": 5500,
      "eds": 5501,
      "onom": 5502,
      "ean": 5503,
      "ĠMeanwhile": 5504,
      "Ġmaster": 5505,
      "Ġsigns": 5506,
      "Ġcriticism": 5507,
      "issions": 5508,
      "Ġfinish": 5509,
      "ĠHuman": 5510,
      "ashion": 5511,
      "Ġweren": 5512,
      "pired": 5513,
      "lyn": 5514,
      "Ġthank": 5515,
      "Ġshape": 5516,
      "Ġgreatest": 5517,
      "ĠForce": 5518,
      "Ġpercentage": 5519,
      "Ġsignificantly": 5520,
      "Ġappearance": 5521,
      "etic": 5522,
      "Ġvoting": 5523,
      "Ġsale": 5524,
      "ĠPac": 5525,
      "Ġfacing": 5526,
      "Ġyouth": 5527,
      "olved": 5528,
      "ours": 5529,
      "Ġstret": 5530,
      "Ġ500": 5531,
      "Ġinvolve": 5532,
      "Ġtele": 5533,
      "Ġaffected": 5534,
      "olit": 5535,
      "Sh": 5536,
      "lymp": 5537,
      "Ġdetermined": 5538,
      "Ġreduced": 5539,
      "ĠAT": 5540,
      "UT": 5541,
      "Ġregime": 5542,
      "Ġwood": 5543,
      "rier": 5544,
      "Ġchemical": 5545,
      "64": 5546,
      "standing": 5547,
      "Ġbought": 5548,
      "ĠDaily": 5549,
      "Ġmode": 5550,
      "Ġherself": 5551,
      "ĠDou": 5552,
      "Ġmarg": 5553,
      "Ġindeed": 5554,
      "ĠBBC": 5555,
      "ĠMaybe": 5556,
      "Ġobviously": 5557,
      "IG": 5558,
      "ĠHy": 5559,
      "Ġgrew": 5560,
      "Ġminimum": 5561,
      "arp": 5562,
      "Ġhurt": 5563,
      "ĠSupp": 5564,
      "reens": 5565,
      "Ġthr": 5566,
      "Ġhandle": 5567,
      "Ġremaining": 5568,
      "Ġ1990": 5569,
      "ĠDirector": 5570,
      "ĠLabour": 5571,
      "ĠRoad": 5572,
      "Ġhun": 5573,
      "Ġcontrast": 5574,
      "ĠDown": 5575,
      "Ġplus": 5576,
      "Ġrent": 5577,
      "Ġpoliticians": 5578,
      "95": 5579,
      "ĠMa": 5580,
      "Ġargued": 5581,
      "Ġcas": 5582,
      "gment": 5583,
      "inating": 5584,
      "ighters": 5585,
      "Ġsupporting": 5586,
      "Ġswitch": 5587,
      "Ġrecorded": 5588,
      "col": 5589,
      "Ġsubs": 5590,
      "Ġleads": 5591,
      "Ġrevenue": 5592,
      "Ġpurchase": 5593,
      "ĠLook": 5594,
      "Ġsurprising": 5595,
      "Ġappreci": 5596,
      "Ġwearing": 5597,
      "Ġproced": 5598,
      "Ġexcited": 5599,
      "Ġbound": 5600,
      "Ġtact": 5601,
      "Ġvideos": 5602,
      "Ġconsidering": 5603,
      "Ġminute": 5604,
      "Ġexplos": 5605,
      "Ġfilms": 5606,
      "Ġbasically": 5607,
      "ĠTurkey": 5608,
      "ownt": 5609,
      "Ġ195": 5610,
      "Ġpanel": 5611,
      "Ġexperienced": 5612,
      "Ġaid": 5613,
      "Ġdifferences": 5614,
      "Ġturning": 5615,
      "Ġexperiment": 5616,
      "ĠRod": 5617,
      "ĠDevelop": 5618,
      "ĠWal": 5619,
      "Ġidentify": 5620,
      "Ġconcent": 5621,
      "cohol": 5622,
      "Ġshift": 5623,
      "Ġaccident": 5624,
      "ĠOlymp": 5625,
      "essions": 5626,
      "Ġopportunities": 5627,
      "Ġafternoon": 5628,
      "Ġbelong": 5629,
      "Ġspring": 5630,
      "ogue": 5631,
      "Ġpulled": 5632,
      "Ġseriously": 5633,
      "ĠOl": 5634,
      "Ġaircraft": 5635,
      "Ġglass": 5636,
      "class": 5637,
      "lo": 5638,
      "Ġmotiv": 5639,
      "ruption": 5640,
      "ller": 5641,
      "ĠFer": 5642,
      "ĠRon": 5643,
      "ĠTechn": 5644,
      "Ġconsumers": 5645,
      "Ġagent": 5646,
      "ĠPenn": 5647,
      "life": 5648,
      "Ġprospect": 5649,
      "Ġlisten": 5650,
      "Ġdiss": 5651,
      "Ġseat": 5652,
      "top": 5653,
      "Ġdepart": 5654,
      "Ġdim": 5655,
      "Ġends": 5656,
      "Ġevening": 5657,
      "Ġcompleted": 5658,
      "asp": 5659,
      "Ġemergency": 5660,
      "Ġvisual": 5661,
      "osite": 5662,
      "05": 5663,
      "Ġtreated": 5664,
      "Ġid": 5665,
      "ĠJul": 5666,
      "Ġpackage": 5667,
      "Ġelement": 5668,
      "ĠGen": 5669,
      "Ġast": 5670,
      "ĠSqu": 5671,
      "apping": 5672,
      "pet": 5673,
      "hered": 5674,
      "apter": 5675,
      "Ġconstruct": 5676,
      "01": 5677,
      "uts": 5678,
      "Ġcombined": 5679,
      "ĠSystem": 5680,
      "ĠiPh": 5681,
      "Ġstruggle": 5682,
      "ĠSomet": 5683,
      "Ġapps": 5684,
      "plom": 5685,
      "Ġlots": 5686,
      "ita": 5687,
      "Ġhopes": 5688,
      "Ġenemy": 5689,
      "ĠLin": 5690,
      "Ġtalked": 5691,
      "Ġmort": 5692,
      "Ġpassing": 5693,
      ",[": 5694,
      "ĠOhio": 5695,
      "Ġ36": 5696,
      "ĠWood": 5697,
      "ĠBus": 5698,
      "ĠVict": 5699,
      "anged": 5700,
      "Ġsuppl": 5701,
      "Ġprivacy": 5702,
      "Ġ2003": 5703,
      "that": 5704,
      "ket": 5705,
      "abilities": 5706,
      "Ġpowers": 5707,
      "ensions": 5708,
      "ucks": 5709,
      "Ġdiscl": 5710,
      "Ġopposed": 5711,
      "Ġplants": 5712,
      "raud": 5713,
      "Ġwidely": 5714,
      "Ġsuit": 5715,
      "Ġadvance": 5716,
      "ĠAC": 5717,
      "ĠSher": 5718,
      "ivered": 5719,
      "Ġcalcul": 5720,
      "Ġtrouble": 5721,
      "Ġdismiss": 5722,
      "ĠScience": 5723,
      "PD": 5724,
      "uous": 5725,
      "Ġpages": 5726,
      "nell": 5727,
      "Ġproceed": 5728,
      "ĠKim": 5729,
      "Ġburn": 5730,
      "Tr": 5731,
      "Ġattempts": 5732,
      "ato": 5733,
      "Ġsad": 5734,
      "Ġdistance": 5735,
      "Ġliberal": 5736,
      "ĠGrand": 5737,
      "Ġfactor": 5738,
      "Ġcopyright": 5739,
      "oral": 5740,
      "Ġdefault": 5741,
      "Ġzone": 5742,
      "oking": 5743,
      "Ġreference": 5744,
      "Ġcart": 5745,
      "ĠIts": 5746,
      "Ġfrust": 5747,
      "Ġtun": 5748,
      "Ġreaction": 5749,
      "estival": 5750,
      "rawn": 5751,
      "Ġupgr": 5752,
      "Ġstorm": 5753,
      "Ġreporters": 5754,
      "Ġvalid": 5755,
      "ĠAgain": 5756,
      "Ġtypically": 5757,
      "Ġcollabor": 5758,
      "Ġ\\": 5759,
      "zer": 5760,
      "mond": 5761,
      "gent": 5762,
      "adow": 5763,
      "Ġgrab": 5764,
      "Ġsac": 5765,
      "Ġhol": 5766,
      "lines": 5767,
      "ĠDani": 5768,
      "ĠIll": 5769,
      "My": 5770,
      "Ġinstruct": 5771,
      "Ġment": 5772,
      "ĠAD": 5773,
      "Ġquant": 5774,
      "ĠWeek": 5775,
      "ĠEr": 5776,
      "ĠRev": 5777,
      "ributed": 5778,
      "mosp": 5779,
      "li": 5780,
      "aped": 5781,
      "sts": 5782,
      "Ġquiet": 5783,
      "Ġcoord": 5784,
      "Ġwrites": 5785,
      "ÃĤÃĥ": 5786,
      "Ġdisappoint": 5787,
      "idel": 5788,
      "ĠThanks": 5789,
      "ĠLife": 5790,
      "ĠRight": 5791,
      "Ġ2001": 5792,
      "ĠStr": 5793,
      "Ġdenied": 5794,
      "ĠThank": 5795,
      "respond": 5796,
      "Ġapproved": 5797,
      "Ġbodies": 5798,
      "ache": 5799,
      "aints": 5800,
      "Ġappeal": 5801,
      "care": 5802,
      "ĠFar": 5803,
      "razy": 5804,
      "Ġoptim": 5805,
      "Ġmatters": 5806,
      "ĠML": 5807,
      "Ġbatt": 5808,
      "Ġresponded": 5809,
      "Ġentertain": 5810,
      "ĠBest": 5811,
      "ĠPR": 5812,
      "urb": 5813,
      "Ġstands": 5814,
      "Ġsets": 5815,
      "ĠBraz": 5816,
      "ffee": 5817,
      "ym": 5818,
      "ompl": 5819,
      "Ġrenew": 5820,
      "Ġcapable": 5821,
      "elly": 5822,
      "Ġconfidence": 5823,
      "ĠAfghanistan": 5824,
      "Ġexplo": 5825,
      "Ġmal": 5826,
      "Ġtradition": 5827,
      "ĠCNN": 5828,
      "Ġcreation": 5829,
      "ternal": 5830,
      "esters": 5831,
      "oken": 5832,
      "Ġgiant": 5833,
      "Ġinstitutions": 5834,
      "ĠTO": 5835,
      "ĠNote": 5836,
      "rist": 5837,
      "hab": 5838,
      "Ġweather": 5839,
      "Ġconfident": 5840,
      "free": 5841,
      "Ġunable": 5842,
      "ĠSeattle": 5843,
      "Ġpitch": 5844,
      "Ġsatisf": 5845,
      "Ġcloud": 5846,
      "Ġcoast": 5847,
      "ĠVol": 5848,
      "Ġsevere": 5849,
      "ĠFour": 5850,
      "Ġbroadcast": 5851,
      "Ġprompt": 5852,
      "Ġperspective": 5853,
      "Ġmand": 5854,
      "Ġgra": 5855,
      "Ġfly": 5856,
      "Ġtransition": 5857,
      "Ġadvert": 5858,
      ".\"</": 5859,
      "isters": 5860,
      "ĠUpd": 5861,
      "Ġnumerous": 5862,
      "42": 5863,
      "Ġtechnical": 5864,
      "ĠScot": 5865,
      "Ġcaption": 5866,
      "unte": 5867,
      "pass": 5868,
      "ĠIre": 5869,
      "PR": 5870,
      "88": 5871,
      "obe": 5872,
      "abled": 5873,
      "Ġreportedly": 5874,
      "ĠHen": 5875,
      "can": 5876,
      "ĠSaudi": 5877,
      "ĠCarl": 5878,
      "Ġlit": 5879,
      "Ġcrimes": 5880,
      "Ġpictures": 5881,
      "abin": 5882,
      "employ": 5883,
      "ĠStan": 5884,
      "Ġordered": 5885,
      "Ġloved": 5886,
      "host": 5887,
      "Ġforget": 5888,
      "Ġfaces": 5889,
      "Ġadvice": 5890,
      "Ġcraft": 5891,
      "Ġexperiences": 5892,
      "ĠLong": 5893,
      "ĠGM": 5894,
      "Ġroute": 5895,
      "Ġflag": 5896,
      "Ġexplains": 5897,
      "Ġshouldn": 5898,
      "unction": 5899,
      "Ġapprox": 5900,
      "Ġdeclared": 5901,
      "Ġvan": 5902,
      "Ġsuffered": 5903,
      "Ġmessages": 5904,
      "Ã¤": 5905,
      "Ġviolent": 5906,
      "Ġreporting": 5907,
      "ĠMichigan": 5908,
      "astern": 5909,
      "ishes": 5910,
      "Ġproud": 5911,
      "Ġdelay": 5912,
      "Ġmovies": 5913,
      "ĠChristmas": 5914,
      "],": 5915,
      "Ġsubstant": 5916,
      "ampion": 5917,
      "Ġnewspaper": 5918,
      "Ġbull": 5919,
      "Ġongoing": 5920,
      "ĠID": 5921,
      "Ġcircumst": 5922,
      "Ġguns": 5923,
      "Ġcann": 5924,
      "ilty": 5925,
      "ĠUkraine": 5926,
      "Ġconnected": 5927,
      "fere": 5928,
      "Ġdeclined": 5929,
      "Ġcooper": 5930,
      "ĠGar": 5931,
      "ĠHel": 5932,
      "Ġeval": 5933,
      "ĠHou": 5934,
      "Ġexcell": 5935,
      "Ġdelivered": 5936,
      "oves": 5937,
      "ĠSov": 5938,
      "Ġinjured": 5939,
      "Ġthoughts": 5940,
      "ulations": 5941,
      "Ġpicked": 5942,
      "Ġdiscrim": 5943,
      "ĠBlue": 5944,
      "So": 5945,
      "Ġaccompl": 5946,
      "Ġadmitted": 5947,
      "Ġfindings": 5948,
      "Ġappropriate": 5949,
      "Ġbrows": 5950,
      "gia": 5951,
      "Ġec": 5952,
      "ĠMuslims": 5953,
      "Ġforg": 5954,
      "Ġleaves": 5955,
      "Ġgather": 5956,
      "ellow": 5957,
      "Ġprin": 5958,
      "ionally": 5959,
      "Ġemphas": 5960,
      "Ġmarried": 5961,
      "dule": 5962,
      "Ġrot": 5963,
      "ĠPrem": 5964,
      "angers": 5965,
      "ĠMount": 5966,
      "nergy": 5967,
      "Ġedge": 5968,
      "rum": 5969,
      "rant": 5970,
      "Ġpublicly": 5971,
      "Ġrail": 5972,
      "Ġupdates": 5973,
      "called": 5974,
      "uations": 5975,
      "Ġarchitect": 5976,
      "essor": 5977,
      "ĠWalk": 5978,
      "Ġreaders": 5979,
      ",âĢĻ": 5980,
      "ĠDev": 5981,
      "Ġperman": 5982,
      "Ġwalking": 5983,
      "43": 5984,
      "Ġeditor": 5985,
      "Ġemails": 5986,
      "ansas": 5987,
      "Ġgraph": 5988,
      "Ġrealize": 5989,
      "hew": 5990,
      "Ġdrivers": 5991,
      "Ġstatements": 5992,
      "Ġdial": 5993,
      "ĠAnn": 5994,
      "Ġlawyer": 5995,
      "tion": 5996,
      "ĠCop": 5997,
      "Ġauth": 5998,
      "ĠElect": 5999,
      "rid": 6000,
      "Ġgod": 6001,
      "Ġsession": 6002,
      "ooth": 6003,
      "Ġconfirm": 6004,
      "Ġlegit": 6005,
      "Ġactivists": 6006,
      "Ġexercise": 6007,
      "long": 6008,
      "Ġourselves": 6009,
      "ÃĤÃĥÃĤÃĥ": 6010,
      "Ġ1980": 6011,
      "Ġcontains": 6012,
      "ĠRomney": 6013,
      "Ġarmed": 6014,
      "Ġpool": 6015,
      "Ġagents": 6016,
      "mates": 6017,
      "Ġargue": 6018,
      "enda": 6019,
      "Ġterrorist": 6020,
      "ĠExp": 6021,
      "uls": 6022,
      "Ġpatient": 6023,
      "Ġ33": 6024,
      "Ġmoral": 6025,
      "aza": 6026,
      "Ġquarterback": 6027,
      "Ġtech": 6028,
      "Ġtalent": 6029,
      "Ġobjects": 6030,
      "IR": 6031,
      "Ġfilled": 6032,
      "Ġbuildings": 6033,
      "enture": 6034,
      "Ġlabel": 6035,
      "Ġcrack": 6036,
      "Ġtransform": 6037,
      "Ġpractices": 6038,
      "ourney": 6039,
      "Ġtree": 6040,
      "Ġdynam": 6041,
      "ĠLake": 6042,
      "cons": 6043,
      "iat": 6044,
      "acter": 6045,
      "Ġeffectively": 6046,
      "ĠSky": 6047,
      "Ġmissed": 6048,
      "Ġexamples": 6049,
      "Ñģ": 6050,
      "ĠSwed": 6051,
      "Le": 6052,
      "Ġflo": 6053,
      "ÃŃ": 6054,
      "Ĥ¬": 6055,
      "Ġcauses": 6056,
      "Ġcentre": 6057,
      "amental": 6058,
      "Ġfish": 6059,
      "Ġshop": 6060,
      "bu": 6061,
      "Ġske": 6062,
      "ERS": 6063,
      "TV": 6064,
      "Ġwear": 6065,
      "Ġsubsequ": 6066,
      "Ġhell": 6067,
      "ĠThree": 6068,
      "asure": 6069,
      "Ġsecretary": 6070,
      "Ġallegations": 6071,
      "resents": 6072,
      "ĠIreland": 6073,
      "Ġclient": 6074,
      "evin": 6075,
      "Ġbond": 6076,
      "Ġdebut": 6077,
      "Tube": 6078,
      "77": 6079,
      "Ġinjuries": 6080,
      "agers": 6081,
      "inent": 6082,
      "ĠAff": 6083,
      "orders": 6084,
      "ĠAL": 6085,
      "Ġdiplom": 6086,
      "ĠAut": 6087,
      "orry": 6088,
      "Ġthinks": 6089,
      "Ġessentially": 6090,
      "ĠRam": 6091,
      "Ġsam": 6092,
      "ĠColumb": 6093,
      "ala": 6094,
      "Ġartist": 6095,
      "ounded": 6096,
      "Ġexpansion": 6097,
      "Ġmotor": 6098,
      "ĠBrazil": 6099,
      "ĠYear": 6100,
      "Ġ38": 6101,
      "Ġrain": 6102,
      "Ġing": 6103,
      "ĠDiv": 6104,
      "ĠLib": 6105,
      "Ġdesire": 6106,
      "ĠNext": 6107,
      "Ġinitially": 6108,
      "orse": 6109,
      "word": 6110,
      "ĠPolit": 6111,
      "Ð½": 6112,
      "ĠSar": 6113,
      "Ġpure": 6114,
      "Ġmaterials": 6115,
      "inals": 6116,
      "ĠiPhone": 6117,
      "OD": 6118,
      "ĠHome": 6119,
      "Ġexplan": 6120,
      "ĠBarack": 6121,
      "ĠCub": 6122,
      "Ġfranch": 6123,
      "arters": 6124,
      "ĠView": 6125,
      "41": 6126,
      "ador": 6127,
      "rip": 6128,
      "Ġfacts": 6129,
      "66": 6130,
      "Ġnecessarily": 6131,
      "ĠAuthor": 6132,
      "Ġincor": 6133,
      "Ġgovernor": 6134,
      "ilit": 6135,
      "icing": 6136,
      "Ġlinked": 6137,
      "Ġperformed": 6138,
      "Ġdatab": 6139,
      "Ġscheduled": 6140,
      "ette": 6141,
      "II": 6142,
      "Ġmyster": 6143,
      "Ġaccepted": 6144,
      "enger": 6145,
      "Ġwarned": 6146,
      "esome": 6147,
      "Ġlisted": 6148,
      "ĠPerhaps": 6149,
      "Ġmagazine": 6150,
      "Ġvari": 6151,
      "Ġincreases": 6152,
      "Ġadvanced": 6153,
      "Ġsuc": 6154,
      "ĠFurther": 6155,
      "Ġjoint": 6156,
      "Ġplayoff": 6157,
      "ĠFig": 6158,
      "Ġbare": 6159,
      "Ġfaced": 6160,
      "ĠBoard": 6161,
      "Ġdoctor": 6162,
      "Ġabandon": 6163,
      "Ġneither": 6164,
      "Ġinterpret": 6165,
      "illance": 6166,
      "Ġmir": 6167,
      "Ġathlet": 6168,
      "water": 6169,
      "edy": 6170,
      "Ġyesterday": 6171,
      "ĠSports": 6172,
      "Ġdecre": 6173,
      "Ġannouncement": 6174,
      "ĠDi": 6175,
      "ĠAriz": 6176,
      "Ġeverybody": 6177,
      "Ġradical": 6178,
      "ĠStory": 6179,
      "ĠISIS": 6180,
      "Ġnations": 6181,
      "ĠNBA": 6182,
      "irty": 6183,
      "Ġoffense": 6184,
      "ĠCard": 6185,
      "ĠBoy": 6186,
      "Ġspons": 6187,
      "Ġnearby": 6188,
      "Ġfollows": 6189,
      "Ġfort": 6190,
      "ĠEnter": 6191,
      "Ġresolution": 6192,
      "MA": 6193,
      "Ġbegins": 6194,
      "Ġatmosp": 6195,
      "Ġconfig": 6196,
      "Ġconsequences": 6197,
      "Ġsurprised": 6198,
      "Ġmoves": 6199,
      "athan": 6200,
      "ĠWik": 6201,
      "TA": 6202,
      "otic": 6203,
      "Ġalt": 6204,
      "Ġdistribution": 6205,
      "ĠEconom": 6206,
      "Ġimproved": 6207,
      "ĠMen": 6208,
      "sembly": 6209,
      "Ġpra": 6210,
      "illy": 6211,
      "ĠDC": 6212,
      "Ġ37": 6213,
      "Ġchart": 6214,
      "Ġrepresents": 6215,
      "Ġapplied": 6216,
      "ĠHouston": 6217,
      "level": 6218,
      "Ġenh": 6219,
      "Ġphen": 6220,
      "Ġplane": 6221,
      "Ġaf": 6222,
      "Ġadds": 6223,
      "law": 6224,
      "Ġstood": 6225,
      "ĠJews": 6226,
      "Ġwarm": 6227,
      "ĠClub": 6228,
      "ĠEric": 6229,
      "Ġ2002": 6230,
      "Ġride": 6231,
      "ĠColorado": 6232,
      "ĠCy": 6233,
      "Ġdemocracy": 6234,
      "ĠEll": 6235,
      "ĠGra": 6236,
      "Ġremark": 6237,
      "Ġoutput": 6238,
      "Ġflood": 6239,
      "itors": 6240,
      "ĠFam": 6241,
      "Ġthreats": 6242,
      "Ġguilty": 6243,
      "ĠBrook": 6244,
      "Ġtrib": 6245,
      "ĠContin": 6246,
      "irds": 6247,
      "Ġmanufacture": 6248,
      "Ġbrings": 6249,
      "Ġpushed": 6250,
      "Ġphilosop": 6251,
      "ĠKorean": 6252,
      "Ġshots": 6253,
      "Ġalcohol": 6254,
      "whel": 6255,
      "Ġsongs": 6256,
      "Ġrein": 6257,
      "Ġbehavi": 6258,
      "ĠMot": 6259,
      "Ġtotally": 6260,
      "Ġwithd": 6261,
      "ĠTake": 6262,
      "burg": 6263,
      "usal": 6264,
      "Ġdiscussed": 6265,
      "ĠYoung": 6266,
      "Ġhistorical": 6267,
      "ÑĢ": 6268,
      "duc": 6269,
      "Ġlawsuit": 6270,
      "Ġentry": 6271,
      "Ġsought": 6272,
      "Ġfill": 6273,
      "Ġconsistent": 6274,
      "ĠAsia": 6275,
      "Ġinvestors": 6276,
      "Ġ300": 6277,
      "Ġrow": 6278,
      "Ġreceiving": 6279,
      "Ġrising": 6280,
      "Ġentered": 6281,
      "ĠFil": 6282,
      "abb": 6283,
      "ideo": 6284,
      "Ġcombination": 6285,
      "SS": 6286,
      "Ġexistence": 6287,
      "Ġrestaurant": 6288,
      "ĠWomen": 6289,
      "Ġnative": 6290,
      "Ġbright": 6291,
      "Ġboys": 6292,
      "ĠShare": 6293,
      "Ġscr": 6294,
      "Ġarticles": 6295,
      "rich": 6296,
      "Ġinput": 6297,
      "Ġisland": 6298,
      "Ġbutton": 6299,
      "ĠOld": 6300,
      "mitted": 6301,
      "Ġ48": 6302,
      "LA": 6303,
      "Ġsubscrib": 6304,
      "Ġcreative": 6305,
      "Ġheads": 6306,
      "stood": 6307,
      "Ġstorage": 6308,
      "Ġcorrespond": 6309,
      "Ġclasses": 6310,
      "ĠYouTube": 6311,
      "Ġroughly": 6312,
      "Ġsquare": 6313,
      "Ġhighlight": 6314,
      "Ġsem": 6315,
      "Ġscored": 6316,
      "Ġresident": 6317,
      "fortunately": 6318,
      "ĠCharles": 6319,
      "acle": 6320,
      "Ġunlikely": 6321,
      "alty": 6322,
      "ĠRights": 6323,
      "Ġsav": 6324,
      "Ġboss": 6325,
      "ĠGames": 6326,
      "Ġlie": 6327,
      "ĠVan": 6328,
      "Ġcontest": 6329,
      "Ġconsumer": 6330,
      "Ġnetworks": 6331,
      "icious": 6332,
      "Ġlibrary": 6333,
      "TS": 6334,
      "ĠDu": 6335,
      "ĠHolly": 6336,
      "Ġfairly": 6337,
      "ĠIns": 6338,
      "Ġwarning": 6339,
      "Ġsucceed": 6340,
      "Ġfunctions": 6341,
      "Ġtemperature": 6342,
      "Ġresc": 6343,
      "Ġcolleagues": 6344,
      "born": 6345,
      "Ġheavily": 6346,
      "ĠDavis": 6347,
      "amin": 6348,
      "Ġlock": 6349,
      "Ġsplit": 6350,
      "Ġ49": 6351,
      "Ġsym": 6352,
      "ĠMic": 6353,
      "ĠWild": 6354,
      "greg": 6355,
      "Ġparliament": 6356,
      "Ġsymbol": 6357,
      "ician": 6358,
      "ĠMax": 6359,
      "Ġhousehold": 6360,
      "arden": 6361,
      "Ġstring": 6362,
      "PU": 6363,
      "pan": 6364,
      "cho": 6365,
      "Ġdeaths": 6366,
      "ĠKevin": 6367,
      "Ġanywhere": 6368,
      "ĠDie": 6369,
      "omin": 6370,
      "Ġprohib": 6371,
      "oked": 6372,
      "Ġprotests": 6373,
      "Ġcurrency": 6374,
      "Ġplot": 6375,
      "Ġyounger": 6376,
      "iques": 6377,
      "Ġtargets": 6378,
      "ĠStephen": 6379,
      "Ġdefined": 6380,
      "ĠPutin": 6381,
      "Ġimportance": 6382,
      "zy": 6383,
      "Ġzero": 6384,
      "ĠChild": 6385,
      "Ġbreaking": 6386,
      "Ġtow": 6387,
      "Ġexpression": 6388,
      "Ġmetal": 6389,
      "Ġmanage": 6390,
      "ican": 6391,
      "Ġbike": 6392,
      "Ġrally": 6393,
      "Ġbug": 6394,
      "Ġclassic": 6395,
      "onna": 6396,
      "Ġcere": 6397,
      "Ġlinks": 6398,
      "Ġfraud": 6399,
      "Ġstores": 6400,
      "Ġsnow": 6401,
      "ĠWay": 6402,
      "Ġreplaced": 6403,
      "hetic": 6404,
      "Ã³": 6405,
      "Ġdoctors": 6406,
      "Ġempt": 6407,
      "Ġnav": 6408,
      "Ġshif": 6409,
      "Ġbuying": 6410,
      "Ġmarketing": 6411,
      "def": 6412,
      "Ġblow": 6413,
      "ĠMat": 6414,
      "Ġfacility": 6415,
      "Ġregulations": 6416,
      "Ġsomewhat": 6417,
      "ĠOF": 6418,
      "Ġillust": 6419,
      "andal": 6420,
      "ĠArch": 6421,
      "Ġconfront": 6422,
      "Ġfavour": 6423,
      "west": 6424,
      "Ġwaste": 6425,
      "Ġ34": 6426,
      "Ġopposite": 6427,
      "ĠCast": 6428,
      "Ġessential": 6429,
      "ĠBrad": 6430,
      "ĠTit": 6431,
      "Ġallegedly": 6432,
      "Ġpromise": 6433,
      "Ġholds": 6434,
      "ĠDefense": 6435,
      "ĠTay": 6436,
      "edd": 6437,
      "ml": 6438,
      "ĠBat": 6439,
      "Ġschol": 6440,
      "Ġflat": 6441,
      "Ġlaugh": 6442,
      "ĠCIA": 6443,
      "Ã¶": 6444,
      "Ġversions": 6445,
      "agan": 6446,
      "Ġcampus": 6447,
      "Ġopponent": 6448,
      "Ġmotion": 6449,
      "roit": 6450,
      "ĠJesus": 6451,
      "',": 6452,
      "Ġhardware": 6453,
      "Ġmoments": 6454,
      "Ġevolution": 6455,
      "inem": 6456,
      "Ġvice": 6457,
      "ocket": 6458,
      "Ġadults": 6459,
      "ĠNY": 6460,
      "ĠPan": 6461,
      "Ġrelevant": 6462,
      "ĠArizona": 6463,
      "ĠPalestinian": 6464,
      "ĠItal": 6465,
      "ĠCruz": 6466,
      "power": 6467,
      "Ġrum": 6468,
      "Get": 6469,
      "ĠEnergy": 6470,
      "ena": 6471,
      "ĠRet": 6472,
      "Ġbag": 6473,
      "Ġhat": 6474,
      "ĠSC": 6475,
      "ĠSoviet": 6476,
      "Ġsees": 6477,
      "Ġtom": 6478,
      "ĠIP": 6479,
      "xy": 6480,
      "olve": 6481,
      "ĠStand": 6482,
      "Ġhoping": 6483,
      "Ġclosely": 6484,
      "Ġchain": 6485,
      "ĠLord": 6486,
      "ĠValley": 6487,
      "Ġfewer": 6488,
      "Ġharder": 6489,
      "Ġbon": 6490,
      "Ġacts": 6491,
      "twitter": 6492,
      "Ġindustrial": 6493,
      "Ġdownt": 6494,
      "Ġsick": 6495,
      "ĠTal": 6496,
      "chen": 6497,
      "dis": 6498,
      "Ġvolunte": 6499,
      "Ġreturns": 6500,
      "ta": 6501,
      "Ġintention": 6502,
      "Ġsyn": 6503,
      "ĠJord": 6504,
      "Ġmechanism": 6505,
      "Ġacknowled": 6506,
      "ĠDaniel": 6507,
      "Ġparticipants": 6508,
      "Ġcustomer": 6509,
      "ads": 6510,
      "ensus": 6511,
      "Ġfashion": 6512,
      "gas": 6513,
      "Ġdivision": 6514,
      "OC": 6515,
      "Ġmine": 6516,
      "ship": 6517,
      "game": 6518,
      "Ġisol": 6519,
      "Ġemotional": 6520,
      "Ġimmediate": 6521,
      "Ġflu": 6522,
      "Ġhur": 6523,
      "ï¿": 6524,
      "Ġgrown": 6525,
      "Ġtournament": 6526,
      "Ġextent": 6527,
      "Ġcircumstances": 6528,
      "ellect": 6529,
      "ulous": 6530,
      "Ġexperim": 6531,
      "78": 6532,
      "ĠFort": 6533,
      "ologist": 6534,
      "iger": 6535,
      "vin": 6536,
      "ĠCatholic": 6537,
      "IF": 6538,
      "ĠWat": 6539,
      "oma": 6540,
      "Ġsuffering": 6541,
      "ĠJava": 6542,
      "ĠClass": 6543,
      "Ġexcellent": 6544,
      "erry": 6545,
      "Ġdetailed": 6546,
      "ĠDam": 6547,
      "Ġwins": 6548,
      "nic": 6549,
      "esc": 6550,
      "atell": 6551,
      "efully": 6552,
      "ĠPy": 6553,
      "Ġtermin": 6554,
      "Ġcycle": 6555,
      "va": 6556,
      "Ġdescribe": 6557,
      "Ġwave": 6558,
      "uzz": 6559,
      "kel": 6560,
      "68": 6561,
      "Ġrelationships": 6562,
      "Ġancient": 6563,
      "Ġcheap": 6564,
      "Ġcrazy": 6565,
      "Ġlies": 6566,
      "certain": 6567,
      "Ġcarrying": 6568,
      "Ġfundamental": 6569,
      "Ġpip": 6570,
      "Ġimmigrants": 6571,
      "Ġkinds": 6572,
      "Ġtiny": 6573,
      "ĠCamer": 6574,
      "Ã¼": 6575,
      "friend": 6576,
      "ĠNASA": 6577,
      "Ġunus": 6578,
      "ii": 6579,
      "Ġfeatured": 6580,
      "Ġguide": 6581,
      "ĠMiller": 6582,
      "Ġdecline": 6583,
      "ĠInvest": 6584,
      "Ġskill": 6585,
      "Ġearned": 6586,
      "bar": 6587,
      "nam": 6588,
      "Ġcompetitive": 6589,
      "Ġauthors": 6590,
      "str": 6591,
      "08": 6592,
      "Ġstrange": 6593,
      "ĠPS": 6594,
      "Ġtrick": 6595,
      "Ġacting": 6596,
      "Ġartists": 6597,
      "Ġformed": 6598,
      "Ġinstru": 6599,
      "Ġcert": 6600,
      "utch": 6601,
      "Ġefficient": 6602,
      "Ġembr": 6603,
      "mission": 6604,
      "name": 6605,
      "Ġpushing": 6606,
      "chers": 6607,
      "ockey": 6608,
      "otal": 6609,
      "ĠReal": 6610,
      "style": 6611,
      "ĠEnd": 6612,
      "Ġmanner": 6613,
      "Ġregional": 6614,
      "Ġsharing": 6615,
      "Ġ75": 6616,
      "awa": 6617,
      "Ġsigning": 6618,
      "bel": 6619,
      "ĠFinally": 6620,
      "Ġupdated": 6621,
      "ĠBas": 6622,
      "Ġreferred": 6623,
      "Ġfrequently": 6624,
      "ĠWars": 6625,
      "Ġowned": 6626,
      "Ġcomfortable": 6627,
      "ocratic": 6628,
      "Ġcontroversial": 6629,
      "ĠWilson": 6630,
      "anish": 6631,
      "Ġwire": 6632,
      "Ġring": 6633,
      "uated": 6634,
      "Ġalongside": 6635,
      "FP": 6636,
      "Ġrepeatedly": 6637,
      "Ġhotel": 6638,
      "New": 6639,
      "Ġmouth": 6640,
      "Ġcommitment": 6641,
      "hus": 6642,
      "Ġmeat": 6643,
      "umber": 6644,
      "Ġcolumn": 6645,
      "Ġattempted": 6646,
      "Ġdu": 6647,
      "rome": 6648,
      "Ð¾Ð": 6649,
      "Ġupcoming": 6650,
      "Ġurban": 6651,
      "Ġegg": 6652,
      "ĠDid": 6653,
      "Con": 6654,
      "Ġfemin": 6655,
      "weight": 6656,
      "Ġschedule": 6657,
      "uable": 6658,
      "Ġrealized": 6659,
      "ï¿½": 6660,
      "ora": 6661,
      "Ġdedicated": 6662,
      "Ġsentence": 6663,
      "Ġintent": 6664,
      "Ġdepth": 6665,
      "ĠÎ": 6666,
      "iveness": 6667,
      "Ar": 6668,
      "Ġsuicide": 6669,
      "Ġstruck": 6670,
      "Ġkit": 6671,
      "foot": 6672,
      "Ġliqu": 6673,
      "anes": 6674,
      "Ġinspired": 6675,
      "Ġbat": 6676,
      "Ġpregn": 6677,
      "iami": 6678,
      "Ġuniverse": 6679,
      "rive": 6680,
      "ĠEp": 6681,
      "ĠLove": 6682,
      "Ġwalked": 6683,
      "ceived": 6684,
      "ographic": 6685,
      "rison": 6686,
      "Ġmainstream": 6687,
      "Ġtargeted": 6688,
      "Bl": 6689,
      "ĠSk": 6690,
      "Ġdesk": 6691,
      "Ġpled": 6692,
      "ĠLand": 6693,
      "Ġusual": 6694,
      "Ġjourney": 6695,
      "Ġorders": 6696,
      "Ġopponents": 6697,
      "Ġvirtual": 6698,
      "Ġcausing": 6699,
      "ĠAmong": 6700,
      "Ġassets": 6701,
      "Ġagenda": 6702,
      "Ġmedic": 6703,
      "ĠInf": 6704,
      "Ġnewslet": 6705,
      "ĠCheck": 6706,
      "ko": 6707,
      "Ġreput": 6708,
      "She": 6709,
      "ĠTurn": 6710,
      "Ġsister": 6711,
      "Ġserving": 6712,
      "Ġchannel": 6713,
      "Ġsurveillance": 6714,
      "Ġstudio": 6715,
      "Ġprotected": 6716,
      "ĠDetroit": 6717,
      "ĠWin": 6718,
      "ĠDun": 6719,
      "Ġchairman": 6720,
      "Ġwatched": 6721,
      "Ġoverwhel": 6722,
      "Ġcoffee": 6723,
      "Ġsurrounding": 6724,
      "ĠBrian": 6725,
      "adel": 6726,
      "ĠNE": 6727,
      "Ġsand": 6728,
      "ugh": 6729,
      "ĠFord": 6730,
      "Ġlatter": 6731,
      "Ġobserved": 6732,
      "Ġliterally": 6733,
      "Ġposts": 6734,
      "edia": 6735,
      "Ġhall": 6736,
      "Ġsubsid": 6737,
      "Ġtort": 6738,
      "ĠAdam": 6739,
      "ati": 6740,
      "aze": 6741,
      "azi": 6742,
      "All": 6743,
      "luding": 6744,
      "Ġteachers": 6745,
      "Ġstream": 6746,
      "comm": 6747,
      "Ġknowing": 6748,
      "Ġwinter": 6749,
      "09": 6750,
      "Ġbattery": 6751,
      "Ġfasc": 6752,
      "Ġprecise": 6753,
      "gor": 6754,
      "Ġapproval": 6755,
      "Ġdeeply": 6756,
      "Ġrape": 6757,
      "phy": 6758,
      "Ġsending": 6759,
      "Ġfixed": 6760,
      "Ġking": 6761,
      "Ġsimpl": 6762,
      "%)": 6763,
      "Ġwal": 6764,
      "ORE": 6765,
      "ĠClick": 6766,
      "Ġcongress": 6767,
      "Ġcommunication": 6768,
      "ingu": 6769,
      "Ġdealing": 6770,
      "rence": 6771,
      "Ġaside": 6772,
      "Ġnarr": 6773,
      "Ġfolks": 6774,
      "iciency": 6775,
      "Ġremote": 6776,
      "ipl": 6777,
      "Ġnoticed": 6778,
      "dit": 6779,
      "Ġexciting": 6780,
      "Ġ1970": 6781,
      "Ġpassion": 6782,
      "sex": 6783,
      "ĠSpecial": 6784,
      "Ġbasket": 6785,
      "Ġproperties": 6786,
      "To": 6787,
      "ĠMS": 6788,
      "ĠConf": 6789,
      "Cl": 6790,
      "print": 6791,
      "Ġforth": 6792,
      "Ġvolume": 6793,
      "Ġsky": 6794,
      "ĠJr": 6795,
      "Ġrequirements": 6796,
      "Ġalive": 6797,
      "Ġrisks": 6798,
      "sole": 6799,
      "Ġcrash": 6800,
      "ĠOrgan": 6801,
      "boy": 6802,
      "ĠKn": 6803,
      "rors": 6804,
      "avor": 6805,
      "Ġrefugees": 6806,
      "Ġexplore": 6807,
      "Ġneut": 6808,
      "ĠGall": 6809,
      "67": 6810,
      "Ġsweet": 6811,
      "ĠRog": 6812,
      "ĠLight": 6813,
      "Ġexhib": 6814,
      "ĠAdminist": 6815,
      "DS": 6816,
      "ĠItaly": 6817,
      "Ġwake": 6818,
      "ĠWater": 6819,
      "acc": 6820,
      "Ġunknown": 6821,
      "Ġanyway": 6822,
      "acking": 6823,
      "Ġdiet": 6824,
      "ensity": 6825,
      "ĠHollywood": 6826,
      "Ġreward": 6827,
      "arn": 6828,
      "woman": 6829,
      "abis": 6830,
      "Ġdefeat": 6831,
      "Ġtested": 6832,
      "rations": 6833,
      "Ġheight": 6834,
      "Ġpromised": 6835,
      "Ġgang": 6836,
      "pool": 6837,
      "ĠGeorgia": 6838,
      "ulture": 6839,
      "Ġgap": 6840,
      "Ġunemploy": 6841,
      "Ġmistake": 6842,
      "Al": 6843,
      "gery": 6844,
      "ĠSteven": 6845,
      "Ġeating": 6846,
      "Ġattacked": 6847,
      "Ġdomin": 6848,
      "Ġinvolving": 6849,
      "ĠAR": 6850,
      "Ġwest": 6851,
      "Ġphenomen": 6852,
      "onymous": 6853,
      "Ġlocations": 6854,
      "Ġwelcome": 6855,
      "ĠCam": 6856,
      "Ġdestroyed": 6857,
      "allas": 6858,
      "Ġselection": 6859,
      "Ġblame": 6860,
      "Ġproperly": 6861,
      "Ġputs": 6862,
      "Ġproof": 6863,
      "Ġwage": 6864,
      "Ġextended": 6865,
      "ĠJordan": 6866,
      "ixt": 6867,
      "alle": 6868,
      "ĠNight": 6869,
      "Ġsuddenly": 6870,
      "Ġimpressive": 6871,
      "Ġapproximately": 6872,
      "ums": 6873,
      "ĠMiami": 6874,
      "Ġmatches": 6875,
      "ĠCompany": 6876,
      "apse": 6877,
      "ĠTest": 6878,
      "Ġsample": 6879,
      "Ġterritory": 6880,
      "ua": 6881,
      "Ġconver": 6882,
      "oration": 6883,
      "Ġnorthern": 6884,
      "UR": 6885,
      "ĠUnfortunately": 6886,
      "Ġdry": 6887,
      "Ġsustain": 6888,
      "Ġprotesters": 6889,
      "ĠBell": 6890,
      "ĠLabor": 6891,
      "Ġdiscover": 6892,
      "ĠDig": 6893,
      "ĠSpanish": 6894,
      "Ġwid": 6895,
      "stone": 6896,
      "ĠCall": 6897,
      "American": 6898,
      "Ġslowly": 6899,
      "anges": 6900,
      "Ġmerely": 6901,
      "Ġpromote": 6902,
      "ĠDark": 6903,
      "Ġpal": 6904,
      "Ġfranchise": 6905,
      "Ġterrorism": 6906,
      "lv": 6907,
      "Ġ39": 6908,
      "Ġlicense": 6909,
      "ocation": 6910,
      "ĠKey": 6911,
      "Ġchose": 6912,
      "Ġmaximum": 6913,
      "Ġtypical": 6914,
      "ĠAh": 6915,
      "Ġsho": 6916,
      "ĠCat": 6917,
      "ĠAgency": 6918,
      "Ġfuck": 6919,
      "Ġteacher": 6920,
      "Ġrequests": 6921,
      "po": 6922,
      "Ġselected": 6923,
      "ĠSociety": 6924,
      "04": 6925,
      "Ġdiagn": 6926,
      "ĠLew": 6927,
      "ĠVis": 6928,
      "owered": 6929,
      "ĠUt": 6930,
      "Ġshel": 6931,
      "obile": 6932,
      "ilding": 6933,
      "Ġoblig": 6934,
      "Ġnarrow": 6935,
      "oming": 6936,
      "ether": 6937,
      "Ġmoder": 6938,
      "Ġtheme": 6939,
      "Ġdisag": 6940,
      "Ġeast": 6941,
      "59": 6942,
      "verty": 6943,
      "Ġretire": 6944,
      "dro": 6945,
      "âĢĻ.": 6946,
      "Ġworried": 6947,
      "ĠNetwork": 6948,
      "ĠNick": 6949,
      "How": 6950,
      "ĠAttorney": 6951,
      "itarian": 6952,
      "Ġrecognize": 6953,
      "Ġassume": 6954,
      "ĠGi": 6955,
      "inson": 6956,
      "ĠVictor": 6957,
      "ĠIrish": 6958,
      "aser": 6959,
      "Ġsupports": 6960,
      "Ġtopic": 6961,
      "fire": 6962,
      "asks": 6963,
      "ĠDisney": 6964,
      "htt": 6965,
      "Ġabortion": 6966,
      "Ġrub": 6967,
      "ĠBru": 6968,
      "Ġdeals": 6969,
      "ao": 6970,
      "Ġpoverty": 6971,
      "07": 6972,
      "Ġprote": 6973,
      "tle": 6974,
      "ĠWhich": 6975,
      "Ġadapt": 6976,
      "ĠThus": 6977,
      "Ġlikes": 6978,
      "you": 6979,
      "Ġnomine": 6980,
      "Ġallies": 6981,
      "ĠCD": 6982,
      "ĠJersey": 6983,
      "ĠMoore": 6984,
      "Ġfacilities": 6985,
      "Ġarguments": 6986,
      "Ġunderstood": 6987,
      "ĠSn": 6988,
      "pes": 6989,
      "axy": 6990,
      "ĠDar": 6991,
      "Ġformat": 6992,
      "Ġped": 6993,
      "Ġcontrolled": 6994,
      "ĠHun": 6995,
      "raid": 6996,
      "ĠTurk": 6997,
      "Ġfees": 6998,
      "ayers": 6999,
      "Ġconstant": 7000,
      "Ġsomehow": 7001,
      "Ġsole": 7002,
      "Ġsquad": 7003,
      "Ġresistance": 7004,
      "celer": 7005,
      "02": 7006,
      "Ġhonor": 7007,
      "ĠSenator": 7008,
      "list": 7009,
      "oster": 7010,
      "ogan": 7011,
      "Ġdress": 7012,
      "onic": 7013,
      "GBT": 7014,
      "Ġcritics": 7015,
      "Ġdrag": 7016,
      "Ġphase": 7017,
      "Ġequival": 7018,
      "Ġjournalists": 7019,
      "ĠOper": 7020,
      "Ġcommunications": 7021,
      "osis": 7022,
      "Ġregions": 7023,
      "ĠAsian": 7024,
      "Ġscheme": 7025,
      "gender": 7026,
      "Ġstim": 7027,
      "Ġvillage": 7028,
      "ĠReview": 7029,
      "Ġobtained": 7030,
      "VER": 7031,
      "Ġpersonally": 7032,
      "Ġlimits": 7033,
      "ems": 7034,
      "Ġbunch": 7035,
      "Ġpunish": 7036,
      "Ġtransp": 7037,
      "aug": 7038,
      "asts": 7039,
      "ĠOS": 7040,
      "Ġexposed": 7041,
      "ĠNHL": 7042,
      "Ġevil": 7043,
      "ĠJosh": 7044,
      "ĠSuch": 7045,
      "lls": 7046,
      "ĠSea": 7047,
      "ĠJoseph": 7048,
      "Ġchampion": 7049,
      "Ġthread": 7050,
      "Ġdeck": 7051,
      "Ġstrongly": 7052,
      "Ġfalling": 7053,
      "Ġsomewhere": 7054,
      "redit": 7055,
      "06": 7056,
      "ĠTem": 7057,
      "Ġcondem": 7058,
      "ĠBusiness": 7059,
      "Pro": 7060,
      "ĠFre": 7061,
      "Ġdefinition": 7062,
      "58": 7063,
      "cow": 7064,
      "Ġprofit": 7065,
      "arity": 7066,
      "ĠEduc": 7067,
      "sters": 7068,
      "Ġescape": 7069,
      "Ġempty": 7070,
      "Ġcomparison": 7071,
      "Ġharass": 7072,
      "ĠNever": 7073,
      "Ġvacc": 7074,
      "ĠCare": 7075,
      "orted": 7076,
      "Ġpolls": 7077,
      "Ġflex": 7078,
      "Ġencourage": 7079,
      "Ġmeetings": 7080,
      "Ġpic": 7081,
      "owa": 7082,
      "ĠCross": 7083,
      "Ġwinner": 7084,
      "Ġdatabase": 7085,
      "ĠSource": 7086,
      "enders": 7087,
      "Ġtruck": 7088,
      "NC": 7089,
      "alo": 7090,
      "Ġdecent": 7091,
      "Ġemissions": 7092,
      "Ġcutting": 7093,
      "ĠColl": 7094,
      "Ġbid": 7095,
      "oric": 7096,
      "iform": 7097,
      "ĠMinnes": 7098,
      "han": 7099,
      "pected": 7100,
      "Ġsouthern": 7101,
      "Ġcomprom": 7102,
      "Ġbear": 7103,
      "ĠHas": 7104,
      "ĠDNA": 7105,
      "cers": 7106,
      "Ġemployee": 7107,
      "intend": 7108,
      "ĠCivil": 7109,
      "Ġdesper": 7110,
      "ura": 7111,
      "ciples": 7112,
      "zens": 7113,
      "Ġgoods": 7114,
      "Ġhits": 7115,
      "Ġtrees": 7116,
      "ĠRun": 7117,
      "Ġanx": 7118,
      "Ġstronger": 7119,
      "ĠScotland": 7120,
      "Ġgotten": 7121,
      "Ġdirected": 7122,
      "aire": 7123,
      "ĠIndeed": 7124,
      "ĠNations": 7125,
      "ĠId": 7126,
      "Ġideal": 7127,
      "Ġpurposes": 7128,
      "ĠAcadem": 7129,
      "Ġ42": 7130,
      "igation": 7131,
      "Ġinqu": 7132,
      "Ġclaiming": 7133,
      "ĠTony": 7134,
      "mo": 7135,
      "Ġbench": 7136,
      "Ġintellect": 7137,
      "ĠHot": 7138,
      "ĠAnth": 7139,
      "57": 7140,
      "98": 7141,
      "ivery": 7142,
      "Ġfinds": 7143,
      "Ġfifth": 7144,
      "Ġofficially": 7145,
      "ĠCome": 7146,
      "Ġchosen": 7147,
      "Ġfold": 7148,
      "post": 7149,
      "Ġsoul": 7150,
      "Ġicon": 7151,
      "ĠOs": 7152,
      "izz": 7153,
      "rary": 7154,
      "Ġdeveloper": 7155,
      "Ġelectricity": 7156,
      "Ġunw": 7157,
      "ĠServices": 7158,
      "Ġdriven": 7159,
      "ĠForeign": 7160,
      "Ġextensive": 7161,
      "Ġdeleg": 7162,
      "Ġstretch": 7163,
      "Ġreveal": 7164,
      "ĠDallas": 7165,
      "iner": 7166,
      "Ġamounts": 7167,
      "Ġties": 7168,
      "ĪĴ": 7169,
      "ĠTaylor": 7170,
      "icken": 7171,
      "Ġruled": 7172,
      "Ġdrawn": 7173,
      "Ġincl": 7174,
      "inations": 7175,
      "essed": 7176,
      "ĠCH": 7177,
      "sea": 7178,
      "ĠSpain": 7179,
      "Ġsight": 7180,
      "asters": 7181,
      "Ġretain": 7182,
      "Ġpayments": 7183,
      "Ġending": 7184,
      "ser": 7185,
      "Ġthreatened": 7186,
      "Ġdogs": 7187,
      "Ġreasonable": 7188,
      "eping": 7189,
      "ĠProgram": 7190,
      "ĠOrig": 7191,
      "Ġcolon": 7192,
      "Ġrejected": 7193,
      "Ġparam": 7194,
      "Ġdistinct": 7195,
      "Ġspin": 7196,
      "Ġperfectly": 7197,
      "ĠKelly": 7198,
      "Ġaspects": 7199,
      "ĠMarc": 7200,
      "wan": 7201,
      "Ġanswers": 7202,
      "Ġcaptured": 7203,
      "ĠItalian": 7204,
      "Ġengage": 7205,
      "ĠNBC": 7206,
      "owed": 7207,
      "Ġsomebody": 7208,
      "Ġconstantly": 7209,
      "Ġprimarily": 7210,
      "ĠSouthern": 7211,
      "Ġtrading": 7212,
      "Ġble": 7213,
      "ĠMinnesota": 7214,
      "Ġfighters": 7215,
      "03": 7216,
      "Ġseats": 7217,
      "Ġrig": 7218,
      "Ġfields": 7219,
      "regon": 7220,
      "Ġboot": 7221,
      "Ġchoices": 7222,
      "ĠDead": 7223,
      "Ġpod": 7224,
      "Ġhouses": 7225,
      "ĠSP": 7226,
      "Ġparking": 7227,
      "Ġtank": 7228,
      "Ġanymore": 7229,
      "Ġrival": 7230,
      "Ġflying": 7231,
      "ĠUlt": 7232,
      "Ġsolutions": 7233,
      "Ġestimates": 7234,
      "Ġtechnologies": 7235,
      "Ġconstit": 7236,
      "ras": 7237,
      "irms": 7238,
      "Ġ%": 7239,
      "Ġcourts": 7240,
      "Ġregularly": 7241,
      "Ġelsewhere": 7242,
      "Ġresulting": 7243,
      "tes": 7244,
      "ĠFollowing": 7245,
      "fast": 7246,
      "Ġactor": 7247,
      "ĠRay": 7248,
      "Ġnobody": 7249,
      "otes": 7250,
      "Ġnarrative": 7251,
      "Ġcontem": 7252,
      "Ġbrew": 7253,
      "Ġoutcome": 7254,
      "Ġpayment": 7255,
      "Ġencoun": 7256,
      "ĠHistory": 7257,
      "ĠIT": 7258,
      "Ġexists": 7259,
      "Ġawesome": 7260,
      "Ġemployment": 7261,
      "ĠChampionship": 7262,
      "apes": 7263,
      "Ġprovince": 7264,
      "vy": 7265,
      "ĠBowl": 7266,
      "ĠMake": 7267,
      "Ġkeeps": 7268,
      "Ġprofile": 7269,
      "ĠFull": 7270,
      "Ġcontrols": 7271,
      "isan": 7272,
      "Ġcomponents": 7273,
      "ĠHave": 7274,
      "Ġ55": 7275,
      "rehens": 7276,
      "Ġmixed": 7277,
      "Ġcontributed": 7278,
      "rett": 7279,
      "Ġletters": 7280,
      "Ġmayor": 7281,
      "Ġsignal": 7282,
      "ĠStart": 7283,
      "Ġmurd": 7284,
      ">>": 7285,
      "Ġworldwide": 7286,
      "Ġapartment": 7287,
      "ĠFood": 7288,
      "ĠLo": 7289,
      "mod": 7290,
      "otten": 7291,
      "Ġsituations": 7292,
      "Ġincredible": 7293,
      "ĠMajor": 7294,
      "Ġfounder": 7295,
      "agram": 7296,
      "Ġconcluded": 7297,
      "lder": 7298,
      "Ġbaseball": 7299,
      "earing": 7300,
      "ĠPay": 7301,
      "An": 7302,
      "Ġclients": 7303,
      "ĠConstitution": 7304,
      "ĠFoot": 7305,
      "Ġenemies": 7306,
      "Ġcoalition": 7307,
      "On": 7308,
      "Ġbills": 7309,
      "Ġweird": 7310,
      "Ġatmosphere": 7311,
      "........": 7312,
      "icer": 7313,
      "Ġkil": 7314,
      "ĠGlobal": 7315,
      "Ġcrucial": 7316,
      "Ġupper": 7317,
      "emen": 7318,
      "Ġcontinuing": 7319,
      "Ġunp": 7320,
      "Ġregistered": 7321,
      "Ġloan": 7322,
      "ĠMcG": 7323,
      "Our": 7324,
      "Ġaccurate": 7325,
      "Ġincredibly": 7326,
      "Ġdemands": 7327,
      "inity": 7328,
      "Ġinformed": 7329,
      "Ġfeedback": 7330,
      "ĠGreg": 7331,
      "ĠRoman": 7332,
      "ĠSaf": 7333,
      "Ġenthus": 7334,
      "Ġtied": 7335,
      "rates": 7336,
      "Ġconscious": 7337,
      "ĠBalt": 7338,
      "Ġassistant": 7339,
      "Ġdrinking": 7340,
      "Ġreporter": 7341,
      "ĠSever": 7342,
      "Ġcategory": 7343,
      "Ġangry": 7344,
      "Ġgenerate": 7345,
      "ĠMu": 7346,
      "Ġproved": 7347,
      "Ġ($": 7348,
      "Ġstead": 7349,
      "Ġterrible": 7350,
      "Ġstuck": 7351,
      "Ġroutine": 7352,
      "mont": 7353,
      "ĠRick": 7354,
      "Ġticket": 7355,
      "ali": 7356,
      "Ġconven": 7357,
      "Ġexplanation": 7358,
      "ilarly": 7359,
      "69": 7360,
      "Ġimper": 7361,
      "Ġinfect": 7362,
      "inding": 7363,
      ".\"[": 7364,
      "Ġrus": 7365,
      "Ġmachines": 7366,
      "Ġdozen": 7367,
      "Ġ64": 7368,
      "CE": 7369,
      "ba": 7370,
      "ĠData": 7371,
      "300": 7372,
      "Ġreturning": 7373,
      "car": 7374,
      "lock": 7375,
      "Ġinnoc": 7376,
      "Ġ65": 7377,
      "Ġraising": 7378,
      "onsin": 7379,
      "sm": 7380,
      "Ġnewly": 7381,
      "ker": 7382,
      "Ġrepresented": 7383,
      "Ġwriters": 7384,
      "Ġaggressive": 7385,
      "Ġconclusion": 7386,
      "ĠGer": 7387,
      "iscal": 7388,
      "acked": 7389,
      "Ġpaint": 7390,
      "isconsin": 7391,
      "rage": 7392,
      "Ġgaming": 7393,
      "Ġexcess": 7394,
      "Ġmanip": 7395,
      "ifer": 7396,
      "Ġrecovery": 7397,
      "sell": 7398,
      "ĠOregon": 7399,
      "ĠLinux": 7400,
      "ĠHom": 7401,
      "Ġconsumption": 7402,
      "lights": 7403,
      "Ġcompens": 7404,
      "ĠParliament": 7405,
      "adelph": 7406,
      "Ġroot": 7407,
      "Ġgro": 7408,
      "ĠAsh": 7409,
      "Ġestate": 7410,
      "Ġmyth": 7411,
      "ĠJason": 7412,
      "Ġdollar": 7413,
      "lers": 7414,
      "ĠMoscow": 7415,
      "Ġpenalty": 7416,
      "Ġorganized": 7417,
      "Ġprogramming": 7418,
      "imp": 7419,
      "Ġroster": 7420,
      "bal": 7421,
      "Ġconspir": 7422,
      "Ġcapture": 7423,
      "âĢĺ": 7424,
      "Ġcomplaint": 7425,
      "anchester": 7426,
      "ĠPacific": 7427,
      "Ġcomplicated": 7428,
      "Ġtall": 7429,
      "ĠBull": 7430,
      "anny": 7431,
      "Ġgranted": 7432,
      "Ġsatell": 7433,
      "ĠLive": 7434,
      "ifications": 7435,
      "Ġchances": 7436,
      "Ġcounty": 7437,
      "iana": 7438,
      "Ġassistance": 7439,
      "Ġmagic": 7440,
      "Ġ1999": 7441,
      "rypt": 7442,
      "Ġsympt": 7443,
      "âĸ": 7444,
      "Ġaudio": 7445,
      "Ġok": 7446,
      "Ġplastic": 7447,
      "Ġpilot": 7448,
      "Ġbitcoin": 7449,
      "Ġnut": 7450,
      "ĠKent": 7451,
      "ĠNation": 7452,
      "Ġhabit": 7453,
      "ima": 7454,
      "adelphia": 7455,
      "Ġshares": 7456,
      "ĠAS": 7457,
      "ĠHenry": 7458,
      "Ġsuccessfully": 7459,
      "Ġiron": 7460,
      "Ġtherap": 7461,
      "!</": 7462,
      "star": 7463,
      "ĠJudge": 7464,
      "rating": 7465,
      "ĠMid": 7466,
      "ĠESP": 7467,
      "elect": 7468,
      "ML": 7469,
      "ĠSeries": 7470,
      "uan": 7471,
      "Ġtechniques": 7472,
      "Ġlawmakers": 7473,
      "Ġveteran": 7474,
      "ĠFC": 7475,
      "ĠZeal": 7476,
      "gorith": 7477,
      "ĠLGBT": 7478,
      "hent": 7479,
      "actions": 7480,
      "ĠHard": 7481,
      "Ġdegrees": 7482,
      "ez": 7483,
      "Ġanticip": 7484,
      "Ġautomatically": 7485,
      "ĠDoes": 7486,
      "there": 7487,
      "Ġscenes": 7488,
      "rete": 7489,
      "Ġru": 7490,
      "Ġindex": 7491,
      "Ġextract": 7492,
      "Ġpin": 7493,
      "ĠReport": 7494,
      "ĠJac": 7495,
      "Ġengaged": 7496,
      "Ġoperate": 7497,
      "ĠIowa": 7498,
      "ĠSnow": 7499,
      "Ġaimed": 7500,
      "hips": 7501,
      "itals": 7502,
      "itar": 7503,
      "Ġphr": 7504,
      "Ġtaught": 7505,
      "Ġsurvive": 7506,
      "Ġinstalled": 7507,
      "ĠDevelopment": 7508,
      "idency": 7509,
      "ĠNob": 7510,
      "inder": 7511,
      "Ġteaching": 7512,
      "Ġpermanent": 7513,
      "Ġtitles": 7514,
      "Ġblocks": 7515,
      "ĠAlab": 7516,
      "Ġads": 7517,
      "MP": 7518,
      "aron": 7519,
      "Ġmonit": 7520,
      "ĠWisconsin": 7521,
      "ĠFred": 7522,
      "Ġsolve": 7523,
      "ĠNorthern": 7524,
      "chain": 7525,
      "ĠThrough": 7526,
      "Ġattended": 7527,
      "aed": 7528,
      "Ġextrem": 7529,
      "Ġwestern": 7530,
      "ĠViet": 7531,
      "Un": 7532,
      "ĠEastern": 7533,
      "Ġmarked": 7534,
      "LC": 7535,
      "Ġaccomp": 7536,
      "Ġacademic": 7537,
      "da": 7538,
      "Ġhidden": 7539,
      "Ġrating": 7540,
      "))": 7541,
      "Ġvaluable": 7542,
      "Ġvulnerable": 7543,
      "rific": 7544,
      "ye": 7545,
      "Ġcup": 7546,
      "Ġuncertain": 7547,
      "ĠMoh": 7548,
      "Ġtaste": 7549,
      "Photo": 7550,
      "ĠUse": 7551,
      "Ġ44": 7552,
      "Ġworker": 7553,
      "Ġenable": 7554,
      "Ġfake": 7555,
      "Ġlawyers": 7556,
      "Ġbom": 7557,
      "ĠHor": 7558,
      "ĠâĢĻ": 7559,
      "Ġprivile": 7560,
      "Ġdepending": 7561,
      "era": 7562,
      "Ġregardless": 7563,
      "ĠCoast": 7564,
      "ibilities": 7565,
      "Ġdict": 7566,
      "ĠGreek": 7567,
      "ĠOK": 7568,
      "========": 7569,
      "Ġpasses": 7570,
      "ĠKurd": 7571,
      "At": 7572,
      "Ġpace": 7573,
      "Ġchampionship": 7574,
      "Ġcollected": 7575,
      "ĠSH": 7576,
      "lan": 7577,
      "Ġdowntown": 7578,
      "ĠArm": 7579,
      "ĠKir": 7580,
      "Ġcable": 7581,
      "Ġafraid": 7582,
      "Ġinspir": 7583,
      "Ġoverse": 7584,
      "uine": 7585,
      "Ġvisited": 7586,
      "ĠUsing": 7587,
      "Ġwarming": 7588,
      "ĠRand": 7589,
      "Ġreputation": 7590,
      "Ġsufficient": 7591,
      "ĠManchester": 7592,
      "Ġadvis": 7593,
      "ĠPhiladelphia": 7594,
      "Ġrecording": 7595,
      "ĠProfessor": 7596,
      "Ġsurgery": 7597,
      "Ġtracks": 7598,
      "56": 7599,
      "TH": 7600,
      "ĠAvenue": 7601,
      "Ġelite": 7602,
      "ashes": 7603,
      "Ġbes": 7604,
      "Ġenjoyed": 7605,
      "Ġdisaster": 7606,
      "Ġelev": 7607,
      "Ġcrypt": 7608,
      "Ġthin": 7609,
      "Ġcomic": 7610,
      "ĠWithout": 7611,
      "Ġequivalent": 7612,
      "ĠPolicy": 7613,
      "ĠOak": 7614,
      "Ġbusy": 7615,
      "aturally": 7616,
      "Ġracial": 7617,
      "Ġexposure": 7618,
      "Ġapolog": 7619,
      "Ġprinciples": 7620,
      "ĠVideo": 7621,
      "Ġ47": 7622,
      "etary": 7623,
      "%.": 7624,
      "Ġspr": 7625,
      "Ġgenerated": 7626,
      "ãĢ": 7627,
      "Ġphones": 7628,
      "Ġprocesses": 7629,
      "Ġportion": 7630,
      "Ġprominent": 7631,
      "Ġtroub": 7632,
      "ĠList": 7633,
      "Ġnegotiations": 7634,
      "Ġintense": 7635,
      "Ġpersonnel": 7636,
      "Ġduty": 7637,
      "athy": 7638,
      "Ġgrant": 7639,
      "Ġentit": 7640,
      "Ġmainly": 7641,
      "Ġgall": 7642,
      "ĠFund": 7643,
      "month": 7644,
      "Ġ400": 7645,
      "iro": 7646,
      "quarters": 7647,
      "Ġfunny": 7648,
      "Ġdefence": 7649,
      "Ġresulted": 7650,
      "Ġextension": 7651,
      "ĠHT": 7652,
      "ĠHarry": 7653,
      "active": 7654,
      "mann": 7655,
      "prise": 7656,
      "ules": 7657,
      "Ġpounds": 7658,
      "Ġmail": 7659,
      "bro": 7660,
      "ĠMayor": 7661,
      "Ġunusual": 7662,
      "ĠAlabama": 7663,
      "âĢĻ,": 7664,
      "Ġemerged": 7665,
      "fall": 7666,
      "ĠBry": 7667,
      "Ġdescribes": 7668,
      "Ġpatterns": 7669,
      "ĠNavy": 7670,
      "ĠMir": 7671,
      "Ġbrut": 7672,
      "ĠHit": 7673,
      "Ġengineering": 7674,
      "Ġadopted": 7675,
      "Ġtur": 7676,
      "Ġeverywhere": 7677,
      "Ġcompete": 7678,
      "ATE": 7679,
      "ĠPoint": 7680,
      "iler": 7681,
      "Ġfought": 7682,
      "Ġblind": 7683,
      "Ġbrowser": 7684,
      "gun": 7685,
      "Ġdiscipl": 7686,
      "Donald": 7687,
      "upid": 7688,
      "Ġtaxp": 7689,
      "Ġhadn": 7690,
      "icate": 7691,
      "ria": 7692,
      "world": 7693,
      "Ġpossession": 7694,
      "Ġfeelings": 7695,
      "ĠSometimes": 7696,
      "ĠZealand": 7697,
      "Ġmedium": 7698,
      "antic": 7699,
      "front": 7700,
      "Ġcorruption": 7701,
      "Ġexplicit": 7702,
      "ĠRoyal": 7703,
      "Ġpropag": 7704,
      "ĠMusic": 7705,
      "cling": 7706,
      "Ġsanctions": 7707,
      "cles": 7708,
      "Ġstations": 7709,
      "Ġcited": 7710,
      "ĠNC": 7711,
      "ĠPremier": 7712,
      "Ġthick": 7713,
      "Ġenorm": 7714,
      "scape": 7715,
      "Ġcontracts": 7716,
      "aun": 7717,
      "rell": 7718,
      "Ġrarely": 7719,
      "Ġrecru": 7720,
      "rep": 7721,
      "MS": 7722,
      "89": 7723,
      "Ġminority": 7724,
      "Ġinev": 7725,
      "Ġexpectations": 7726,
      "Ġrecip": 7727,
      "herent": 7728,
      "Ġcameras": 7729,
      "Ġshortly": 7730,
      "writ": 7731,
      "viously": 7732,
      "ĠReuters": 7733,
      "86": 7734,
      "orough": 7735,
      "Ġsup": 7736,
      "ĠFair": 7737,
      "ĠRos": 7738,
      "Ex": 7739,
      "idelines": 7740,
      "Ġstrict": 7741,
      "ĠEducation": 7742,
      "istent": 7743,
      "Ġsharp": 7744,
      "ifies": 7745,
      "Ġho": 7746,
      "Ġtor": 7747,
      "Ġthousand": 7748,
      "ĠSir": 7749,
      "Ġfinance": 7750,
      "Ġfirms": 7751,
      "Ġscenario": 7752,
      "mal": 7753,
      "ĠSeveral": 7754,
      "ĠAmendment": 7755,
      "Ġimplementation": 7756,
      "Ġpermission": 7757,
      "ikes": 7758,
      "ĠGiven": 7759,
      "Ġvisible": 7760,
      "ĠScient": 7761,
      "Ġ41": 7762,
      "Ġmel": 7763,
      "HS": 7764,
      "ĠNic": 7765,
      "Ġ150": 7766,
      "Ġlights": 7767,
      "text": 7768,
      "inking": 7769,
      "ĠHay": 7770,
      "Ġparticipate": 7771,
      "ĠAtlanta": 7772,
      "54": 7773,
      "Oh": 7774,
      "Ġadvertising": 7775,
      "ĠPack": 7776,
      "ilton": 7777,
      "Ġpriority": 7778,
      "Ġloud": 7779,
      "making": 7780,
      "Ġju": 7781,
      "Ġwing": 7782,
      "igg": 7783,
      "Ġplug": 7784,
      "ĠIndepend": 7785,
      "Ġacceler": 7786,
      "ĠCre": 7787,
      "ĠStat": 7788,
      "ĠWH": 7789,
      "eland": 7790,
      "ĠExt": 7791,
      "Ġphotograph": 7792,
      "ĠLittle": 7793,
      "Ġlosses": 7794,
      "obs": 7795,
      "azz": 7796,
      "Ġven": 7797,
      "Ġbridge": 7798,
      "olt": 7799,
      "Ġaffili": 7800,
      "ĠPen": 7801,
      "ni": 7802,
      "ogen": 7803,
      "Ġhistoric": 7804,
      "ĠEs": 7805,
      "Ġcreates": 7806,
      "Ġshock": 7807,
      "Ġlaid": 7808,
      "ĠLind": 7809,
      "ĠRose": 7810,
      "Ġstrikes": 7811,
      "ĠSat": 7812,
      "Ġdozens": 7813,
      "pread": 7814,
      "Ġveget": 7815,
      "Ġtag": 7816,
      "Ġ43": 7817,
      "Ġcomputers": 7818,
      "ogether": 7819,
      "Ġairport": 7820,
      "osexual": 7821,
      "Ġyield": 7822,
      "Ġobst": 7823,
      "EA": 7824,
      "Ġinterface": 7825,
      "Ġfounded": 7826,
      "athered": 7827,
      "log": 7828,
      "52": 7829,
      "ĠSeason": 7830,
      "Ġclubs": 7831,
      "Ġcounsel": 7832,
      "aska": 7833,
      "Ġbehalf": 7834,
      "ĠTurkish": 7835,
      "ĠLuc": 7836,
      "Ġagric": 7837,
      "Ġscoring": 7838,
      "Ġstab": 7839,
      "asion": 7840,
      "Ġwonderful": 7841,
      "Ġformal": 7842,
      "Ġalgorith": 7843,
      "Ġstun": 7844,
      "Ġwww": 7845,
      "Ġgained": 7846,
      "izon": 7847,
      "arsh": 7848,
      "xic": 7849,
      "wr": 7850,
      "Ġepisodes": 7851,
      "ĠHead": 7852,
      "Ġprinciple": 7853,
      "ĠRadio": 7854,
      "Ġfee": 7855,
      "Ġfault": 7856,
      "Ġbasketball": 7857,
      "core": 7858,
      "Ġtoler": 7859,
      ":</": 7860,
      "ĠMarket": 7861,
      "ĠRus": 7862,
      "found": 7863,
      "Ġcomponent": 7864,
      "ĠMatthew": 7865,
      "Ġgenuine": 7866,
      "Ġmanufacturing": 7867,
      "Ġpump": 7868,
      "ĠKingdom": 7869,
      "cr": 7870,
      "Ġuncom": 7871,
      "ĠField": 7872,
      "ĠMcCain": 7873,
      "Ġestablishment": 7874,
      "UL": 7875,
      "Ġridic": 7876,
      "ĠAdministration": 7877,
      "Ġcyber": 7878,
      "weet": 7879,
      "ĠCO": 7880,
      "ĠHell": 7881,
      "profit": 7882,
      "Ġrelief": 7883,
      "Ġgift": 7884,
      "ounced": 7885,
      "Ġmagn": 7886,
      "orne": 7887,
      "Ġphilosophy": 7888,
      "Ġhole": 7889,
      "Ġuniform": 7890,
      "enth": 7891,
      "Ġsaved": 7892,
      "Ġstable": 7893,
      "ded": 7894,
      "ĠInformation": 7895,
      "umer": 7896,
      "ĠLy": 7897,
      "etime": 7898,
      "ĠFed": 7899,
      "auc": 7900,
      "aus": 7901,
      "Ġ1960": 7902,
      "ĠESPN": 7903,
      "imore": 7904,
      "olis": 7905,
      "Ġdrawing": 7906,
      "lete": 7907,
      "Ġexception": 7908,
      "ĠGov": 7909,
      "Ġjournalist": 7910,
      "Ġstadium": 7911,
      "mate": 7912,
      "Ġfoundation": 7913,
      "ilipp": 7914,
      "ĠWhether": 7915,
      "Ġwheel": 7916,
      "ĠRelated": 7917,
      "rators": 7918,
      "Ġ1998": 7919,
      "rative": 7920,
      "Ġspark": 7921,
      "who": 7922,
      "ĠBernie": 7923,
      "she": 7924,
      "Ġheaded": 7925,
      "ĠRen": 7926,
      "Ġ->": 7927,
      "ĠVR": 7928,
      "Ġstruggling": 7929,
      "bell": 7930,
      "this": 7931,
      "Ġedition": 7932,
      "Ġrecognized": 7933,
      "Ġindicate": 7934,
      "ĠABC": 7935,
      "Ġfootage": 7936,
      "Ġbanned": 7937,
      "Ġcannabis": 7938,
      "53": 7939,
      "Ġcrop": 7940,
      "ĠPatrick": 7941,
      "ĠConference": 7942,
      "Ġdoors": 7943,
      "Ġlegend": 7944,
      "Ġrely": 7945,
      "Ġprofession": 7946,
      "ĠDiego": 7947,
      "Ġ46": 7948,
      "Ġroles": 7949,
      "ĠLink": 7950,
      "iel": 7951,
      "Ġsynt": 7952,
      "Ġbeliefs": 7953,
      "ĠIce": 7954,
      "Ġplate": 7955,
      "uer": 7956,
      "amber": 7957,
      "ĠAND": 7958,
      "idespread": 7959,
      "portion": 7960,
      "Ġneutral": 7961,
      "ĠUFC": 7962,
      "Ġcontaining": 7963,
      "Ġbacked": 7964,
      "Ġwithdraw": 7965,
      "eman": 7966,
      "Ġdinner": 7967,
      "Ġliked": 7968,
      "ĠCirc": 7969,
      "igen": 7970,
      "ĠAcademy": 7971,
      "Ġships": 7972,
      "Ġneighb": 7973,
      "abs": 7974,
      "ja": 7975,
      "Ġcha": 7976,
      "iy": 7977,
      "oured": 7978,
      "Ġentering": 7979,
      "ĠJay": 7980,
      "Ġhang": 7981,
      "ĠAnthony": 7982,
      "Ġproducer": 7983,
      "ĠKat": 7984,
      "ĠNAT": 7985,
      "Ġriver": 7986,
      "Ġachieved": 7987,
      "::": 7988,
      "oen": 7989,
      "Ġdeliber": 7990,
      "Ġflaw": 7991,
      "ystem": 7992,
      "Ġgonna": 7993,
      "Ġmovements": 7994,
      "teen": 7995,
      "Ġtackle": 7996,
      "ulating": 7997,
      "esy": 7998,
      "ĠSS": 7999,
      "ĠCentre": 8000,
      "Ġreduction": 8001,
      "Ġhired": 8002,
      "ĠOnt": 8003,
      "Ġwalls": 8004,
      "Ġfarmers": 8005,
      "51": 8006,
      "ĠEmail": 8007,
      "++": 8008,
      "ĠSet": 8009,
      "Be": 8010,
      "ĠFormer": 8011,
      "Ġfinger": 8012,
      "Ġarrange": 8013,
      "Ġdestruction": 8014,
      "burgh": 8015,
      "ĠKansas": 8016,
      "ĠCurrent": 8017,
      "etts": 8018,
      "rous": 8019,
      "Ġinterviews": 8020,
      "Ġnominee": 8021,
      "Ġbath": 8022,
      "ĠCommunity": 8023,
      "Ġbarely": 8024,
      "sylv": 8025,
      "ĠTenn": 8026,
      "Ġlanguages": 8027,
      "BO": 8028,
      "ĠON": 8029,
      "Ġdiscrimination": 8030,
      "ĠMah": 8031,
      "________________": 8032,
      "Ġaver": 8033,
      "Ġ2019": 8034,
      "ĠBattle": 8035,
      "One": 8036,
      "Ġstructures": 8037,
      "ca": 8038,
      "Ġproven": 8039,
      "erved": 8040,
      "Ġforever": 8041,
      "Ġincent": 8042,
      "ĠChristians": 8043,
      "ĠTri": 8044,
      "aching": 8045,
      "interest": 8046,
      "400": 8047,
      "ĠDivision": 8048,
      "Ġdelivery": 8049,
      "CS": 8050,
      "Ġconvin": 8051,
      "ĠPot": 8052,
      "Ġcontained": 8053,
      "Ġprocessing": 8054,
      "ĠCook": 8055,
      "ked": 8056,
      "ĠMedical": 8057,
      "Ġchallenging": 8058,
      "ĠEarlier": 8059,
      "away": 8060,
      "97": 8061,
      "Ġupset": 8062,
      "riers": 8063,
      "ĠHaving": 8064,
      "Ġren": 8065,
      "Ġunex": 8066,
      "Ġconvicted": 8067,
      "ĠCameron": 8068,
      "Ġocean": 8069,
      "ĠCore": 8070,
      "ĠWalker": 8071,
      "Ġproducing": 8072,
      "Ġtechnique": 8073,
      "Ġrose": 8074,
      "olen": 8075,
      "ĠAp": 8076,
      "ĠConservative": 8077,
      "ĠPennsylv": 8078,
      "Man": 8079,
      "ami": 8080,
      "ĠBrew": 8081,
      "usive": 8082,
      "Ġrestrictions": 8083,
      "Ġhitting": 8084,
      "Ġborrow": 8085,
      "Ġintellectual": 8086,
      "ĠAllen": 8087,
      "uce": 8088,
      "Ġretired": 8089,
      "Ġdescription": 8090,
      "ĠAnton": 8091,
      "Ġillness": 8092,
      "Ġutil": 8093,
      "ĠCost": 8094,
      "abinet": 8095,
      "Getty": 8096,
      "ĠPop": 8097,
      "Ġham": 8098,
      "Ġasks": 8099,
      "%,": 8100,
      "sa": 8101,
      "ĠPerson": 8102,
      "ĠAle": 8103,
      "Ġindicated": 8104,
      "Ġhide": 8105,
      "Ġelectronic": 8106,
      "RS": 8107,
      "Ġsmooth": 8108,
      "Ġrapidly": 8109,
      "amsung": 8110,
      "yard": 8111,
      "Ġcorporations": 8112,
      "Ġreviews": 8113,
      "Ġsuggesting": 8114,
      "Ġflash": 8115,
      "ĠNOT": 8116,
      "ĠFamily": 8117,
      "Ġbra": 8118,
      "Ġnotion": 8119,
      "ĠBall": 8120,
      "Ġbegun": 8121,
      "Ġexclusive": 8122,
      "ĠTown": 8123,
      "ĠRa": 8124,
      "ferences": 8125,
      "Ġbranch": 8126,
      "ologists": 8127,
      "Ġexternal": 8128,
      "Ġnormally": 8129,
      "Ġrecognition": 8130,
      "Ġwidespread": 8131,
      "Ġperpet": 8132,
      "ĠJun": 8133,
      "Ġequally": 8134,
      "ĠSpring": 8135,
      "Ġloyal": 8136,
      "EE": 8137,
      "engers": 8138,
      "Ġ00": 8139,
      "iti": 8140,
      "lessly": 8141,
      "ĠBeach": 8142,
      "ĠHD": 8143,
      "Ġshit": 8144,
      "Ġtickets": 8145,
      "ĠAlbert": 8146,
      "87": 8147,
      "Ġlistening": 8148,
      "ouver": 8149,
      "ho": 8150,
      "ĠGetty": 8151,
      "Ġreaching": 8152,
      "Ġcontribute": 8153,
      "Ġwebsites": 8154,
      "onc": 8155,
      "udes": 8156,
      "Ġfriendly": 8157,
      "ĠPennsylvania": 8158,
      "page": 8159,
      "Ġinvent": 8160,
      "Ġgrass": 8161,
      "ĠAction": 8162,
      "uma": 8163,
      "ione": 8164,
      "cription": 8165,
      "imm": 8166,
      "ĠEnvironment": 8167,
      "Ġrobot": 8168,
      "Ġrepresentative": 8169,
      "ĠAustin": 8170,
      "then": 8171,
      "Ġcollapse": 8172,
      "Ġsettlement": 8173,
      "Ġmo": 8174,
      "achus": 8175,
      "allel": 8176,
      "Ġprogressive": 8177,
      "Ġscream": 8178,
      "gener": 8179,
      "ĠWas": 8180,
      "enny": 8181,
      "Ġhardly": 8182,
      "ĠCBS": 8183,
      "ĠArabia": 8184,
      "Ġcampaigns": 8185,
      "rik": 8186,
      "usted": 8187,
      "ĠLatin": 8188,
      "Ġterrorists": 8189,
      "Ġarray": 8190,
      "arrass": 8191,
      "ĠNSA": 8192,
      "ĠStone": 8193,
      "Ġprepare": 8194,
      "Ġpractical": 8195,
      "Ġviewers": 8196,
      "rical": 8197,
      "sels": 8198,
      "Ġcarefully": 8199,
      "Ġwelf": 8200,
      "Ġfrag": 8201,
      "Ġbail": 8202,
      "Ġsmoke": 8203,
      "veland": 8204,
      "ĠSquare": 8205,
      "Ġreducing": 8206,
      "Ġexceed": 8207,
      "ĠPass": 8208,
      "appy": 8209,
      "elf": 8210,
      "Ġunclear": 8211,
      "Ġethnic": 8212,
      "ĠSanta": 8213,
      "96": 8214,
      "Ġhook": 8215,
      "Ġ~": 8216,
      "Ġoverwhelming": 8217,
      "Ġsensitive": 8218,
      "tering": 8219,
      "ĠLater": 8220,
      "Ġtail": 8221,
      "ĠBrother": 8222,
      "AG": 8223,
      "Ġinitiative": 8224,
      "Ġminds": 8225,
      "Ġrespectively": 8226,
      "Ġwelfare": 8227,
      "thon": 8228,
      "owing": 8229,
      "ĠRoss": 8230,
      "wo": 8231,
      "Ġracist": 8232,
      "ĠRoy": 8233,
      "Ġ?": 8234,
      "lad": 8235,
      "nedy": 8236,
      "isp": 8237,
      "ĠAnderson": 8238,
      "Ġrecover": 8239,
      "Ġassociation": 8240,
      "Ġdeputy": 8241,
      "PG": 8242,
      "Ġinvolvement": 8243,
      "ĠBaltimore": 8244,
      "Ġmilk": 8245,
      "Ġthrown": 8246,
      "ancouver": 8247,
      "ĠPhilipp": 8248,
      "igrant": 8249,
      "Ġlists": 8250,
      "ĠGolden": 8251,
      "Ġfiscal": 8252,
      "rolled": 8253,
      "ĠHo": 8254,
      "Ġconvinced": 8255,
      "Ġfeaturing": 8256,
      "een": 8257,
      "ĠMinistry": 8258,
      "ĠKeep": 8259,
      "umes": 8260,
      "Ġdevast": 8261,
      "Ġconnections": 8262,
      "Ġvital": 8263,
      "uties": 8264,
      "ifest": 8265,
      "Ġvary": 8266,
      "ĠSony": 8267,
      "Ġelig": 8268,
      "ĠConnect": 8269,
      "Pe": 8270,
      "fr": 8271,
      "ĠAud": 8272,
      "bn": 8273,
      "anna": 8274,
      "ĠXbox": 8275,
      "85": 8276,
      "jo": 8277,
      "ĠGun": 8278,
      "ĠPent": 8279,
      "ecut": 8280,
      "ĠSamsung": 8281,
      "ĠQueen": 8282,
      "Ġframework": 8283,
      "ĠMuseum": 8284,
      "heast": 8285,
      "bec": 8286,
      "ĠBad": 8287,
      "Ġstatistics": 8288,
      "ĠGreece": 8289,
      "ĠUpdate": 8290,
      "rator": 8291,
      "ĠMORE": 8292,
      "Ġdeeper": 8293,
      "ĠWW": 8294,
      "Ġinvited": 8295,
      "ĠIII": 8296,
      "Ġfantasy": 8297,
      "ĠLim": 8298,
      "ĠBon": 8299,
      "Ġcos": 8300,
      "Ġbehaviour": 8301,
      "Ġimprovements": 8302,
      "Ġmenu": 8303,
      "dem": 8304,
      "Ġinvestigate": 8305,
      "Ġwine": 8306,
      "Ġdefine": 8307,
      "ĠLiver": 8308,
      "Ġstrategic": 8309,
      "Ġ1996": 8310,
      "Ġsugar": 8311,
      "Ġluck": 8312,
      "Ġunemployment": 8313,
      "Ġanybody": 8314,
      "Ġjoining": 8315,
      "Ġremem": 8316,
      "PM": 8317,
      "Ġcomplaints": 8318,
      "Ġconstitutional": 8319,
      "achusetts": 8320,
      "ĠSix": 8321,
      "Ġscreens": 8322,
      "iversary": 8323,
      "Ġwars": 8324,
      "ĠBudd": 8325,
      "Ġscores": 8326,
      "Ġindependence": 8327,
      "ĠTro": 8328,
      "Ġanger": 8329,
      "ĠYeah": 8330,
      "Ġjury": 8331,
      "worth": 8332,
      "Ġnoise": 8333,
      "Ġroads": 8334,
      "Ġsubjects": 8335,
      "pload": 8336,
      "ĠProv": 8337,
      "Ġscholars": 8338,
      "Ġraw": 8339,
      "EST": 8340,
      "ĠSus": 8341,
      "ĠBroad": 8342,
      "Ġtouchdown": 8343,
      "ouch": 8344,
      "Ġfiction": 8345,
      "ĠChair": 8346,
      "Ġownership": 8347,
      "Ġcitizen": 8348,
      "Ġfailing": 8349,
      "ĠForm": 8350,
      "Ġgear": 8351,
      "Ġtrained": 8352,
      "senal": 8353,
      "ĠPlus": 8354,
      "ĠExper": 8355,
      "Ġdiscovery": 8356,
      "ihad": 8357,
      "osit": 8358,
      "Ġlobby": 8359,
      "RC": 8360,
      "Ġalien": 8361,
      "oding": 8362,
      "from": 8363,
      "Ġgathered": 8364,
      "Ġcontroversy": 8365,
      "Ġfears": 8366,
      "inois": 8367,
      "Ġcomprehens": 8368,
      "Ġinject": 8369,
      "Ġimplemented": 8370,
      "Ġwages": 8371,
      "ĠDeath": 8372,
      "ĠPo": 8373,
      "Ġregister": 8374,
      "ĠHoward": 8375,
      "Ġscandal": 8376,
      "Ġlicens": 8377,
      "ĠiP": 8378,
      "ĠDave": 8379,
      "icking": 8380,
      "With": 8381,
      "ĠLewis": 8382,
      "Ġfab": 8383,
      "ĠKennedy": 8384,
      "ĠMain": 8385,
      "Ġserves": 8386,
      "ĠControl": 8387,
      "Ġcaptain": 8388,
      "Ġcollective": 8389,
      "Ġdemocratic": 8390,
      "Ġovert": 8391,
      "Ġtip": 8392,
      "mad": 8393,
      "Ġultimate": 8394,
      "Ġincorpor": 8395,
      "Ġdisagree": 8396,
      "ĠIranian": 8397,
      "Ġneighbour": 8398,
      "Ġsoph": 8399,
      "Ġstupid": 8400,
      "Ġpeak": 8401,
      "Ġtransgender": 8402,
      "Ġ52": 8403,
      "ĠAst": 8404,
      "ĠVegas": 8405,
      "Ġprosec": 8406,
      "icket": 8407,
      "Ġtemporary": 8408,
      "Ġreferring": 8409,
      "Ġversus": 8410,
      "Ġ1997": 8411,
      "Ġhandful": 8412,
      "ĠHarris": 8413,
      "ĠMassachusetts": 8414,
      "ĠVancouver": 8415,
      "ĠGuardian": 8416,
      "ref": 8417,
      "Ġawareness": 8418,
      "Ġrecommended": 8419,
      "Ġlegs": 8420,
      "ĠPitt": 8421,
      "Ġsymptoms": 8422,
      "Ġtasks": 8423,
      "ĠColumbia": 8424,
      "ĠEngine": 8425,
      "Ġcasual": 8426,
      "Ġplatforms": 8427,
      "Ġrural": 8428,
      "mary": 8429,
      "ĠFreedom": 8430,
      "Ġreprodu": 8431,
      "Ġremarks": 8432,
      "Ġtestim": 8433,
      "Ġreven": 8434,
      "74": 8435,
      "Ġdynamic": 8436,
      "Ġsin": 8437,
      "Ġattempting": 8438,
      "angel": 8439,
      "Ġaccus": 8440,
      "Ġheading": 8441,
      "Ġattacking": 8442,
      "\")": 8443,
      "Ġdiscussions": 8444,
      "cific": 8445,
      "Ġtone": 8446,
      "aret": 8447,
      "Ġvisitors": 8448,
      "Ġsuffer": 8449,
      "ĠExpl": 8450,
      "Ġregulation": 8451,
      "Every": 8452,
      "Ġlayer": 8453,
      "Ġspaces": 8454,
      "hour": 8455,
      "aning": 8456,
      "ĠLow": 8457,
      "Ġsamples": 8458,
      "ĠBa": 8459,
      "Ġingred": 8460,
      "ĠGaza": 8461,
      "stract": 8462,
      "yer": 8463,
      "Ġestimate": 8464,
      "Ġlogic": 8465,
      "Ġpoly": 8466,
      "Ġcivilians": 8467,
      "Ġexpanded": 8468,
      "RI": 8469,
      "PC": 8470,
      "ĠCopy": 8471,
      "ĠPrice": 8472,
      "ĠLA": 8473,
      "acon": 8474,
      "à¤": 8475,
      "Ġpublication": 8476,
      "Ġignore": 8477,
      "ĠâĤ¬": 8478,
      "ĠCleveland": 8479,
      "ĠOtt": 8480,
      "ĠAPI": 8481,
      "ĠAdv": 8482,
      "phones": 8483,
      "Ġextend": 8484,
      "Ġtheat": 8485,
      "uros": 8486,
      "Ġgenetic": 8487,
      "Ġliquid": 8488,
      "Ġattached": 8489,
      "Ġsettings": 8490,
      "ĠiOS": 8491,
      "Ġhypot": 8492,
      "arry": 8493,
      "Ġneck": 8494,
      "aka": 8495,
      "Ġeastern": 8496,
      "Ġdispl": 8497,
      "Ġbrill": 8498,
      "itionally": 8499,
      "Ġsorry": 8500,
      "Ġpurchased": 8501,
      "Ġgrounds": 8502,
      "ĠRevolution": 8503,
      "Ġenormous": 8504,
      "76": 8505,
      "including": 8506,
      "bi": 8507,
      "ĠDesign": 8508,
      "UN": 8509,
      "Ġaffairs": 8510,
      "ictions": 8511,
      "ĠHop": 8512,
      "Ġentertainment": 8513,
      "esh": 8514,
      "Ġadmit": 8515,
      "ĠBang": 8516,
      "Ġfactory": 8517,
      "Ġholiday": 8518,
      "Ġsuspected": 8519,
      "Ġtweeted": 8520,
      "ĠLas": 8521,
      "pat": 8522,
      "ĠJam": 8523,
      "Ġranked": 8524,
      "Ġresource": 8525,
      "Ġrecall": 8526,
      "Ġhorse": 8527,
      "agg": 8528,
      "Im": 8529,
      "Ġbrothers": 8530,
      "Ġactors": 8531,
      "Ġstake": 8532,
      "'.": 8533,
      "Ġ_": 8534,
      "Ġintervention": 8535,
      "Ġlegitimate": 8536,
      "Ġviewed": 8537,
      "ĠHon": 8538,
      "ĠStadium": 8539,
      "Ġimprovement": 8540,
      "Ġrational": 8541,
      "ĠLyn": 8542,
      "intendo": 8543,
      "ĠAge": 8544,
      "ĠIllinois": 8545,
      "Ġraces": 8546,
      "raph": 8547,
      "cience": 8548,
      "Ġactivist": 8549,
      "lah": 8550,
      "Ġcro": 8551,
      "ĠMill": 8552,
      "ĠUC": 8553,
      "ĠNorm": 8554,
      "Ġouts": 8555,
      "Ġinvolves": 8556,
      "ultural": 8557,
      "Ġseemingly": 8558,
      "repre": 8559,
      "Ġpresum": 8560,
      "case": 8561,
      "ĠâĢĿ": 8562,
      "ommod": 8563,
      "Ġopinions": 8564,
      "Ġcoaches": 8565,
      "Ġhumanity": 8566,
      "Ġinvestigating": 8567,
      "Ġdramatic": 8568,
      "ĠProp": 8569,
      "aying": 8570,
      "Ġembarrass": 8571,
      "Ġfallen": 8572,
      "iry": 8573,
      "Ġrook": 8574,
      "ĠChel": 8575,
      "Ġsubstantial": 8576,
      "oval": 8577,
      "Ġinvestigators": 8578,
      "ĠFall": 8579,
      "Ġdiversity": 8580,
      "Ġsalary": 8581,
      "ĠSure": 8582,
      "arms": 8583,
      "Ġabsence": 8584,
      "otype": 8585,
      "Ġboat": 8586,
      "Ġcovers": 8587,
      "Ġreferend": 8588,
      "Ġforest": 8589,
      "Ġtomorrow": 8590,
      "ĠIntelligence": 8591,
      "EG": 8592,
      "Ġgam": 8593,
      "Ġfulf": 8594,
      "geon": 8595,
      "Ġje": 8596,
      "Ġoffices": 8597,
      "ĠBelow": 8598,
      "Ġloans": 8599,
      "ĠHospital": 8600,
      "Ġsuspended": 8601,
      "ĠBuff": 8602,
      "Ġadvocates": 8603,
      "Ġmedicine": 8604,
      "Ġstayed": 8605,
      "Ġconspiracy": 8606,
      "Ġproviders": 8607,
      "Ġmad": 8608,
      "Ġmonitor": 8609,
      "iability": 8610,
      "reprene": 8611,
      "Ġceleb": 8612,
      "ĠIraqi": 8613,
      "Ġkm": 8614,
      "Ġcogn": 8615,
      "Ġchapter": 8616,
      "Ġjur": 8617,
      "Ġresign": 8618,
      "Ġpapers": 8619,
      "ĠLine": 8620,
      "Ġovers": 8621,
      "dri": 8622,
      "FF": 8623,
      "Ġbars": 8624,
      "Ġ51": 8625,
      "xit": 8626,
      "ective": 8627,
      "inch": 8628,
      ".-": 8629,
      "Script": 8630,
      "Ġbureau": 8631,
      "Ġamid": 8632,
      "ĠMarvel": 8633,
      "Ġcareful": 8634,
      "ĠCredit": 8635,
      "ĠJustin": 8636,
      "Ġporn": 8637,
      "Ġfoss": 8638,
      "wered": 8639,
      "ĠShort": 8640,
      "ĠPrince": 8641,
      "dy": 8642,
      "Ġauthent": 8643,
      "Ġpreced": 8644,
      "Ġtransportation": 8645,
      "72": 8646,
      "Ġdisrupt": 8647,
      "Ġconsistently": 8648,
      "âĢĶâĢĶâĢĶâĢĶ": 8649,
      "Ġshr": 8650,
      "cover": 8651,
      "Ġdepends": 8652,
      "Ġthrowing": 8653,
      "ĠHa": 8654,
      "claim": 8655,
      "Ð»": 8656,
      "Ġcoc": 8657,
      "Ġaddressed": 8658,
      "ĠUnlike": 8659,
      "Ġpersonality": 8660,
      "ammed": 8661,
      "rets": 8662,
      "Ġcolors": 8663,
      "ĠPhotos": 8664,
      "Ġmining": 8665,
      "ĠFootball": 8666,
      "ĠCode": 8667,
      "ÂĴ": 8668,
      "ipal": 8669,
      "Ġmissile": 8670,
      "Ġnerv": 8671,
      "uction": 8672,
      "Ġhanded": 8673,
      "vard": 8674,
      "Ġattitude": 8675,
      "ĠEvent": 8676,
      "Ġreads": 8677,
      "Ġinflation": 8678,
      "WS": 8679,
      "ĠFix": 8680,
      "Ġpetition": 8681,
      "Ġclothes": 8682,
      "Ġmountain": 8683,
      "Ġsurf": 8684,
      "ĠNATO": 8685,
      "Ġvirtually": 8686,
      "type": 8687,
      "Ġnoting": 8688,
      "ĠTour": 8689,
      "ĠCommon": 8690,
      "Not": 8691,
      "Ġfruit": 8692,
      "Ġchat": 8693,
      "Ġsteel": 8694,
      "ĠFive": 8695,
      "ĠCapt": 8696,
      "ĠMoon": 8697,
      "Ġconversations": 8698,
      "inf": 8699,
      "Ġmos": 8700,
      "ĠMaster": 8701,
      "Ġwarrant": 8702,
      "Ġspeaks": 8703,
      "iences": 8704,
      "Ġconce": 8705,
      "Ġconsole": 8706,
      "!)": 8707,
      "ĠCreat": 8708,
      "Ġlowest": 8709,
      "ĠMexican": 8710,
      "Ġprofits": 8711,
      "ĠUr": 8712,
      "ila": 8713,
      "umin": 8714,
      "Ġgains": 8715,
      "Ġshoulder": 8716,
      "Ġmic": 8717,
      "rance": 8718,
      "Ġguest": 8719,
      "ĠLiverpool": 8720,
      "Ġfantastic": 8721,
      "des": 8722,
      "Ġclosing": 8723,
      "Ġtries": 8724,
      "Ġhorror": 8725,
      "keep": 8726,
      "hot": 8727,
      "maker": 8728,
      "plete": 8729,
      "serv": 8730,
      "Ġreader": 8731,
      "Ġastron": 8732,
      "ĠPatri": 8733,
      "Ġspiritual": 8734,
      "flix": 8735,
      "Ġappreciate": 8736,
      "ĠTen": 8737,
      "ivals": 8738,
      "Ġwrest": 8739,
      "Ġcontributions": 8740,
      "plate": 8741,
      "Ġincidents": 8742,
      "Ġaccommod": 8743,
      "ĠAbb": 8744,
      "Ġstone": 8745,
      "ĠMarsh": 8746,
      "ĠNon": 8747,
      "Ġhandling": 8748,
      "ĠUnt": 8749,
      "Ġprotocol": 8750,
      "Ġtea": 8751,
      "Ġguarantee": 8752,
      "zed": 8753,
      "Ġmarks": 8754,
      "eding": 8755,
      "Ġdepression": 8756,
      "Ġvoter": 8757,
      "ropri": 8758,
      "Ġhint": 8759,
      "ĠMrs": 8760,
      "\".[": 8761,
      "Ġdrew": 8762,
      "Ġ1995": 8763,
      "scale": 8764,
      "Ġphotograp": 8765,
      "Ġballot": 8766,
      "Ġsubsequent": 8767,
      "Ġmaps": 8768,
      "Ġdance": 8769,
      "uits": 8770,
      "ĠAlexander": 8771,
      "amac": 8772,
      "ĠDeb": 8773,
      "Ġrhet": 8774,
      "unicip": 8775,
      "Ġencouraged": 8776,
      "ĠIndiana": 8777,
      "Ġinner": 8778,
      "Ġlucky": 8779,
      "Ġranks": 8780,
      "Ġswing": 8781,
      "ordon": 8782,
      "Ġspoken": 8783,
      "ĠHind": 8784,
      "aval": 8785,
      "Ġtrem": 8786,
      "Ġpromises": 8787,
      "unes": 8788,
      "Ġbacter": 8789,
      "Ġcovering": 8790,
      "ĠFront": 8791,
      "Ġlands": 8792,
      "ĠFinal": 8793,
      "uted": 8794,
      "Ġdivided": 8795,
      "ĠDenver": 8796,
      "ĠNintendo": 8797,
      "Ġbuff": 8798,
      "Ġgrav": 8799,
      "Ġinnovation": 8800,
      "Ġjudges": 8801,
      "ĠSarah": 8802,
      "Ġinsist": 8803,
      "Ġshout": 8804,
      "Ġbrown": 8805,
      "Ġpremium": 8806,
      "ported": 8807,
      "itage": 8808,
      "rient": 8809,
      "ĠCorpor": 8810,
      "ĠTechnology": 8811,
      "Ġchecks": 8812,
      "ĠPortland": 8813,
      "ĠTes": 8814,
      "ounce": 8815,
      "ĠEqu": 8816,
      "Ġimproving": 8817,
      "Ġmusical": 8818,
      "Ġportray": 8819,
      "Ġextraord": 8820,
      "ĠEag": 8821,
      "Ġthrew": 8822,
      "ĠTrib": 8823,
      "Ġrevel": 8824,
      "ĠAssociated": 8825,
      "Ġefficiency": 8826,
      "Ġdrama": 8827,
      "rec": 8828,
      "Ġsilver": 8829,
      "Ġdistributed": 8830,
      "Ġreplacement": 8831,
      "Ġmistakes": 8832,
      "itter": 8833,
      "annels": 8834,
      "sl": 8835,
      "abeth": 8836,
      "pa": 8837,
      "Ġlocked": 8838,
      "Ġtemperatures": 8839,
      "Ġacknowledged": 8840,
      "Ġspokesperson": 8841,
      "ĠDO": 8842,
      "ĠTed": 8843,
      "Ġcust": 8844,
      "pled": 8845,
      "####": 8846,
      "ĠRather": 8847,
      "ĠCooper": 8848,
      "Ġrom": 8849,
      "Ġjoke": 8850,
      "Ġresponses": 8851,
      "79": 8852,
      "ĠAk": 8853,
      "ĠLeft": 8854,
      "ĠRoberts": 8855,
      "Ġlying": 8856,
      "argo": 8857,
      "ington": 8858,
      "Ġcomedy": 8859,
      "Ġdump": 8860,
      "Ġprotecting": 8861,
      "ĠOntario": 8862,
      "Ġsoil": 8863,
      "Ġyellow": 8864,
      "yo": 8865,
      "Ġbreaks": 8866,
      "Ġgal": 8867,
      "ĠJonathan": 8868,
      "ĠBase": 8869,
      "aping": 8870,
      "Ġliterature": 8871,
      "ĠDream": 8872,
      "Ġlegacy": 8873,
      "Ġreferendum": 8874,
      "Ġinstrument": 8875,
      "Ġbarrel": 8876,
      "These": 8877,
      "Ġlets": 8878,
      "Ġhomeless": 8879,
      "ĠUtah": 8880,
      "ĠKong": 8881,
      "amacare": 8882,
      "ieties": 8883,
      "xx": 8884,
      "ĠSweden": 8885,
      "ĠBra": 8886,
      "Ġabandoned": 8887,
      "Ġjoy": 8888,
      "backs": 8889,
      "AY": 8890,
      "ĠLear": 8891,
      "ĠCro": 8892,
      "Ġvirus": 8893,
      "heim": 8894,
      "ijing": 8895,
      "Ġscan": 8896,
      "Ġpassengers": 8897,
      "PP": 8898,
      "erted": 8899,
      "Ġ(âĢľ": 8900,
      "Ġmoon": 8901,
      "Ġordinary": 8902,
      "ogs": 8903,
      "pie": 8904,
      "Ġfestival": 8905,
      "inction": 8906,
      "itary": 8907,
      "Ġblast": 8908,
      "Ġcommonly": 8909,
      "ĠLiberal": 8910,
      "Ġdemonstrated": 8911,
      "hesis": 8912,
      "Ġcopies": 8913,
      "Ġtwenty": 8914,
      "Ġignored": 8915,
      "Ġexit": 8916,
      "Ġdiverse": 8917,
      "ĠMach": 8918,
      "ĠEmpire": 8919,
      "ĠGirl": 8920,
      "ĠAI": 8921,
      "Ġstolen": 8922,
      "Ġ1994": 8923,
      "ĠEff": 8924,
      "oded": 8925,
      "assador": 8926,
      "Ġnomination": 8927,
      "Ġassert": 8928,
      "ira": 8929,
      "ĠAtlantic": 8930,
      "ĠWarren": 8931,
      "Ġmidfield": 8932,
      "Ġgrid": 8933,
      "Ġfalls": 8934,
      "Ġtape": 8935,
      "Ġrif": 8936,
      "Well": 8937,
      "Ġfunded": 8938,
      "ĠNone": 8939,
      "ĠEver": 8940,
      "Ġnaturally": 8941,
      "Ġscope": 8942,
      "Ġhelpful": 8943,
      "Ġacquired": 8944,
      "800": 8945,
      "ĠRuby": 8946,
      "Ġrear": 8947,
      "Ġcompe": 8948,
      "Ġupgrade": 8949,
      "ĠSpeaking": 8950,
      "Ġles": 8951,
      "ĠHur": 8952,
      "Ġstudied": 8953,
      "iley": 8954,
      "esty": 8955,
      "63": 8956,
      "lahoma": 8957,
      "Ġmeasured": 8958,
      "AF": 8959,
      "fund": 8960,
      "Ġbub": 8961,
      "Ġtransactions": 8962,
      "ĠAli": 8963,
      "VE": 8964,
      "Ġsty": 8965,
      "aware": 8966,
      "ĠArticle": 8967,
      "ĠKar": 8968,
      "Ġmarch": 8969,
      "Ġcounts": 8970,
      "acket": 8971,
      "Ġarrive": 8972,
      "Ġpartnership": 8973,
      "Ġauto": 8974,
      "comes": 8975,
      "ĠGalaxy": 8976,
      "Ġstages": 8977,
      "Ġdad": 8978,
      "Ġmonitoring": 8979,
      "Ġinsisted": 8980,
      "Ġheadquarters": 8981,
      "ĠBeck": 8982,
      "Ġsymp": 8983,
      "Ġcapabilities": 8984,
      "RL": 8985,
      "Ġreplied": 8986,
      "Ġdeficit": 8987,
      "Ġratio": 8988,
      "iate": 8989,
      "ocument": 8990,
      "Ġskept": 8991,
      "Ġfro": 8992,
      "Ġreceiver": 8993,
      "ĠBureau": 8994,
      "Ġprotein": 8995,
      "Ġclock": 8996,
      "Ġrepresenting": 8997,
      "Ġmathem": 8998,
      "hop": 8999,
      "ĠSilver": 9000,
      "ĠEdward": 9001,
      "ctic": 9002,
      "Ġtracking": 9003,
      "ĠHold": 9004,
      "Ġrender": 9005,
      "Ġrebu": 9006,
      "Ġusage": 9007,
      "ĠVill": 9008,
      "Ġax": 9009,
      "Ġsupplies": 9010,
      "ĠEliz": 9011,
      "ĠAward": 9012,
      "ĠGraham": 9013,
      "Ġperforming": 9014,
      "Ġdistract": 9015,
      "ĠChelsea": 9016,
      "high": 9017,
      "ĠPict": 9018,
      "Ġunions": 9019,
      "Ġguitar": 9020,
      "shire": 9021,
      "Ġracism": 9022,
      "ĠIndust": 9023,
      "Ġequality": 9024,
      "Ġconservatives": 9025,
      "Ġproposals": 9026,
      "Ġplain": 9027,
      "aeda": 9028,
      "Ġuniversities": 9029,
      "Ġassessment": 9030,
      "Ġaccomplish": 9031,
      "ais": 9032,
      "Ġhoped": 9033,
      "ĠCow": 9034,
      "Ġcriticized": 9035,
      "Ġtrave": 9036,
      "Ġtie": 9037,
      "Ġwaters": 9038,
      "ĠYOU": 9039,
      "bridge": 9040,
      "61": 9041,
      "Ġ2020": 9042,
      "Ġconventional": 9043,
      "Ġwarn": 9044,
      "zing": 9045,
      "encing": 9046,
      "ji": 9047,
      "Ġdomain": 9048,
      "Ġparallel": 9049,
      "Ġconcrete": 9050,
      "ĠBloom": 9051,
      "ĠGovernor": 9052,
      "ĠTech": 9053,
      "UST": 9054,
      "ĠBeijing": 9055,
      "Ġshopping": 9056,
      "Ġbeauty": 9057,
      "cut": 9058,
      "App": 9059,
      "ĠJere": 9060,
      "Ġprogramme": 9061,
      "Ġappointed": 9062,
      "Ġramp": 9063,
      "Ġletting": 9064,
      "ecutive": 9065,
      "har": 9066,
      "ped": 9067,
      "Ġexch": 9068,
      "73": 9069,
      "Ġreliable": 9070,
      "ĠEst": 9071,
      "Ġinequ": 9072,
      "\">": 9073,
      "ĠNetflix": 9074,
      "door": 9075,
      "ĠCS": 9076,
      "ĠMaryland": 9077,
      "ĠOlympic": 9078,
      "ught": 9079,
      "pton": 9080,
      "Ġmargin": 9081,
      "??": 9082,
      "Ġintroduction": 9083,
      "ĠFigure": 9084,
      "eries": 9085,
      "Do": 9086,
      "Ġabsor": 9087,
      "crib": 9088,
      "ĠEarly": 9089,
      "usalem": 9090,
      "ĠSean": 9091,
      "ĠLes": 9092,
      "Ġdust": 9093,
      "Ġdismissed": 9094,
      "Ġabroad": 9095,
      "62": 9096,
      "iano": 9097,
      "olph": 9098,
      "Ġcance": 9099,
      "mat": 9100,
      "Ġartific": 9101,
      "Ġves": 9102,
      "Ġneuro": 9103,
      "ĠTele": 9104,
      "ĠEveryone": 9105,
      "ĠBud": 9106,
      "Ġvisiting": 9107,
      "Ġappearances": 9108,
      "ĠWolf": 9109,
      "ĠOklahoma": 9110,
      "ĠCL": 9111,
      "fol": 9112,
      "Ġlandscape": 9113,
      "mony": 9114,
      "Ġdrove": 9115,
      "Ġclassified": 9116,
      "ĠSom": 9117,
      "irts": 9118,
      "Ġtrigger": 9119,
      "Ġhyper": 9120,
      "theless": 9121,
      "archy": 9122,
      "dney": 9123,
      "Ġrescue": 9124,
      "plus": 9125,
      "Ġjun": 9126,
      "Ġentitled": 9127,
      "ĠHu": 9128,
      "Ġveterans": 9129,
      "Ġhung": 9130,
      "Ġpresidency": 9131,
      "Ġmuseum": 9132,
      "enez": 9133,
      "ĠBelg": 9134,
      "ĠChildren": 9135,
      "Ġbread": 9136,
      "Ġpatch": 9137,
      "Ġtransit": 9138,
      "ĠDer": 9139,
      "Trump": 9140,
      "ĠBruce": 9141,
      "ĠSab": 9142,
      "ultane": 9143,
      "conf": 9144,
      "ĠDutch": 9145,
      "Ġblocked": 9146,
      "Ġ53": 9147,
      "ĠIron": 9148,
      "made": 9149,
      "Ġhockey": 9150,
      "Ġsenator": 9151,
      "Ġurged": 9152,
      "omes": 9153,
      "Ġpopulations": 9154,
      "Ġcongressional": 9155,
      "Ġcenters": 9156,
      "Ġdub": 9157,
      "Ġspokeswoman": 9158,
      "Ġpredicted": 9159,
      "Ġassign": 9160,
      "Ġrocket": 9161,
      "ĠHarvard": 9162,
      "Ġwhenever": 9163,
      "ĠLeon": 9164,
      "ika": 9165,
      "FA": 9166,
      "Ġpolitically": 9167,
      "Ġfiring": 9168,
      "Ġclar": 9169,
      "aga": 9170,
      "ĠCarter": 9171,
      "ĠMess": 9172,
      "Ġwider": 9173,
      "iamond": 9174,
      "isk": 9175,
      "Ġtargeting": 9176,
      "rooms": 9177,
      "Ġcig": 9178,
      "Ġsequence": 9179,
      "Ġsalt": 9180,
      "Ġbreath": 9181,
      "ĠBible": 9182,
      "92": 9183,
      "Ġrequested": 9184,
      "Ġsurvival": 9185,
      "ĠPD": 9186,
      "Ġdates": 9187,
      "eters": 9188,
      "Ġswim": 9189,
      "Ġtestimony": 9190,
      "jud": 9191,
[...]
