{
  "version": "1.0",
  "truncation": null,
  "padding": null,
  "added_tokens": [
    {
      "id": 0,
      "content": "<unk>",
      "single_word": false,
      "lstrip": false,
      "rstrip": false,
      "normalized": false,
      "special": true
    },
    {
      "id": 1,
      "content": "<s>",
      "single_word": false,
      "lstrip": false,
      "rstrip": false,
      "normalized": false,
      "special": true
    },
    {
      "id": 2,
      "content": "</s>",
      "single_word": false,
      "lstrip": false,
      "rstrip": false,
      "normalized": false,
      "special": true
    },
    {
      "id": 3,
      "content": "<pad>",
      "single_word": false,
      "lstrip": false,
      "rstrip": false,
      "normalized": false,
      "special": true
    },
    {
      "id": 4,
      "content": "[INST]",
      "single_word": false,
      "lstrip": false,
      "rstrip": false,
      "normalized": false,
      "special": true
    },
    {
      "id": 5,
      "content": "[/INST]",
      "single_word": false,
      "lstrip": false,
      "rstrip": false,
      "normalized": false,
      "special": true
    }
  ],
  "normalizer": null,
  "pre_tokenizer": {
    "type": "Whitespace"
  },
  "post_processor": null,
  "decoder": null,
  "model": {
    "type": "BPE",
    "dropout": null,
    "unk_token": "<unk>",
    "continuing_subword_prefix": null,
    "end_of_word_suffix": null,
    "fuse_unk": false,
    "byte_fallback": false,
    "ignore_merges": false,
    "vocab": {
      "<unk>": 0,
      "<s>": 1,
      "</s>": 2,
      "<pad>": 3,
      "[INST]": 4,
      "[/INST]": 5,
      "!": 6,
      "\"": 7,
      "#": 8,
      "$": 9,
      "%": 10,
      "&": 11,
      "'": 12,
      "(": 13,
      ")": 14,
      "*": 15,
      "+": 16,
      ",": 17,
      "-": 18,
      ".": 19,
      "/": 20,
      "0": 21,
      "1": 22,
      "2": 23,
      "3": 24,
      "4": 25,
      "5": 26,
      "6": 27,
      "7": 28,
      "8": 29,
      "9": 30,
      ":": 31,
      ";": 32,
      "<": 33,
      "=": 34,
      ">": 35,
      "?": 36,
      "@": 37,
      "A": 38,
      "B": 39,
      "C": 40,
      "D": 41,
      "E": 42,
      "F": 43,
      "G": 44,
      "H": 45,
      "I": 46,
      "J": 47,
      "K": 48,
      "L": 49,
      "M": 50,
      "N": 51,
      "O": 52,
      "P": 53,
      "Q": 54,
      "R": 55,
      "S": 56,
      "T": 57,
      "U": 58,
      "V": 59,
      "W": 60,
      "X": 61,
      "Y": 62,
      "Z": 63,
      "[": 64,
      "\\": 65,
      "]": 66,
      "^": 67,
      "_": 68,
      "`": 69,
      "a": 70,
      "b": 71,
      "c": 72,
      "d": 73,
      "e": 74,
      "f": 75,
      "g": 76,
      "h": 77,
      "i": 78,
      "j": 79,
      "k": 80,
      "l": 81,
      "m": 82,
      "n": 83,
      "o": 84,
      "p": 85,
      "q": 86,
      "r": 87,
      "s": 88,
      "t": 89,
      "u": 90,
      "v": 91,
      "w": 92,
      "x": 93,
      "y": 94,
      "z": 95,
      "{": 96,
      "|": 97,
      "}": 98,
      "~": 99,
      "": 100,
      "": 101,
      "": 102,
      "": 103,
      "¡": 104,
      "¢": 105,
      "£": 106,
      "¤": 107,
      "¥": 108,
      "¦": 109,
      "¨": 110,
      "©": 111,
      "ª": 112,
      "«": 113,
      "¬": 114,
      "­": 115,
      "®": 116,
      "°": 117,
      "±": 118,
      "²": 119,
      "³": 120,
      "´": 121,
      "µ": 122,
      "¶": 123,
      "·": 124,
      "¸": 125,
      "¹": 126,
      "º": 127,
      "»": 128,
      "¼": 129,
      "½": 130,
      "¾": 131,
      "¿": 132,
      "À": 133,
      "Á": 134,
      "Â": 135,
      "Ã": 136,
      "Ä": 137,
      "Å": 138,
      "Æ": 139,
      "Ç": 140,
      "È": 141,
      "É": 142,
      "Ê": 143,
      "Ë": 144,
      "Ì": 145,
      "Í": 146,
      "Î": 147,
      "Ï": 148,
      "Ð": 149,
      "Ñ": 150,
      "Ò": 151,
      "Ó": 152,
      "Ô": 153,
      "Õ": 154,
      "Ö": 155,
      "×": 156,
      "Ø": 157,
      "Ù": 158,
      "Ú": 159,
      "Û": 160,
      "Ü": 161,
      "Ý": 162,
      "Þ": 163,
      "ß": 164,
      "à": 165,
      "á": 166,
      "â": 167,
      "ã": 168,
      "ä": 169,
      "å": 170,
      "æ": 171,
      "ç": 172,
      "è": 173,
      "é": 174,
      "ê": 175,
      "ë": 176,
      "ì": 177,
      "í": 178,
      "î": 179,
      "ï": 180,
      "ð": 181,
      "ñ": 182,
      "ò": 183,
      "ó": 184,
      "ô": 185,
      "õ": 186,
      "ö": 187,
      "÷": 188,
      "ø": 189,
      "ù": 190,
      "ú": 191,
      "û": 192,
      "ü": 193,
      "ý": 194,
      "þ": 195,
      "ÿ": 196,
      "ā": 197,
      "Ă": 198,
      "ă": 199,
      "č": 200,
      "ę": 201,
      "ğ": 202,
      "ī": 203,
      "ł": 204,
      "ń": 205,
      "Ō": 206,
      "ō": 207,
      "ŏ": 208,
      "ő": 209,
      "Œ": 210,
      "œ": 211,
      "Ř": 212,
      "ś": 213,
      "Ş": 214,
      "ş": 215,
      "Š": 216,
      "š": 217,
      "Ţ": 218,
      "ţ": 219,
      "ū": 220,
      "ž": 221,
      "ƒ": 222,
      "ǎ": 223,
      "ǒ": 224,
      "ǔ": 225,
      "ǧ": 226,
      "ˆ": 227,
      "ː": 228,
      "˗": 229,
      "˚": 230,
      "˜": 231,
      "́": 232,
      "̈": 233,
      "̊": 234,
      "̧": 235,
      "Β": 236,
      "Η": 237,
      "Μ": 238,
      "ά": 239,
      "έ": 240,
      "ή": 241,
      "ί": 242,
      "α": 243,
      "β": 244,
      "γ": 245,
      "δ": 246,
      "ε": 247,
      "ζ": 248,
      "η": 249,
      "θ": 250,
      "ι": 251,
      "κ": 252,
      "λ": 253,
      "μ": 254,
      "ν": 255,
      "ξ": 256,
      "ο": 257,
      "π": 258,
      "ρ": 259,
      "ς": 260,
      "σ": 261,
      "τ": 262,
      "υ": 263,
      "φ": 264,
      "χ": 265,
      "ό": 266,
      "ύ": 267,
      "В": 268,
      "М": 269,
      "а": 270,
      "б": 271,
      "в": 272,
      "г": 273,
      "д": 274,
      "е": 275,
      "з": 276,
      "и": 277,
      "й": 278,
      "к": 279,
      "л": 280,
      "м": 281,
      "н": 282,
      "о": 283,
      "п": 284,
      "р": 285,
      "с": 286,
      "т": 287,
      "у": 288,
      "ф": 289,
      "х": 290,
      "ц": 291,
      "ч": 292,
      "ш": 293,
      "щ": 294,
      "ы": 295,
      "ю": 296,
      "א": 297,
      "ב": 298,
      "ג": 299,
      "ו": 300,
      "ח": 301,
      "ט": 302,
      "י": 303,
      "ל": 304,
      "מ": 305,
      "ן": 306,
      "נ": 307,
      "ע": 308,
      "פ": 309,
      "ק": 310,
      "ר": 311,
      "ש": 312,
      "ת": 313,
      "ؘ": 314,
      "ء": 315,
      "أ": 316,
      "ا": 317,
      "ب": 318,
      "ة": 319,
      "ت": 320,
      "ج": 321,
      "ح": 322,
      "خ": 323,
      "د": 324,
      "ر": 325,
      "ز": 326,
      "س": 327,
      "ش": 328,
      "ص": 329,
      "ع": 330,
      "غ": 331,
      "ف": 332,
      "ق": 333,
      "ك": 334,
      "ل": 335,
      "م": 336,
      "ن": 337,
      "ه": 338,
      "و": 339,
      "ى": 340,
      "ي": 341,
      "ُ": 342,
      "ٹ": 343,
      "پ": 344,
      "ښ": 345,
      "ک": 346,
      "گ": 347,
      "ھ": 348,
      "ہ": 349,
      "ی": 350,
      "ې": 351,
      "ے": 352,
      "۞": 353,
      "۩": 354,
      "ހ": 355,
      "ދ": 356,
      "ތ": 357,
      "ަ": 358,
      "ި": 359,
      "ޫ": 360,
      "ँ": 361,
      "ं": 362,
      "ः": 363,
      "अ": 364,
      "आ": 365,
      "इ": 366,
      "ई": 367,
      "उ": 368,
      "ऊ": 369,
      "ऋ": 370,
      "ऌ": 371,
      "ऍ": 372,
      "ऎ": 373,
      "ए": 374,
      "ऐ": 375,
      "ऑ": 376,
      "ऒ": 377,
      "ओ": 378,
      "औ": 379,
      "क": 380,
      "ख": 381,
      "ग": 382,
      "घ": 383,
      "ङ": 384,
      "च": 385,
      "छ": 386,
      "ज": 387,
      "झ": 388,
      "ञ": 389,
      "ट": 390,
      "ठ": 391,
      "ड": 392,
      "ढ": 393,
      "ण": 394,
      "त": 395,
      "थ": 396,
      "द": 397,
      "ध": 398,
      "न": 399,
      "ऩ": 400,
      "प": 401,
      "फ": 402,
      "ब": 403,
      "भ": 404,
      "म": 405,
      "य": 406,
      "र": 407,
      "ऱ": 408,
      "ल": 409,
      "ळ": 410,
      "व": 411,
      "श": 412,
      "ष": 413,
      "स": 414,
      "ह": 415,
      "़": 416,
      "ऽ": 417,
      "ा": 418,
      "ि": 419,
      "ी": 420,
      "ु": 421,
      "ू": 422,
      "ृ": 423,
      "ॄ": 424,
      "ॅ": 425,
      "ॆ": 426,
      "े": 427,
      "ै": 428,
      "ॉ": 429,
      "ॊ": 430,
      "ो": 431,
      "ौ": 432,
      "्": 433,
      "ॐ": 434,
      "॑": 435,
      "॒": 436,
      "॔": 437,
      "ड़": 438,
      "ॠ": 439,
      "।": 440,
      "॥": 441,
      "०": 442,
      "१": 443,
      "२": 444,
      "३": 445,
      "४": 446,
      "५": 447,
      "६": 448,
      "७": 449,
      "८": 450,
      "९": 451,
      "॰": 452,
      "ॱ": 453,
      "ঁ": 454,
      "ং": 455,
      "আ": 456,
      "ই": 457,
      "ও": 458,
      "ক": 459,
      "গ": 460,
      "ঙ": 461,
      "চ": 462,
      "ছ": 463,
      "জ": 464,
      "ঞ": 465,
      "ট": 466,
      "ড": 467,
      "ত": 468,
      "দ": 469,
      "ধ": 470,
      "ন": 471,
      "প": 472,
      "ফ": 473,
      "ব": 474,
      "ম": 475,
      "য": 476,
      "র": 477,
      "ল": 478,
      "শ": 479,
      "ষ": 480,
      "স": 481,
      "হ": 482,
      "়": 483,
      "া": 484,
      "ি": 485,
      "ী": 486,
      "ু": 487,
      "ে": 488,
      "ো": 489,
      "্": 490,
      "১": 491,
      "ৰ": 492,
      "ৱ": 493,
      "৷": 494,
      "ਗ": 495,
      "ਘ": 496,
      "ਜ": 497,
      "ਤ": 498,
      "ਦ": 499,
      "ਧ": 500,
      "ਨ": 501,
      "ਬ": 502,
      "ਮ": 503,
      "ਰ": 504,
      "ਲ": 505,
      "ਸ": 506,
      "ਹ": 507,
      "ਿ": 508,
      "ੀ": 509,
      "ੇ": 510,
      "ੋ": 511,
      "ੰ": 512,
      "ક": 513,
      "જ": 514,
      "ઞ": 515,
      "ષ": 516,
      "િ": 517,
      "ે": 518,
      "્": 519,
      "க": 520,
      "ச": 521,
      "த": 522,
      "ன": 523,
      "ப": 524,
      "ய": 525,
      "ர": 526,
      "ற": 527,
      "ள": 528,
      "ழ": 529,
      "வ": 530,
      "ஸ": 531,
      "ா": 532,
      "ி": 533,
      "ீ": 534,
      "ு": 535,
      "ே": 536,
      "்": 537,
      "గ": 538,
      "త": 539,
      "థ": 540,
      "న": 541,
      "మ": 542,
      "ర": 543,
      "శ": 544,
      "హ": 545,
      "ా": 546,
      "ి": 547,
      "ు": 548,
      "ొ": 549,
      "్": 550,
      "അ": 551,
      "ഖ": 552,
      "ജ": 553,
      "ഞ": 554,
      "ന": 555,
      "ബ": 556,
      "യ": 557,
      "ര": 558,
      "റ": 559,
      "സ": 560,
      "ാ": 561,
      "ി": 562,
      "ു": 563,
      "ോ": 564,
      "്": 565,
      "ක": 566,
      "ග": 567,
      "ත": 568,
      "ද": 569,
      "න": 570,
      "ම": 571,
      "ය": 572,
      "ර": 573,
      "ල": 574,
      "ෂ": 575,
      "ස": 576,
      "්": 577,
      "ා": 578,
      "ි": 579,
      "ු": 580,
      "ේ": 581,
      "ก": 582,
      "ข": 583,
      "ค": 584,
      "ง": 585,
      "ช": 586,
      "ญ": 587,
      "ฐ": 588,
      "ณ": 589,
      "ต": 590,
      "ท": 591,
      "น": 592,
      "บ": 593,
      "ป": 594,
      "พ": 595,
      "ฟ": 596,
      "ม": 597,
      "ย": 598,
      "ร": 599,
      "ล": 600,
      "ส": 601,
      "อ": 602,
      "ะ": 603,
      "ั": 604,
      "า": 605,
      "ี": 606,
      "ุ": 607,
      "เ": 608,
      "โ": 609,
      "ไ": 610,
      "้": 611,
      "ํ": 612,
      "ງ": 613,
      "ນ": 614,
      "ບ": 615,
      "ຟ": 616,
      "ັ": 617,
      "ຸ": 618,
      "ໄ": 619,
      "້": 620,
      "་": 621,
      "ཎ": 622,
      "ད": 623,
      "པ": 624,
      "མ": 625,
      "ཧ": 626,
      "ཨ": 627,
      "ི": 628,
      "ུ": 629,
      "ེ": 630,
      "ོ": 631,
      "ཾ": 632,
      "ྃ": 633,
      "ྨ": 634,
      "ᅳ": 635,
      "ḥ": 636,
      "ṛ": 637,
      "ễ": 638,
      "ἀ": 639,
      "ἅ": 640,
      "ὰ": 641,
      "​": 642,
      "‌": 643,
      "‍": 644,
      "‎": 645,
      "‐": 646,
      "–": 647,
      "—": 648,
      "―": 649,
      "‘": 650,
      "’": 651,
      "‚": 652,
      "“": 653,
      "”": 654,
      "„": 655,
      "†": 656,
      "•": 657,
      "…": 658,
      "‪": 659,
      "‬": 660,
      "‰": 661,
      "′": 662,
      "‹": 663,
      "›": 664,
      "‽": 665,
      "⁄": 666,
      "⁇": 667,
      "₪": 668,
      "₫": 669,
      "€": 670,
      "₹": 671,
      "™": 672,
      "→": 673,
      "∈": 674,
      "−": 675,
      "∕": 676,
      "∙": 677,
      "√": 678,
      "∞": 679,
      "∶": 680,
      "≈": 681,
      "≠": 682,
      "■": 683,
      "□": 684,
      "▲": 685,
      "▽": 686,
      "●": 687,
      "★": 688,
      "☺": 689,
      "♂": 690,
      "♏": 691,
      "♣": 692,
      "♥": 693,
      "♦": 694,
      "♫": 695,
      "⚡": 696,
      "✄": 697,
      "✨": 698,
      "❁": 699,
      "➡": 700,
      "⭐": 701,
      "々": 702,
      "「": 703,
      "」": 704,
      "い": 705,
      "う": 706,
      "お": 707,
      "か": 708,
      "く": 709,
      "さ": 710,
      "し": 711,
      "じ": 712,
      "た": 713,
      "ち": 714,
      "っ": 715,
      "な": 716,
      "に": 717,
      "の": 718,
      "ぺ": 719,
      "め": 720,
      "ゃ": 721,
      "ょ": 722,
      "よ": 723,
      "り": 724,
      "れ": 725,
      "を": 726,
      "ん": 727,
      "ア": 728,
      "イ": 729,
      "オ": 730,
      "ガ": 731,
      "キ": 732,
      "シ": 733,
      "ズ": 734,
      "タ": 735,
      "ネ": 736,
      "ノ": 737,
      "ラ": 738,
      "ル": 739,
      "レ": 740,
      "ー": 741,
      "一": 742,
      "三": 743,
      "下": 744,
      "不": 745,
      "世": 746,
      "京": 747,
      "人": 748,
      "住": 749,
      "便": 750,
      "公": 751,
      "力": 752,
      "区": 753,
      "卓": 754,
      "吐": 755,
      "喜": 756,
      "営": 757,
      "国": 758,
      "國": 759,
      "地": 760,
      "坊": 761,
      "型": 762,
      "多": 763,
      "大": 764,
      "奧": 765,
      "宅": 766,
      "宮": 767,
      "害": 768,
      "宵": 769,
      "山": 770,
      "岡": 771,
      "巡": 772,
      "弃": 773,
      "弾": 774,
      "戦": 775,
      "所": 776,
      "新": 777,
      "族": 778,
      "星": 779,
      "暴": 780,
      "有": 781,
      "材": 782,
      "東": 783,
      "樂": 784,
      "次": 785,
      "気": 786,
      "水": 787,
      "汚": 788,
      "油": 789,
      "浄": 790,
      "溜": 791,
      "災": 792,
      "爆": 793,
      "界": 794,
      "疾": 795,
      "禾": 796,
      "秒": 797,
      "站": 798,
      "第": 799,
      "者": 800,
      "肥": 801,
      "能": 802,
      "航": 803,
      "蕃": 804,
      "藏": 805,
      "行": 806,
      "西": 807,
      "豚": 808,
      "走": 809,
      "超": 810,
      "辛": 811,
      "逸": 812,
      "遥": 813,
      "酢": 814,
      "醤": 815,
      "金": 816,
      "鉾": 817,
      "離": 818,
      "霊": 819,
      "音": 820,
      "飯": 821,
      "骨": 822,
      "鮨": 823,
      "금": 824,
      "다": 825,
      "도": 826,
      "럭": 827,
      "마": 828,
      "바": 829,
      "법": 830,
      "사": 831,
      "산": 832,
      "성": 833,
      "식": 834,
      "음": 835,
      "이": 836,
      "인": 837,
      "제": 838,
      "주": 839,
      "케": 840,
      "키": 841,
      "티": 842,
      "회": 843,
      "": 844,
      "": 845,
      "": 846,
      "": 847,
      "": 848,
      "": 849,
      "": 850,
      "": 851,
      "": 852,
      "": 853,
      "": 854,
      "": 855,
      "": 856,
      "": 857,
      "": 858,
      "": 859,
      "": 860,
      "": 861,
      "": 862,
      "": 863,
      "": 864,
      "": 865,
      "": 866,
      "": 867,
      "": 868,
      "": 869,
      "": 870,
      "": 871,
      "": 872,
      "": 873,
      "": 874,
      "": 875,
      "": 876,
      "": 877,
      "": 878,
      "": 879,
      "": 880,
      "": 881,
      "": 882,
      "": 883,
      "": 884,
      "": 885,
      "": 886,
      "": 887,
      "": 888,
      "": 889,
      "": 890,
      "": 891,
      "": 892,
      "": 893,
      "": 894,
      "": 895,
      "": 896,
      "": 897,
      "": 898,
      "": 899,
      "": 900,
      "": 901,
      "": 902,
      "": 903,
      "": 904,
      "": 905,
      "": 906,
      "": 907,
      "": 908,
      "": 909,
      "": 910,
      "": 911,
      "": 912,
      "": 913,
      "": 914,
      "": 915,
      "": 916,
      "": 917,
      "": 918,
      "": 919,
      "": 920,
      "": 921,
      "": 922,
      "": 923,
      "": 924,
      "": 925,
      "": 926,
      "": 927,
      "": 928,
      "": 929,
      "": 930,
      "": 931,
      "": 932,
      "": 933,
      "": 934,
      "": 935,
      "": 936,
      "": 937,
      "": 938,
      "": 939,
      "": 940,
      "": 941,
      "": 942,
      "": 943,
      "": 944,
      "": 945,
      "": 946,
      "": 947,
      "": 948,
      "": 949,
      "": 950,
      "": 951,
      "": 952,
      "": 953,
      "": 954,
      "": 955,
      "": 956,
      "": 957,
      "": 958,
      "": 959,
      "": 960,
      "": 961,
      "": 962,
      "": 963,
      "": 964,
      "": 965,
      "": 966,
      "": 967,
      "": 968,
      "": 969,
      "": 970,
      "": 971,
      "": 972,
      "": 973,
      "": 974,
      "": 975,
      "": 976,
      "": 977,
      "": 978,
      "": 979,
      "": 980,
      "": 981,
      "": 982,
      "": 983,
      "": 984,
      "": 985,
      "": 986,
      "": 987,
      "": 988,
      "": 989,
      "": 990,
      "": 991,
      "": 992,
      "": 993,
      "": 994,
      "": 995,
      "": 996,
      "": 997,
      "": 998,
      "": 999,
      "": 1000,
      "": 1001,
      "": 1002,
      "": 1003,
      "": 1004,
      "": 1005,
      "": 1006,
      "": 1007,
      "": 1008,
      "": 1009,
      "": 1010,
      "": 1011,
      "": 1012,
      "": 1013,
      "": 1014,
      "": 1015,
      "": 1016,
      "": 1017,
      "": 1018,
      "": 1019,
      "": 1020,
      "️": 1021,
      "﻿": 1022,
      "！": 1023,
      "ﾉ": 1024,
      "�": 1025,
      "🇯": 1026,
      "🇵": 1027,
      "🌍": 1028,
      "🎂": 1029,
      "🎥": 1030,
      "🏻": 1031,
      "🐘": 1032,
      "🐦": 1033,
      "👏": 1034,
      "💦": 1035,
      "🗣": 1036,
      "😃": 1037,
      "😍": 1038,
      "🙂": 1039,
      "🙏": 1040,
      "🤔": 1041,
      "🤳": 1042,
      "🥳": 1043,
      "he": 1044,
      "te": 1045,
      "in": 1046,
      "an": 1047,
      "re": 1048,
      "is": 1049,
      "to": 1050,
      "the": 1051,
      "la": 1052,
      "tr": 1053,
      "ans": 1054,
      "late": 1055,
      "into": 1056,
      "trans": 1057,
      "IN": 1058,
      "ST": 1059,
      "translate": 1060,
      "INST": 1061,
      "al": 1062,
      "as": 1063,
      "le": 1064,
      "र्": 1065,
      "को": 1066,
      "मा": 1067,
      "्र": 1068,
      "ep": 1069,
      "on": 1070,
      "न्": 1071,
      "Nep": 1072,
      "Nepal": 1073,
      "ure": 1074,
      "का": 1075,
      "ase": 1076,
      "here": 1077,
      "ng": 1078,
      "ish": 1079,
      "Nepali": 1080,
      "xt": 1081,
      "lish": 1082,
      "lease": 1083,
      "Eng": 1084,
      "text": 1085,
      "English": 1086,
      "Sure": 1087,
      "Please": 1088,
      "translated": 1089,
      "[/": 1090,
      "</": 1091,
      ">[": 1092,
      "en": 1093,
      "्य": 1094,
      "ti": 1095,
      "ले": 1096,
      "er": 1097,
      "ने": 1098,
      "or": 1099,
      "th": 1100,
      "of": 1101,
      "ला": 1102,
      "ar": 1103,
      "ing": 1104,
      "स्": 1105,
      "and": 1106,
      "ou": 1107,
      "es": 1108,
      "ार": 1109,
      "प्र": 1110,
      "नि": 1111,
      "ed": 1112,
      "क्": 1113,
      "at": 1114,
      "ति": 1115,
      "वि": 1116,
      "रा": 1117,
      "यो": 1118,
      "ता": 1119,
      "हर": 1120,
      "it": 1121,
      "om": 1122,
      "tion": 1123,
      ".\"": 1124,
      "ic": 1125,
      "गर्": 1126,
      "ना": 1127,
      "।\"": 1128,
      "पा": 1129,
      "ent": 1130,
      "be": 1131,
      "वा": 1132,
      "गर": 1133,
      "नु": 1134,
      "ad": 1135,
      "ve": 1136,
      "il": 1137,
      "id": 1138,
      "se": 1139,
      "st": 1140,
      "हरू": 1141,
      "म्": 1142,
      "लाई": 1143,
      "त्र": 1144,
      "ro": 1145,
      "्या": 1146,
      "ter": 1147,
      "am": 1148,
      "हा": 1149,
      "बा": 1150,
      "ac": 1151,
      "सा": 1152,
      "नी": 1153,
      "या": 1154,
      "एको": 1155,
      "for": 1156,
      "दा": 1157,
      "हु": 1158,
      "ha": 1159,
      "क्ष": 1160,
      "no": 1161,
      "ur": 1162,
      "थि": 1163,
      "ation": 1164,
      "रि": 1165,
      "ol": 1166,
      "था": 1167,
      "त्": 1168,
      "लि": 1169,
      "ay": 1170,
      "कार": 1171,
      "ly": 1172,
      "हि": 1173,
      "ेको": 1174,
      "ch": 1175,
      "lo": 1176,
      "that": 1177,
      "ment": 1178,
      "ver": 1179,
      "un": 1180,
      "दे": 1181,
      "li": 1182,
      "The": 1183,
      "ted": 1184,
      "ce": 1185,
      "con": 1186,
      "ल्": 1187,
      "ir": 1188,
      "दि": 1189,
      "सं": 1190,
      "छन्": 1191,
      "us": 1192,
      "त्य": 1193,
      "ag": 1194,
      "res": 1195,
      "de": 1196,
      "के": 1197,
      "com": 1198,
      "हो": 1199,
      "we": 1200,
      "are": 1201,
      "सम्": 1202,
      "pro": 1203,
      "im": 1204,
      "िक": 1205,
      "द्": 1206,
      "्ट": 1207,
      "भन्": 1208,
      "ig": 1209,
      "wh": 1210,
      "लाग": 1211,
      "pe": 1212,
      "पनि": 1213,
      "ts": 1214,
      "has": 1215,
      "ith": 1216,
      "ab": 1217,
      "सम": 1218,
      "was": 1219,
      "ली": 1220,
      "जा": 1221,
      "स्त": 1222,
      "सु": 1223,
      "कि": 1224,
      "गा": 1225,
      "भा": 1226,
      "रह": 1227,
      "sh": 1228,
      "ld": 1229,
      "गर्न": 1230,
      "su": 1231,
      "with": 1232,
      "me": 1233,
      "op": 1234,
      "not": 1235,
      "ेर": 1236,
      "कु": 1237,
      "ne": 1238,
      "ate": 1239,
      "mo": 1240,
      "बाट": 1241,
      "उन": 1242,
      "ak": 1243,
      "ित": 1244,
      "्न": 1245,
      "fr": 1246,
      "di": 1247,
      "so": 1248,
      "पर्": 1249,
      "पु": 1250,
      "दै": 1251,
      "लो": 1252,
      "sa": 1253,
      "si": 1254,
      "सि": 1255,
      "चा": 1256,
      "ers": 1257,
      "by": 1258,
      "स्था": 1259,
      "oun": 1260,
      "ut": 1261,
      "तर": 1262,
      "po": 1263,
      "गरि": 1264,
      "न्छ": 1265,
      "have": 1266,
      "ष्ट": 1267,
      "यस": 1268,
      "क्र": 1269,
      "go": 1270,
      "ity": 1271,
      "et": 1272,
      "रु": 1273,
      "आफ": 1274,
      "लागि": 1275,
      "गर्ने": 1276,
      "धि": 1277,
      "In": 1278,
      "our": 1279,
      "ती": 1280,
      "ain": 1281,
      "said": 1282,
      "मी": 1283,
      "ci": 1284,
      "ther": 1285,
      "ill": 1286,
      "मि": 1287,
      "नेपा": 1288,
      "ap": 1289,
      "fe": 1290,
      "रो": 1291,
      "ेका": 1292,
      "मु": 1293,
      "कार्": 1294,
      "from": 1295,
      "री": 1296,
      "ri": 1297,
      "all": 1298,
      "एका": 1299,
      "न्द": 1300,
      "मे": 1301,
      "his": 1302,
      "ही": 1303,
      "छि": 1304,
      "धा": 1305,
      "वर्": 1306,
      "व्य": 1307,
      "टा": 1308,
      "प्रति": 1309,
      "ex": 1310,
      "भएको": 1311,
      "प्": 1312,
      "श्": 1313,
      "ँग": 1314,
      "देख": 1315,
      "भि": 1316,
      "ul": 1317,
      "जि": 1318,
      "भने": 1319,
      "नै": 1320,
      "एक": 1321,
      "से": 1322,
      "ould": 1323,
      "ङ्": 1324,
      "हरु": 1325,
      "सँग": 1326,
      "tor": 1327,
      "अन्": 1328,
      "ow": 1329,
      "पू": 1330,
      "राज": 1331,
      "थियो": 1332,
      "न्त्र": 1333,
      "one": 1334,
      "out": 1335,
      "अनु": 1336,
      "wor": 1337,
      "देश": 1338,
      "्रो": 1339,
      "ra": 1340,
      "od": 1341,
      "uc": 1342,
      "ear": 1343,
      "..": 1344,
      "man": 1345,
      "दु": 1346,
      "बै": 1347,
      "will": 1348,
      "परि": 1349,
      "निर्": 1350,
      "पछि": 1351,
      "यु": 1352,
      "been": 1353,
      "योग": 1354,
      "सर": 1355,
      "this": 1356,
      "समा": 1357,
      "gh": 1358,
      "आफ्न": 1359,
      "per": 1360,
      "बि": 1361,
      "par": 1362,
      "por": 1363,
      "बार": 1364,
      "रू": 1365,
      "dis": 1366,
      "ice": 1367,
      "सी": 1368,
      "red": 1369,
      "उँ": 1370,
      "चि": 1371,
      "भयो": 1372,
      "igh": 1373,
      "ge": 1374,
      "जन": 1375,
      "qu": 1376,
      "tic": 1377,
      "ess": 1378,
      "शा": 1379,
      "सो": 1380,
      "डा": 1381,
      "जना": 1382,
      "day": 1383,
      "ding": 1384,
      "ारी": 1385,
      "नेपाल": 1386,
      "पमा": 1387,
      "आफ्नो": 1388,
      "खा": 1389,
      "who": 1390,
      "थिए": 1391,
      "also": 1392,
      "कर्": 1393,
      "डि": 1394,
      "सक्": 1395,
      "हरूले": 1396,
      "गरेको": 1397,
      "um": 1398,
      "ke": 1399,
      "gr": 1400,
      "गर्नु": 1401,
      "पूर्": 1402,
      "ध्य": 1403,
      "बढ": 1404,
      "ग्र": 1405,
      "कार्य": 1406,
      "रहेको": 1407,
      "ौं": 1408,
      "की": 1409,
      "af": 1410,
      "मो": 1411,
      "ven": 1412,
      "उने": 1413,
      "उप": 1414,
      "उनी": 1415,
      "प्रा": 1416,
      "वे": 1417,
      "pr": 1418,
      "नमा": 1419,
      "der": 1420,
      "हुने": 1421,
      "do": 1422,
      "रे": 1423,
      "ong": 1424,
      "हाँ": 1425,
      "pla": 1426,
      "ame": 1427,
      "au": 1428,
      "00": 1429,
      "year": 1430,
      "had": 1431,
      "up": 1432,
      "देखि": 1433,
      "कारी": 1434,
      "जी": 1435,
      "ty": 1436,
      "led": 1437,
      "नको": 1438,
      "fo": 1439,
      "दी": 1440,
      "ञ्": 1441,
      "रण": 1442,
      "ren": 1443,
      "वर्ष": 1444,
      "ome": 1445,
      "ष्ट्र": 1446,
      "ll": 1447,
      "ard": 1448,
      "vern": 1449,
      "ous": 1450,
      "ant": 1451,
      "ary": 1452,
      "co": 1453,
      "ct": 1454,
      "वार": 1455,
      "try": 1456,
      "pres": 1457,
      "end": 1458,
      "ub": 1459,
      "गरे": 1460,
      "बता": 1461,
      "em": 1462,
      "चार": 1463,
      ",\"": 1464,
      "inc": 1465,
      "ion": 1466,
      "ैन": 1467,
      "राष्ट्र": 1468,
      "भए": 1469,
      "टी": 1470,
      "द्ध": 1471,
      "ist": 1472,
      "बन्": 1473,
      "त्यस": 1474,
      "गत": 1475,
      "भन्दा": 1476,
      "ie": 1477,
      "can": 1478,
      "age": 1479,
      "fic": 1480,
      "you": 1481,
      "ten": 1482,
      "work": 1483,
      "ves": 1484,
      "लय": 1485,
      "Ch": 1486,
      "vernment": 1487,
      "ide": 1488,
      "००": 1489,
      "ough": 1490,
      "सबै": 1491,
      "ud": 1492,
      "छैन": 1493,
      "क्ति": 1494,
      "ich": 1495,
      "other": 1496,
      "टि": 1497,
      "हामी": 1498,
      "लगा": 1499,
      "स्ता": 1500,
      "any": 1501,
      "क्रम": 1502,
      "coun": 1503,
      "गरिएको": 1504,
      "सम्म": 1505,
      "काम": 1506,
      "ण्": 1507,
      "ind": 1508,
      "मान": 1509,
      "pol": 1510,
      "खे": 1511,
      "क्त": 1512,
      "बु": 1513,
      "धार": 1514,
      "ok": 1515,
      "form": 1516,
      "रूपमा": 1517,
      "cor": 1518,
      "सह": 1519,
      "टो": 1520,
      "ople": 1521,
      "str": 1522,
      "inis": 1523,
      "अर्": 1524,
      "तथा": 1525,
      "were": 1526,
      "ue": 1527,
      "बी": 1528,
      "क्षा": 1529,
      "श्र": 1530,
      "निक": 1531,
      "अव": 1532,
      "ting": 1533,
      "ber": 1534,
      "ang": 1535,
      "धान": 1536,
      "उत्": 1537,
      "He": 1538,
      "मात्र": 1539,
      "हिले": 1540,
      "but": 1541,
      "व्यव": 1542,
      "जो": 1543,
      "स्व": 1544,
      "ज्": 1545,
      "बो": 1546,
      "ated": 1547,
      "comm": 1548,
      "her": 1549,
      "बे": 1550,
      "now": 1551,
      "यन": 1552,
      "tive": 1553,
      "government": 1554,
      "विश्": 1555,
      "क्षे": 1556,
      "after": 1557,
      "म्प": 1558,
      "हुन्छ": 1559,
      "जे": 1560,
      "there": 1561,
      "ब्": 1562,
      "ठा": 1563,
      "port": 1564,
      "्यो": 1565,
      "les": 1566,
      "ake": 1567,
      "हरूको": 1568,
      "tri": 1569,
      "their": 1570,
      "च्": 1571,
      "its": 1572,
      "कृ": 1573,
      "ष्": 1574,
      "people": 1575,
      "गो": 1576,
      "ade": 1577,
      "time": 1578,
      "कुरा": 1579,
      "भन्ने": 1580,
      "they": 1581,
      "शि": 1582,
      "ties": 1583,
      "lar": 1584,
      "fi": 1585,
      "It": 1586,
      "lic": 1587,
      "सन्": 1588,
      "पार्": 1589,
      "which": 1590,
      "जु": 1591,
      "फा": 1592,
      "bo": 1593,
      "hen": 1594,
      "केही": 1595,
      "ign": 1596,
      "अधि": 1597,
      "ree": 1598,
      "न्न": 1599,
      "ally": 1600,
      "est": 1601,
      "ari": 1602,
      "क्षेत्र": 1603,
      "्रा": 1604,
      "हे": 1605,
      "सरकार": 1606,
      "णा": 1607,
      "गु": 1608,
      "मन्त्र": 1609,
      "ance": 1610,
      "टे": 1611,
      "नो": 1612,
      "sion": 1613,
      "ine": 1614,
      "comp": 1615,
      "ble": 1616,
      "सार": 1617,
      "बना": 1618,
      "ip": 1619,
      "डी": 1620,
      "iz": 1621,
      "ction": 1622,
      "बन्ध": 1623,
      "नुभयो": 1624,
      "तर्": 1625,
      "पे": 1626,
      "पि": 1627,
      "मै": 1628,
      "pre": 1629,
      "मुख": 1630,
      "विद": 1631,
      "भाव": 1632,
      "िय": 1633,
      "ound": 1634,
      "ho": 1635,
      "म्रो": 1636,
      "ण्ड": 1637,
      "ेरै": 1638,
      "लन": 1639,
      "न्द्र": 1640,
      "fore": 1641,
      "sti": 1642,
      "pa": 1643,
      "नीति": 1644,
      "दछ": 1645,
      "पर": 1646,
      "गरी": 1647,
      "ल्या": 1648,
      "दन": 1649,
      "धेरै": 1650,
      "पी": 1651,
      "ser": 1652,
      "ved": 1653,
      "पर्ने": 1654,
      "wo": 1655,
      "Ma": 1656,
      "cal": 1657,
      "रहेका": 1658,
      "ck": 1659,
      "पो": 1660,
      "त्व": 1661,
      "ach": 1662,
      "low": 1663,
      "हुन": 1664,
      "दिन": 1665,
      "new": 1666,
      "याँ": 1667,
      "लु": 1668,
      "very": 1669,
      "av": 1670,
      "टर": 1671,
      "ल्ला": 1672,
      "स्तो": 1673,
      "दैन": 1674,
      "न्ड": 1675,
      "इन": 1676,
      "राख": 1677,
      "सले": 1678,
      "say": 1679,
      "if": 1680,
      "more": 1681,
      "br": 1682,
      "ight": 1683,
      "हरूलाई": 1684,
      "प्त": 1685,
      "about": 1686,
      "should": 1687,
      "ational": 1688,
      "hed": 1689,
      "भाग": 1690,
      "होस्": 1691,
      "सन": 1692,
      "tu": 1693,
      "ident": 1694,
      "दो": 1695,
      "able": 1696,
      "योजना": 1697,
      "\"\"": 1698,
      "tric": 1699,
      "कुनै": 1700,
      "ack": 1701,
      "लमा": 1702,
      "ma": 1703,
      "way": 1704,
      "स्थि": 1705,
      "उनले": 1706,
      "ile": 1707,
      "एर": 1708,
      "Pr": 1709,
      "ग्": 1710,
      "har": 1711,
      "ज्ञ": 1712,
      "पत्र": 1713,
      "माण": 1714,
      "cur": 1715,
      "De": 1716,
      "महि": 1717,
      "भार": 1718,
      "come": 1719,
      "gi": 1720,
      "गरेका": 1721,
      "sp": 1722,
      "छा": 1723,
      "mar": 1724,
      "र्थ": 1725,
      "only": 1726,
      "some": 1727,
      "cre": 1728,
      "bu": 1729,
      "ath": 1730,
      "old": 1731,
      "यी": 1732,
      "कम": 1733,
      "ीय": 1734,
      "नेपाली": 1735,
      "mon": 1736,
      "vi": 1737,
      "दुई": 1738,
      "बढी": 1739,
      "cent": 1740,
      "छु": 1741,
      "न्त": 1742,
      "cr": 1743,
      "स्थाप": 1744,
      "सञ्": 1745,
      "व्या": 1746,
      "lop": 1747,
      "art": 1748,
      "श्य": 1749,
      "लेख": 1750,
      "two": 1751,
      "cial": 1752,
      "than": 1753,
      "vis": 1754,
      "ces": 1755,
      "Indi": 1756,
      "fir": 1757,
      "मू": 1758,
      "खो": 1759,
      "सम्बन्ध": 1760,
      "ai": 1761,
      "under": 1762,
      "velop": 1763,
      "own": 1764,
      "दर्": 1765,
      "भएका": 1766,
      "him": 1767,
      "ters": 1768,
      "द्वार": 1769,
      "निय": 1770,
      "पहि": 1771,
      "But": 1772,
      "विका": 1773,
      "हुँ": 1774,
      "med": 1775,
      "my": 1776,
      "२०": 1777,
      "रमा": 1778,
      "lead": 1779,
      "समय": 1780,
      "ast": 1781,
      "मानि": 1782,
      "कालागि": 1783,
      "ank": 1784,
      "such": 1785,
      "पूर्व": 1786,
      "कमा": 1787,
      "प्रयोग": 1788,
      "fac": 1789,
      "कै": 1790,
      "भू": 1791,
      "ठू": 1792,
      "tem": 1793,
      "द्वारा": 1794,
      "सद": 1795,
      "would": 1796,
      "duc": 1797,
      "डे": 1798,
      "अहिले": 1799,
      "घि": 1800,
      "....": 1801,
      "Com": 1802,
      "क्रि": 1803,
      "like": 1804,
      "गर्दै": 1805,
      "उनु": 1806,
      "वादी": 1807,
      "als": 1808,
      "over": 1809,
      "when": 1810,
      "पाई": 1811,
      "राष्ट्रिय": 1812,
      "जार": 1813,
      "ass": 1814,
      "Minis": 1815,
      "न्य": 1816,
      "स्ट": 1817,
      "country": 1818,
      "spe": 1819,
      "el": 1820,
      "अन्य": 1821,
      "pl": 1822,
      "tions": 1823,
      "cess": 1824,
      "फि": 1825,
      "gan": 1826,
      "ot": 1827,
      "tern": 1828,
      "ल्य": 1829,
      "ele": 1830,
      "सको": 1831,
      "ful": 1832,
      "विद्या": 1833,
      "मेरि": 1834,
      "शु": 1835,
      "व्यक्ति": 1836,
      "get": 1837,
      "ations": 1838,
      "ving": 1839,
      "त्यो": 1840,
      "ys": 1841,
      "तपाई": 1842,
      "छो": 1843,
      "ence": 1844,
      "लको": 1845,
      "अमेरि": 1846,
      "मह": 1847,
      "एउ": 1848,
      "विश्व": 1849,
      "je": 1850,
      "कारण": 1851,
      "पर्छ": 1852,
      "them": 1853,
      "stitu": 1854,
      "ress": 1855,
      "हुन्": 1856,
      "मार्": 1857,
      "ङ्ग": 1858,
      "made": 1859,
      "dec": 1860,
      "ning": 1861,
      "भे": 1862,
      "ust": 1863,
      "मन्त्री": 1864,
      "ेत": 1865,
      "hi": 1866,
      "An": 1867,
      "?\"": 1868,
      "years": 1869,
      "पूर्ण": 1870,
      "वै": 1871,
      "स्थ": 1872,
      "फे": 1873,
      "खु": 1874,
      "state": 1875,
      "ंग": 1876,
      "king": 1877,
      "इन्": 1878,
      "mand": 1879,
      "संघ": 1880,
      "सू": 1881,
      "आव": 1882,
      "tain": 1883,
      "फो": 1884,
      "cus": 1885,
      "वन": 1886,
      "्ने": 1887,
      "ताको": 1888,
      "नयाँ": 1889,
      "cording": 1890,
      "tur": 1891,
      "off": 1892,
      "ple": 1893,
      "अघि": 1894,
      "ss": 1895,
      "reg": 1896,
      "स्वा": 1897,
      "अध्य": 1898,
      "hat": 1899,
      "क्षण": 1900,
      "There": 1901,
      "श्यक": 1902,
      "सेवा": 1903,
      "सर्": 1904,
      "उहाँ": 1905,
      "We": 1906,
      "lu": 1907,
      "जिल्ला": 1908,
      "नले": 1909,
      "again": 1910,
      "thing": 1911,
      "बारे": 1912,
      "भन्नुभयो": 1913,
      "फल": 1914,
      "illi": 1915,
      "कम्प": 1916,
      "ctor": 1917,
      "cted": 1918,
      "This": 1919,
      "ild": 1920,
      "first": 1921,
      "wa": 1922,
      "पार": 1923,
      "अभि": 1924,
      "साथ": 1925,
      "वी": 1926,
      "कस": 1927,
      "even": 1928,
      "pers": 1929,
      "विकास": 1930,
      "ublic": 1931,
      "स्रो": 1932,
      "ef": 1933,
      "pos": 1934,
      "मेर": 1935,
      "अनुसार": 1936,
      "कार्या": 1937,
      "rent": 1938,
      "land": 1939,
      "ची": 1940,
      "तन्त्र": 1941,
      "pp": 1942,
      "शी": 1943,
      "हुनु": 1944,
      "ating": 1945,
      "ener": 1946,
      "विष": 1947,
      "pur": 1948,
      "आवश्यक": 1949,
      "19": 1950,
      "ists": 1951,
      "ali": 1952,
      "sel": 1953,
      "राज्य": 1954,
      "हरी": 1955,
      "स्तै": 1956,
      "develop": 1957,
      "टक": 1958,
      "ob": 1959,
      "play": 1960,
      "ms": 1961,
      "cho": 1962,
      "केन्द्र": 1963,
      "aj": 1964,
      "चु": 1965,
      "शे": 1966,
      "ङ्क": 1967,
      "As": 1968,
      "सकि": 1969,
      "मक": 1970,
      "ned": 1971,
      "नीय": 1972,
      "mis": 1973,
      "poli": 1974,
      "एउटा": 1975,
      "अन्तर्": 1976,
      "मध्य": 1977,
      "यर": 1978,
      "main": 1979,
      "निर्माण": 1980,
      "Un": 1981,
      "राजनीति": 1982,
      "fin": 1983,
      "म्ब": 1984,
      "she": 1985,
      "क्या": 1986,
      "ies": 1987,
      "ट्ट": 1988,
      "person": 1989,
      "ture": 1990,
      "घर": 1991,
      "Ne": 1992,
      "gram": 1993,
      "hu": 1994,
      "चित": 1995,
      "shall": 1996,
      "mer": 1997,
      "prov": 1998,
      "पुन": 1999,
      "sto": 2000,
      "श्री": 2001,
      "illion": 2002,
      "नेछ": 2003,
      "गरा": 2004,
      "्यु": 2005,
      "कार्यक्रम": 2006,
      "cau": 2007,
      "सुर": 2008,
      "प्राप्त": 2009,
      "बताए": 2010,
      "wer": 2011,
      "तु": 2012,
      "सक": 2013,
      "ते": 2014,
      "सामा": 2015,
      "ise": 2016,
      "हरूमा": 2017,
      "पक्ष": 2018,
      "ship": 2019,
      "गर्दछ": 2020,
      "did": 2021,
      "mit": 2022,
      "cer": 2023,
      "trict": 2024,
      "ज्ञा": 2025,
      "ठूलो": 2026,
      "तो": 2027,
      "could": 2028,
      "स्य": 2029,
      "चना": 2030,
      "भु": 2031,
      "करण": 2032,
      "St": 2033,
      "mem": 2034,
      "वास": 2035,
      "बीच": 2036,
      "समेत": 2037,
      "पहिलो": 2038,
      "चाह": 2039,
      "ia": 2040,
      "लर": 2041,
      "bet": 2042,
      "20": 2043,
      "vil": 2044,
      "ens": 2045,
      "सुरु": 2046,
      "भो": 2047,
      "des": 2048,
      "ical": 2049,
      "समि": 2050,
      "एन": 2051,
      "स्प": 2052,
      "धिक": 2053,
      "politic": 2054,
      "१९": 2055,
      "महा": 2056,
      "किन": 2057,
      "ंक": 2058,
      "युक्त": 2059,
      "प्रहरी": 2060,
      "row": 2061,
      "incre": 2062,
      "पुग": 2063,
      "serv": 2064,
      "यत": 2065,
      "col": 2066,
      "fa": 2067,
      "tee": 2068,
      "घट": 2069,
      "मन": 2070,
      "निका": 2071,
      "समिति": 2072,
      "वार्": 2073,
      "vel": 2074,
      "know": 2075,
      "rough": 2076,
      "dif": 2077,
      "भारत": 2078,
      "गर्दा": 2079,
      "दान": 2080,
      "कर्ता": 2081,
      "may": 2082,
      "ru": 2083,
      "२००": 2084,
      "Ac": 2085,
      "struc": 2086,
      "India": 2087,
      "क्रिया": 2088,
      "200": 2089,
      "party": 2090,
      "तीय": 2091,
      "ward": 2092,
      "पार्टी": 2093,
      "organ": 2094,
      "भित्र": 2095,
      "छौं": 2096,
      "न्ट": 2097,
      "च्च": 2098,
      "प्रमुख": 2099,
      "ta": 2100,
      "न्या": 2101,
      "Se": 2102,
      "काठ": 2103,
      "und": 2104,
      "cu": 2105,
      "धन": 2106,
      "ारा": 2107,
      "tak": 2108,
      "Minister": 2109,
      "program": 2110,
      "वाद": 2111,
      "many": 2112,
      "ouse": 2113,
      "cause": 2114,
      "ks": 2115,
      "rest": 2116,
      "min": 2117,
      "मैले": 2118,
      "आर्": 2119,
      "मानिस": 2120,
      "संस्था": 2121,
      "सके": 2122,
      "बन्द": 2123,
      "Ho": 2124,
      "ced": 2125,
      "अनि": 2126,
      "If": 2127,
      "सञ्चा": 2128,
      "लिका": 2129,
      "ँच": 2130,
      "स्या": 2131,
      "cons": 2132,
      "ket": 2133,
      "लले": 2134,
      "त्ति": 2135,
      "Re": 2136,
      "hand": 2137,
      "men": 2138,
      "तीन": 2139,
      "offic": 2140,
      "ments": 2141,
      "oper": 2142,
      "val": 2143,
      "ime": 2144,
      "read": 2145,
      "while": 2146,
      "star": 2147,
      "माथि": 2148,
      "bus": 2149,
      "Sh": 2150,
      "Mo": 2151,
      "फर्": 2152,
      "through": 2153,
      "इएको": 2154,
      "ुर्": 2155,
      "tal": 2156,
      "minis": 2157,
      "ख्या": 2158,
      "ins": 2159,
      "देखा": 2160,
      "लग": 2161,
      "public": 2162,
      "नाम": 2163,
      "ange": 2164,
      "हाम्रो": 2165,
      "For": 2166,
      "ट्र": 2167,
      "bor": 2168,
      "ैले": 2169,
      "वृ": 2170,
      "where": 2171,
      "ily": 2172,
      "three": 2173,
      "शन": 2174,
      "जान": 2175,
      "मलाई": 2176,
      "राम्रो": 2177,
      "पुर": 2178,
      "ince": 2179,
      "cla": 2180,
      "good": 2181,
      "कम्पनी": 2182,
      "सहयोग": 2183,
      "last": 2184,
      "तिनी": 2185,
      "शेष": 2186,
      "पति": 2187,
      "राम": 2188,
      "tory": 2189,
      "वर्त": 2190,
      "नेता": 2191,
      "uring": 2192,
      "what": 2193,
      "wom": 2194,
      "उत्पा": 2195,
      "ital": 2196,
      "plo": 2197,
      "Ar": 2198,
      "road": 2199,
      "ace": 2200,
      "ps": 2201,
      "घा": 2202,
      "ose": 2203,
      "मेरो": 2204,
      "काठमा": 2205,
      "महिला": 2206,
      "vie": 2207,
      "जिक": 2208,
      "ah": 2209,
      "माओ": 2210,
      "ased": 2211,
      "make": 2212,
      "स्तु": 2213,
      "Af": 2214,
      "your": 2215,
      "भिन्न": 2216,
      "शत": 2217,
      "issu": 2218,
      "उनको": 2219,
      "Mao": 2220,
      "soci": 2221,
      "तामा": 2222,
      "ents": 2223,
      "most": 2224,
      "स्थानीय": 2225,
      "against": 2226,
      "ina": 2227,
      "विक": 2228,
      "inves": 2229,
      "tim": 2230,
      "stitution": 2231,
      "तपाईँ": 2232,
      "कृति": 2233,
      "अवस्था": 2234,
      "set": 2235,
      "यसको": 2236,
      "organiz": 2237,
      "enti": 2238,
      "produc": 2239,
      "Par": 2240,
      "अधिकारी": 2241,
      "vo": 2242,
      "Th": 2243,
      "गि": 2244,
      "ष्ठ": 2245,
      "used": 2246,
      "भइ": 2247,
      "अर्को": 2248,
      "विशेष": 2249,
      "need": 2250,
      "ेक": 2251,
      "हुनेछ": 2252,
      "लत": 2253,
      "long": 2254,
      "alth": 2255,
      "sub": 2256,
      "ुर्ुर्": 2257,
      "माओवादी": 2258,
      "आधार": 2259,
      "power": 2260,
      "ph": 2261,
      "उहाँले": 2262,
      "rit": 2263,
      "प्रतिशत": 2264,
      "int": 2265,
      "विद्यालय": 2266,
      "सदस्य": 2267,
      "ates": 2268,
      "हित": 2269,
      "war": 2270,
      "सक्ने": 2271,
      "क्ता": 2272,
      "होइन": 2273,
      "che": 2274,
      "inte": 2275,
      "हरुको": 2276,
      "काठमाड": 2277,
      "गरेर": 2278,
      "gy": 2279,
      "same": 2280,
      "मति": 2281,
      "meet": 2282,
      "cy": 2283,
      "stud": 2284,
      "pri": 2285,
      "कार्यालय": 2286,
      "came": 2287,
      "child": 2288,
      "press": 2289,
      "पटक": 2290,
      "सरकारले": 2291,
      "reat": 2292,
      "बेला": 2293,
      "बजार": 2294,
      "सार्": 2295,
      "tra": 2296,
      "cap": 2297,
      "Con": 2298,
      "every": 2299,
      "cour": 2300,
      "tes": 2301,
      "हार": 2302,
      "अध्यक्ष": 2303,
      "गर्यो": 2304,
      "दिने": 2305,
      "ff": 2306,
      "move": 2307,
      "ility": 2308,
      "व्यवसा": 2309,
      "being": 2310,
      "विषय": 2311,
      "self": 2312,
      "भी": 2313,
      "pon": 2314,
      "hel": 2315,
      "लै": 2316,
      "car": 2317,
      "ड्": 2318,
      "month": 2319,
      "म्या": 2320,
      "अधिकार": 2321,
      "कले": 2322,
      "नामा": 2323,
      "गर्नुहोस्": 2324,
      "stand": 2325,
      "कर": 2326,
      "law": 2327,
      "contr": 2328,
      "त्या": 2329,
      "iness": 2330,
      "ism": 2331,
      "स्थिति": 2332,
      "ash": 2333,
      "dire": 2334,
      "त्मक": 2335,
      "प्रधान": 2336,
      "According": 2337,
      "inclu": 2338,
      "dep": 2339,
      "शक्ति": 2340,
      "development": 2341,
      "पै": 2342,
      "tle": 2343,
      "uch": 2344,
      "ited": 2345,
      "ese": 2346,
      "राजनीतिक": 2347,
      "बल": 2348,
      "place": 2349,
      "wever": 2350,
      "भर": 2351,
      "ढा": 2352,
      "कको": 2353,
      "प्रत्य": 2354,
      "cri": 2355,
      "ry": 2356,
      "भ्र": 2357,
      "दाय": 2358,
      "cen": 2359,
      "use": 2360,
      "these": 2361,
      "स्वी": 2362,
      "though": 2363,
      "take": 2364,
      "ween": 2365,
      "ire": 2366,
      "gu": 2367,
      "्रि": 2368,
      "सक्छ": 2369,
      "cle": 2370,
      "political": 2371,
      "गी": 2372,
      "clo": 2373,
      "टन": 2374,
      "ality": 2375,
      "percent": 2376,
      "says": 2377,
      "commit": 2378,
      "द्धि": 2379,
      "leg": 2380,
      "तय": 2381,
      "जिम": 2382,
      "शो": 2383,
      "New": 2384,
      "मौ": 2385,
      "see": 2386,
      "ूह": 2387,
      "world": 2388,
      "head": 2389,
      "between": 2390,
      "वर": 2391,
      "भव": 2392,
      "fam": 2393,
      "ग्रे": 2394,
      "add": 2395,
      "Fr": 2396,
      "million": 2397,
      "समस्या": 2398,
      "वेदन": 2399,
      "mak": 2400,
      "रोध": 2401,
      "वेश": 2402,
      "peri": 2403,
      "न्ति": 2404,
      "उल्": 2405,
      "यसले": 2406,
      "धे": 2407,
      "आइ": 2408,
      "sit": 2409,
      "chool": 2410,
      "ities": 2411,
      "तिमी": 2412,
      "घो": 2413,
      "ग्रा": 2414,
      "local": 2415,
      "सुरक्षा": 2416,
      "कर्म": 2417,
      "\"(": 2418,
      "act": 2419,
      "भाष": 2420,
      "ala": 2421,
      "back": 2422,
      "डलर": 2423,
      "उद": 2424,
      "मत": 2425,
      "झा": 2426,
      "Kath": 2427,
      "र्या": 2428,
      "र्ड": 2429,
      "अप": 2430,
      "plan": 2431,
      "समूह": 2432,
      "मोजिम": 2433,
      "अझ": 2434,
      "नका": 2435,
      "),": 2436,
      "well": 2437,
      "those": 2438,
      "बमोजिम": 2439,
      "विभिन्न": 2440,
      "house": 2441,
      "क्षेत्रमा": 2442,
      "before": 2443,
      "less": 2444,
      "proble": 2445,
      "दृ": 2446,
      "Al": 2447,
      "हरुले": 2448,
      "then": 2449,
      "mandu": 2450,
      "मध्ये": 2451,
      "sur": 2452,
      "Kathmandu": 2453,
      "१०": 2454,
      "don": 2455,
      "vers": 2456,
      "On": 2457,
      "बाहि": 2458,
      "conom": 2459,
      "स्थित": 2460,
      "due": 2461,
      "एस": 2462,
      "case": 2463,
      "does": 2464,
      "जब": 2465,
      "कां": 2466,
      "बाँ": 2467,
      "Go": 2468,
      "चारी": 2469,
      "अर्थ": 2470,
      "num": 2471,
      "आएको": 2472,
      "निर्ण": 2473,
      "मिक": 2474,
      "lis": 2475,
      "थिक": 2476,
      "found": 2477,
      "district": 2478,
      "नौ": 2479,
      "सकेको": 2480,
      "सम्झ": 2481,
      "सफल": 2482,
      "उपल": 2483,
      "--": 2484,
      "हामीले": 2485,
      "व्यवस्था": 2486,
      "ya": 2487,
      "प्ता": 2488,
      "आर्थिक": 2489,
      "four": 2490,
      "far": 2491,
      "कानु": 2492,
      "inform": 2493,
      "gener": 2494,
      "निर्णय": 2495,
      "After": 2496,
      "प्रे": 2497,
      "पानी": 2498,
      "डो": 2499,
      "open": 2500,
      "लगानी": 2501,
      "जुन": 2502,
      "ite": 2503,
      "run": 2504,
      "परी": 2505,
      "ft": 2506,
      "ner": 2507,
      "अमेरिकी": 2508,
      "ason": 2509,
      "fol": 2510,
      "view": 2511,
      "arch": 2512,
      "sup": 2513,
      "sen": 2514,
      "fil": 2515,
      "लगायत": 2516,
      "inter": 2517,
      "दू": 2518,
      "खेल": 2519,
      "दर": 2520,
      "resident": 2521,
      "including": 2522,
      "life": 2523,
      "ध्या": 2524,
      "vol": 2525,
      "tries": 2526,
      "विदेश": 2527,
      "तृ": 2528,
      "part": 2529,
      "संवि": 2530,
      "काठमाडौं": 2531,
      "dra": 2532,
      "ink": 2533,
      "कर्मचारी": 2534,
      "And": 2535,
      "भूमि": 2536,
      "However": 2537,
      "सम्प": 2538,
      "संर": 2539,
      "आफू": 2540,
      "आज": 2541,
      "गठ": 2542,
      "because": 2543,
      "ystem": 2544,
      "look": 2545,
      "उपलब्": 2546,
      "diffe": 2547,
      "प्रया": 2548,
      "Mad": 2549,
      "ploy": 2550,
      "जसले": 2551,
      "team": 2552,
      "meeting": 2553,
      "आई": 2554,
      "Ba": 2555,
      "पाइ": 2556,
      "acti": 2557,
      "cha": 2558,
      "police": 2559,
      "कट": 2560,
      "फाइ": 2561,
      "साइ": 2562,
      "ल्लो": 2563,
      "level": 2564,
      "curity": 2565,
      "sing": 2566,
      "name": 2567,
      "high": 2568,
      "commun": 2569,
      "रुपमा": 2570,
      "wee": 2571,
      "ga": 2572,
      "वरण": 2573,
      "ided": 2574,
      "ann": 2575,
      "रुद्ध": 2576,
      "हेर्": 2577,
      "णी": 2578,
      "त्त": 2579,
      "They": 2580,
      "लियन": 2581,
      "मृ": 2582,
      "जस्तै": 2583,
      "econom": 2584,
      "साम": 2585,
      "ष्टि": 2586,
      "started": 2587,
      "ness": 2588,
      "No": 2589,
      "ton": 2590,
      "mb": 2591,
      "माग": 2592,
      "उच्च": 2593,
      "मूल्य": 2594,
      "ैं": 2595,
      "lation": 2596,
      "business": 2597,
      "thor": 2598,
      "प्रश": 2599,
      "cont": 2600,
      "cond": 2601,
      "बर्": 2602,
      "ual": 2603,
      "परिवार": 2604,
      "प्रस्ता": 2605,
      "चे": 2606,
      "भावना": 2607,
      "how": 2608,
      "कला": 2609,
      "respon": 2610,
      "बस्": 2611,
      "len": 2612,
      "महिना": 2613,
      "hal": 2614,
      "जारी": 2615,
      "Mr": 2616,
      "सभा": 2617,
      "called": 2618,
      "जनता": 2619,
      "vision": 2620,
      "प्रधानमन्त्री": 2621,
      "char": 2622,
      "मुख्य": 2623,
      "स्थ्य": 2624,
      "market": 2625,
      "ief": 2626,
      "र्य": 2627,
      "during": 2628,
      "So": 2629,
      "han": 2630,
      "स्थापना": 2631,
      "इरा": 2632,
      "abab": 2633,
      "present": 2634,
      "show": 2635,
      "cei": 2636,
      "सञ्चालन": 2637,
      "ord": 2638,
      "पहिले": 2639,
      "leader": 2640,
      "Cha": 2641,
      "नियम": 2642,
      "अब": 2643,
      "lack": 2644,
      "प्रका": 2645,
      "down": 2646,
      "uation": 2647,
      "र्थी": 2648,
      "घोष": 2649,
      "son": 2650,
      "दिए": 2651,
      "ug": 2652,
      "adi": 2653,
      "लित": 2654,
      "्री": 2655,
      "एम": 2656,
      "उत्पादन": 2657,
      "ept": 2658,
      "लाग्": 2659,
      "अमेरिका": 2660,
      "ject": 2661,
      "गाउँ": 2662,
      "निर्देश": 2663,
      "ev": 2664,
      "system": 2665,
      "line": 2666,
      "exp": 2667,
      "women": 2668,
      "यस्तो": 2669,
      "परिवर्त": 2670,
      "यम": 2671,
      "oup": 2672,
      "posi": 2673,
      "ices": 2674,
      "ult": 2675,
      "चल": 2676,
      "प्रभाव": 2677,
      "ौँ": 2678,
      "constitution": 2679,
      "वित": 2680,
      "विधि": 2681,
      "न्तर": 2682,
      "संयुक्त": 2683,
      "टमा": 2684,
      "नेपालको": 2685,
      "Be": 2686,
      "000": 2687,
      "सर्व": 2688,
      "जस्तो": 2689,
      "\"“": 2690,
      "school": 2691,
      "लक्ष": 2692,
      "home": 2693,
      "water": 2694,
      "स्वास्थ्य": 2695,
      "ick": 2696,
      "विरुद्ध": 2697,
      "बर": 2698,
      "tors": 2699,
      "comple": 2700,
      "थिएन": 2701,
      "10": 2702,
      "अगा": 2703,
      "उनीहरूले": 2704,
      "villa": 2705,
      "construc": 2706,
      "नगर": 2707,
      "बाहिर": 2708,
      "........": 2709,
      "्रे": 2710,
      "cam": 2711,
      "हरूका": 2712,
      "सबैभन्दा": 2713,
      "help": 2714,
      "यात्र": 2715,
      "घटना": 2716,
      "ants": 2717,
      "सिक": 2718,
      "सड": 2719,
      "At": 2720,
      "सका": 2721,
      "सङ्": 2722,
      "area": 2723,
      "प्रजा": 2724,
      "mat": 2725,
      "Man": 2726,
      "ternational": 2727,
      "ody": 2728,
      "लोक": 2729,
      "उपलब्ध": 2730,
      "sha": 2731,
      "राजा": 2732,
      "Pol": 2733,
      "air": 2734,
      "दल": 2735,
      "जस्ता": 2736,
      "offici": 2737,
      "माले": 2738,
      "recei": 2739,
      "१५": 2740,
      "cret": 2741,
      "सार्व": 2742,
      "mission": 2743,
      "धु": 2744,
      "मण": 2745,
      "employ": 2746,
      "Pro": 2747,
      "क्षि": 2748,
      "ati": 2749,
      "days": 2750,
      "children": 2751,
      "og": 2752,
      "acy": 2753,
      "र्च": 2754,
      "चित्र": 2755,
      "प्रस्ताव": 2756,
      "यात": 2757,
      "जानकारी": 2758,
      "Rs": 2759,
      "मुलु": 2760,
      "जीवन": 2761,
      "Prime": 2762,
      "दिएको": 2763,
      "बाल": 2764,
      "क्षम": 2765,
      "पश्": 2766,
      "्योग": 2767,
      "बहा": 2768,
      "द्दा": 2769,
      "थो": 2770,
      "just": 2771,
      "cts": 2772,
      "उँछ": 2773,
      "hy": 2774,
      "number": 2775,
      "बैंक": 2776,
      "भनि": 2777,
      "विश्वास": 2778,
      "tici": 2779,
      "ative": 2780,
      "ik": 2781,
      "न्दो": 2782,
      "धी": 2783,
      "लिन": 2784,
      "थे": 2785,
      "सै": 2786,
      "security": 2787,
      "national": 2788,
      "बढा": 2789,
      "नेपालमा": 2790,
      "taken": 2791,
      "पाँच": 2792,
      "conf": 2793,
      "parties": 2794,
      "happ": 2795,
      "यसलाई": 2796,
      "दिनु": 2797,
      "तिर": 2798,
      "going": 2799,
      "health": 2800,
      "लिक": 2801,
      "नागर": 2802,
      "without": 2803,
      "चौ": 2804,
      "सरकारी": 2805,
      "oney": 2806,
      "घोषणा": 2807,
      "नागरिक": 2808,
      "फु": 2809,
      "outh": 2810,
      "ights": 2811,
      "लाइ": 2812,
      "bas": 2813,
      "within": 2814,
      "त्यसैले": 2815,
      "pare": 2816,
      "ग्रह": 2817,
      "समाज": 2818,
      "संविधान": 2819,
      "अगाडि": 2820,
      "mor": 2821,
      "ament": 2822,
      "ety": 2823,
      "यहाँ": 2824,
      "मुद्दा": 2825,
      "हरूसँग": 2826,
      "election": 2827,
      "रोप": 2828,
      "ature": 2829,
      "न्स": 2830,
      "तर्फ": 2831,
      "प्रयास": 2832,
      "sible": 2833,
      "president": 2834,
      "आन्दो": 2835,
      "become": 2836,
      "current": 2837,
      "त्ता": 2838,
      "दुर": 2839,
      "mi": 2840,
      "प्रत्येक": 2841,
      "मन्त्रा": 2842,
      "अनुसन्": 2843,
      "नेतृ": 2844,
      "Bo": 2845,
      "demo": 2846,
      "ligh": 2847,
      "गति": 2848,
      "much": 2849,
      "थ्यो": 2850,
      "ds": 2851,
      "उत्तर": 2852,
      "पक": 2853,
      "bank": 2854,
      "षण": 2855,
      "five": 2856,
      "जनिक": 2857,
      "जित": 2858,
      "member": 2859,
      "China": 2860,
      "vari": 2861,
      "ठाउँ": 2862,
      "स्तार": 2863,
      "import": 2864,
      "Le": 2865,
      "शहर": 2866,
      "आफ्": 2867,
      "Ko": 2868,
      "रहे": 2869,
      "aw": 2870,
      "मन्त्रालय": 2871,
      "क्स": 2872,
      "ask": 2873,
      "requ": 2874,
      "company": 2875,
      "नेतृत्व": 2876,
      "सार्वजनिक": 2877,
      "right": 2878,
      "retur": 2879,
      "निर्वा": 2880,
      "कल": 2881,
      "different": 2882,
      "दार": 2883,
      "Cong": 2884,
      "body": 2885,
      "मको": 2886,
      "न्छन्": 2887,
      "दश": 2888,
      "वास्त": 2889,
      "ini": 2890,
      "action": 2891,
      "prom": 2892,
      "seem": 2893,
      "समु": 2894,
      "second": 2895,
      "तमा": 2896,
      "फिल्": 2897,
      "follow": 2898,
      "jo": 2899,
      "situation": 2900,
      "खि": 2901,
      "टोली": 2902,
      "भन्छन्": 2903,
      "Dis": 2904,
      "नाव": 2905,
      "बैठ": 2906,
      "टु": 2907,
      "educ": 2908,
      "given": 2909,
      "appe": 2910,
      "यदि": 2911,
      "शिक्षा": 2912,
      "ular": 2913,
      "another": 2914,
      "अदा": 2915,
      "निकाय": 2916,
      "हजार": 2917,
      "सचि": 2918,
      "book": 2919,
      "Congress": 2920,
      "म्मे": 2921,
      "प्रतिवेदन": 2922,
      "त्यसपछि": 2923,
      "परिवर्तन": 2924,
      "ल्प": 2925,
      "prote": 2926,
      "ges": 2927,
      "चो": 2928,
      "ट्": 2929,
      "change": 2930,
      "वारी": 2931,
      "atur": 2932,
      "अदालत": 2933,
      "बिक": 2934,
      "म्बर": 2935,
      "ised": 2936,
      "गरिरहेका": 2937,
      "थाले": 2938,
      "sol": 2939,
      "पुनर्": 2940,
      "Li": 2941,
      "द्य": 2942,
      "क्रा": 2943,
      "alle": 2944,
      "sm": 2945,
      "भारतीय": 2946,
      "colle": 2947,
      "app": 2948,
      "To": 2949,
      "ready": 2950,
      "तह": 2951,
      "ल्ने": 2952,
      "dition": 2953,
      "contin": 2954,
      "निश्": 2955,
      "सामान्य": 2956,
      "त्यहाँ": 2957,
      "os": 2958,
      "beli": 2959,
      "coming": 2960,
      "both": 2961,
      "कति": 2962,
      "Ad": 2963,
      "णाली": 2964,
      "ट्टा": 2965,
      "आयोजना": 2966,
      "दुवै": 2967,
      "करि": 2968,
      "भनेर": 2969,
      "भाषा": 2970,
      "कसरी": 2971,
      "पश्चि": 2972,
      "शासन": 2973,
      "थप": 2974,
      "अन्तर्राष्ट्रिय": 2975,
      "ब्या": 2976,
      "जग": 2977,
      "खर्च": 2978,
      "bers": 2979,
      "pay": 2980,
      "She": 2981,
      "यक": 2982,
      "ल्न": 2983,
      "Indian": 2984,
      "imple": 2985,
      "sign": 2986,
      "ling": 2987,
      "बुझ": 2988,
      "उल्लेख": 2989,
      "money": 2990,
      "Is": 2991,
      "ues": 2992,
      "demand": 2993,
      "tribu": 2994,
      "ought": 2995,
      "उनलाई": 2996,
      "क्रमण": 2997,
      "service": 2998,
      "विभाग": 2999,
      "न्व": 3000,
      "hak": 3001,
      "countries": 3002,
      "fied": 3003,
      "अलि": 3004,
      "द्र": 3005,
      "०००": 3006,
      "lin": 3007,
      "polic": 3008,
      "Tr": 3009,
      "उँछन्": 3010,
      "indus": 3011,
      "पर्य": 3012,
      "हरुलाई": 3013,
      "committee": 3014,
      "बाटो": 3015,
      "President": 3016,
      "अनुसन्धान": 3017,
      "ani": 3018,
      "since": 3019,
      "देखिन्छ": 3020,
      "दक्षि": 3021,
      "विद्यार्थी": 3022,
      "tech": 3023,
      "ris": 3024,
      "foreign": 3025,
      "वस्तु": 3026,
      "निधि": 3027,
      "भर्": 3028,
      "धारण": 3029,
      "राष्ट्रपति": 3030,
      "स्थापन": 3031,
      "week": 3032,
      "गण": 3033,
      "tar": 3034,
      "Sub": 3035,
      "पद": 3036,
      "decis": 3037,
      "let": 3038,
      "राई": 3039,
      "buil": 3040,
      "ctive": 3041,
      "according": 3042,
      "प्रकाश": 3043,
      "na": 3044,
      "युद्ध": 3045,
      "office": 3046,
      "ana": 3047,
      "ste": 3048,
      "१२": 3049,
      "संख्या": 3050,
      "ush": 3051,
      "लका": 3052,
      "ref": 3053,
      "थाहा": 3054,
      "dr": 3055,
      "process": 3056,
      "estab": 3057,
      "सकिन्छ": 3058,
      "स्पष्ट": 3059,
      "ममा": 3060,
      "सम्बन्धी": 3061,
      "went": 3062,
      "interest": 3063,
      "concer": 3064,
      "ago": 3065,
      "तार": 3066,
      "अझै": 3067,
      "तिहा": 3068,
      "post": 3069,
      "डर": 3070,
      "15": 3071,
      "'\"": 3072,
      "Pe": 3073,
      "hadur": 3074,
      "दोस्रो": 3075,
      "ield": 3076,
      "vir": 3077,
      "imi": 3078,
      "उपा": 3079,
      "दुर्": 3080,
      "leaders": 3081,
      "उद्योग": 3082,
      "सम्बन्धित": 3083,
      "मानव": 3084,
      "Bahadur": 3085,
      "कू": 3086,
      "nor": 3087,
      "कानुन": 3088,
      "ination": 3089,
      "विरोध": 3090,
      "bro": 3091,
      "प्रमाण": 3092,
      "बहादुर": 3093,
      "Maoists": 3094,
      "लामो": 3095,
      "artment": 3096,
      "reli": 3097,
      "ged": 3098,
      "नाले": 3099,
      "various": 3100,
      "उँदै": 3101,
      "बने": 3102,
      "village": 3103,
      "tour": 3104,
      "acc": 3105,
      "बस": 3106,
      "पालिका": 3107,
      "निम्": 3108,
      "प्रतिनिधि": 3109,
      "अन्तर्गत": 3110,
      "आफ्ना": 3111,
      "वाह": 3112,
      "पठा": 3113,
      "still": 3114,
      "want": 3115,
      "आँ": 3116,
      "जंग": 3117,
      "author": 3118,
      "Sun": 3119,
      "सचिव": 3120,
      "ृत": 3121,
      "You": 3122,
      "हुँदा": 3123,
      "Raj": 3124,
      "उनका": 3125,
      "cil": 3126,
      "अन्त्य": 3127,
      "Commit": 3128,
      "ww": 3129,
      "eder": 3130,
      "information": 3131,
      "हाल": 3132,
      "सँगै": 3133,
      "att": 3134,
      "working": 3135,
      "द्व": 3136,
      "्नु": 3137,
      "पुरा": 3138,
      "युवा": 3139,
      "ched": 3140,
      "discus": 3141,
      "आर": 3142,
      "US": 3143,
      "लियो": 3144,
      "six": 3145,
      "compe": 3146,
      "construction": 3147,
      "सिं": 3148,
      "सूचना": 3149,
      "रिक": 3150,
      "net": 3151,
      "Ro": 3152,
      "blo": 3153,
      "...": 3154,
      "lished": 3155,
      "social": 3156,
      "बजे": 3157,
      "bi": 3158,
      "Amer": 3159,
      "श्रे": 3160,
      "मार": 3161,
      "भ्रमण": 3162,
      "wal": 3163,
      "prof": 3164,
      "वटा": 3165,
      "cra": 3166,
      "esh": 3167,
      "काली": 3168,
      "group": 3169,
      "tral": 3170,
      "तिम": 3171,
      "enter": 3172,
      "decision": 3173,
      "भइरहेको": 3174,
      "विचार": 3175,
      "११": 3176,
      "क्रममा": 3177,
      "Americ": 3178,
      "दर्शन": 3179,
      "आयोग": 3180,
      "vic": 3181,
      "ler": 3182,
      "गरिरहेको": 3183,
      "today": 3184,
      "मेल": 3185,
      "family": 3186,
      "Fo": 3187,
      "ung": 3188,
      "cretary": 3189,
      "फ्": 3190,
      "suc": 3191,
      "नियन्त्र": 3192,
      "विधा": 3193,
      "imilar": 3194,
      "sed": 3195,
      "consu": 3196,
      "half": 3197,
      "प्रणाली": 3198,
      "pop": 3199,
      "Me": 3200,
      "पूरा": 3201,
      "सामाजिक": 3202,
      "rela": 3203,
      "पर्दछ": 3204,
      "साथै": 3205,
      "hes": 3206,
      "न्यु": 3207,
      "tha": 3208,
      "win": 3209,
      "ग्री": 3210,
      "वर्ग": 3211,
      "Committee": 3212,
      "jor": 3213,
      "big": 3214,
      "sk": 3215,
      "bility": 3216,
      "गर्नेछ": 3217,
      "ying": 3218,
      "बारेमा": 3219,
      "प्रक्रिया": 3220,
      "ठो": 3221,
      "औं": 3222,
      "सुधार": 3223,
      "times": 3224,
      "प्रो": 3225,
      "medi": 3226,
      "मधे": 3227,
      "Police": 3228,
      "ort": 3229,
      "बताउ": 3230,
      "Act": 3231,
      "एपछि": 3232,
      "हेर": 3233,
      "करिब": 3234,
      "put": 3235,
      "भरि": 3236,
      "held": 3237,
      "bed": 3238,
      "ways": 3239,
      "National": 3240,
      "Wor": 3241,
      "sector": 3242,
      "tig": 3243,
      "bar": 3244,
      "सीमा": 3245,
      "परिष": 3246,
      "What": 3247,
      "ilit": 3248,
      "pass": 3249,
      "bring": 3250,
      "ama": 3251,
      "United": 3252,
      "ब्रा": 3253,
      "cul": 3254,
      "sive": 3255,
      "top": 3256,
      "बिक्री": 3257,
      "Lo": 3258,
      "told": 3259,
      "When": 3260,
      "संस्": 3261,
      "liament": 3262,
      "वृद्धि": 3263,
      "फर": 3264,
      "mun": 3265,
      "months": 3266,
      "fri": 3267,
      "स्वीकार": 3268,
      "सडक": 3269,
      "ency": 3270,
      "ages": 3271,
      "ball": 3272,
      "आएका": 3273,
      "point": 3274,
      "gun": 3275,
      "ताल": 3276,
      "around": 3277,
      "game": 3278,
      "रकम": 3279,
      "eas": 3280,
      "poin": 3281,
      "ण्ट": 3282,
      "१८": 3283,
      "tration": 3284,
      "नुहुन्छ": 3285,
      "क्षित": 3286,
      "प्या": 3287,
      "च्या": 3288,
      "स्रोत": 3289,
      "सय": 3290,
      "अध्ययन": 3291,
      "जन्": 3292,
      "left": 3293,
      "लामा": 3294,
      "ुर्ुर्ुर्ुर्": 3295,
      "सहभाग": 3296,
      "स्थान": 3297,
      "श्वर": 3298,
      "Coun": 3299,
      "spo": 3300,
      "making": 3301,
      "rights": 3302,
      "शान्ति": 3303,
      "bre": 3304,
      "ls": 3305,
      "saying": 3306,
      "writ": 3307,
      "friend": 3308,
      "economic": 3309,
      "उठा": 3310,
      "बद्ध": 3311,
      "डियो": 3312,
      "hold": 3313,
      "expe": 3314,
      "व्यवसायी": 3315,
      "बनाउन": 3316,
      "bal": 3317,
      "mers": 3318,
      "र्ष": 3319,
      "अस्प": 3320,
      "Ram": 3321,
      "ques": 3322,
      "चन": 3323,
      "मले": 3324,
      "हिं": 3325,
      "रको": 3326,
      "keep": 3327,
      "Jo": 3328,
      "”\"": 3329,
      "remain": 3330,
      "लक": 3331,
      "reac": 3332,
      "सिर्": 3333,
      "कृत": 3334,
      "१६": 3335,
      "नेट": 3336,
      "ham": 3337,
      "लक्ष्य": 3338,
      "ately": 3339,
      "३०": 3340,
      "एल": 3341,
      "cas": 3342,
      "अनुमति": 3343,
      "Ex": 3344,
      "दक्षिण": 3345,
      "period": 3346,
      "पर्नेछ": 3347,
      "तपाईं": 3348,
      "ML": 3349,
      "व्यवसाय": 3350,
      "तल": 3351,
      "Dep": 3352,
      "Nepalese": 3353,
      "आयो": 3354,
      "जाने": 3355,
      "ey": 3356,
      "परेको": 3357,
      "आफ्नै": 3358,
      "amp": 3359,
      "तयार": 3360,
      "increase": 3361,
      "ross": 3362,
      "कांग्रे": 3363,
      "12": 3364,
      "lated": 3365,
      "That": 3366,
      "ून": 3367,
      "यात्रा": 3368,
      "पुग्": 3369,
      "गर्नुभयो": 3370,
      "agree": 3371,
      "major": 3372,
      "cl": 3373,
      "अवस्थामा": 3374,
      "शर्": 3375,
      "Now": 3376,
      "यसै": 3377,
      "ticip": 3378,
      "stre": 3379,
      "general": 3380,
      "order": 3381,
      "द्द": 3382,
      "ering": 3383,
      "ठी": 3384,
      "til": 3385,
      "ँदा": 3386,
      "चला": 3387,
      "city": 3388,
      "भएपछि": 3389,
      "भएर": 3390,
      "belie": 3391,
      "ric": 3392,
      "tend": 3393,
      "िएको": 3394,
      "क्षक": 3395,
      "ल्यान्ड": 3396,
      "अन्तिम": 3397,
      "वं": 3398,
      "प्रश्न": 3399,
      "problem": 3400,
      "ird": 3401,
      "निश्चित": 3402,
      "विदेशी": 3403,
      "सहमति": 3404,
      "Off": 3405,
      "Tha": 3406,
      "done": 3407,
      "give": 3408,
      "Maoist": 3409,
      "बहु": 3410,
      "former": 3411,
      "लाख": 3412,
      "स्वतन्त्र": 3413,
      "equ": 3414,
      "gre": 3415,
      "ides": 3416,
      "necess": 3417,
      "विस्तार": 3418,
      "human": 3419,
      "नाइ": 3420,
      "recent": 3421,
      "clear": 3422,
      "त्यु": 3423,
      "ports": 3424,
      "सक्छन्": 3425,
      "कथा": 3426,
      "identi": 3427,
      "निकै": 3428,
      "chang": 3429,
      "तिनीहरू": 3430,
      "औष": 3431,
      "ज्या": 3432,
      "माइ": 3433,
      "issue": 3434,
      "control": 3435,
      "अफ": 3436,
      "छोरा": 3437,
      "rence": 3438,
      "मर्": 3439,
      "train": 3440,
      "field": 3441,
      "ale": 3442,
      "षि": 3443,
      "जर्": 3444,
      "cannot": 3445,
      "\"'": 3446,
      "मृत्यु": 3447,
      "शै": 3448,
      "मार्ग": 3449,
      "सिर्जना": 3450,
      "tiz": 3451,
      "नियन्त्रण": 3452,
      "बढ्": 3453,
      "रिया": 3454,
      "समयमा": 3455,
      "उद्": 3456,
      "ized": 3457,
      "खेला": 3458,
      "region": 3459,
      "Mar": 3460,
      "support": 3461,
      "few": 3462,
      "az": 3463,
      "nes": 3464,
      "tered": 3465,
      "past": 3466,
      "संघीय": 3467,
      "हप्ता": 3468,
      "काल": 3469,
      "hol": 3470,
      "Of": 3471,
      "allow": 3472,
      "international": 3473,
      "स्त्र": 3474,
      "संरक्षण": 3475,
      "appro": 3476,
      "समाचार": 3477,
      "आन्दोलन": 3478,
      "पुस्त": 3479,
      "कुल": 3480,
      "स्टे": 3481,
      "grow": 3482,
      "lim": 3483,
      "प्रकार": 3484,
      "गे": 3485,
      "custo": 3486,
      "report": 3487,
      "quar": 3488,
      "ऋण": 3489,
      "पढ": 3490,
      "नुहोस्": 3491,
      "movement": 3492,
      "ious": 3493,
      "Jan": 3494,
      "spital": 3495,
      "bur": 3496,
      "रुप": 3497,
      "finan": 3498,
      "seen": 3499,
      "५०": 3500,
      "tt": 3501,
      "लिएको": 3502,
      "छल": 3503,
      "uk": 3504,
      "Sing": 3505,
      "साँ": 3506,
      "किनभने": 3507,
      "position": 3508,
      "Office": 3509,
      "Mon": 3510,
      "care": 3511,
      "फेरि": 3512,
      "capital": 3513,
      "next": 3514,
      "गीत": 3515,
      "विद्यु": 3516,
      "angu": 3517,
      "अपे": 3518,
      "कोष": 3519,
      "जंगली": 3520,
      "ported": 3521,
      "व्यापार": 3522,
      "जल": 3523,
      "भन्दै": 3524,
      "policy": 3525,
      "बनाउने": 3526,
      "बताउनुभयो": 3527,
      "घु": 3528,
      "call": 3529,
      "light": 3530,
      "hic": 3531,
      "रोड": 3532,
      "एफ": 3533,
      "रूप": 3534,
      "दछन्": 3535,
      "त्यस्तो": 3536,
      "think": 3537,
      "खेलाडी": 3538,
      "vate": 3539,
      "later": 3540,
      "mother": 3541,
      "एमाले": 3542,
      "छैनन्": 3543,
      "claim": 3544,
      "kil": 3545,
      "लाइन": 3546,
      "UML": 3547,
      "District": 3548,
      "नगरपालिका": 3549,
      "सैनिक": 3550,
      "मिलियन": 3551,
      "important": 3552,
      "उपचार": 3553,
      "loc": 3554,
      "हेक": 3555,
      "His": 3556,
      "आदेश": 3557,
      "तत्": 3558,
      "ror": 3559,
      "ऐन": 3560,
      "दफा": 3561,
      "tro": 3562,
      "अति": 3563,
      "सूची": 3564,
      "peace": 3565,
      "particip": 3566,
      "सम्पा": 3567,
      "received": 3568,
      "नजिक": 3569,
      "food": 3570,
      "अवसर": 3571,
      "possible": 3572,
      "सहित": 3573,
      "िका": 3574,
      "urs": 3575,
      "दर्श": 3576,
      "उक्त": 3577,
      "onment": 3578,
      "Ministry": 3579,
      "cracy": 3580,
      "बालिका": 3581,
      "ivers": 3582,
      "जहाँ": 3583,
      "increased": 3584,
      "सुविधा": 3585,
      "आदि": 3586,
      "near": 3587,
      "young": 3588,
      "invest": 3589,
      "सिया": 3590,
      "officials": 3591,
      "यति": 3592,
      "lot": 3593,
      "कार्यान्व": 3594,
      "गठन": 3595,
      "ources": 3596,
      "सम्झौ": 3597,
      "side": 3598,
      "Commission": 3599,
      "वरि": 3600,
      "Bank": 3601,
      "among": 3602,
      "सम्भावना": 3603,
      "Te": 3604,
      "व्यवस्थापन": 3605,
      "रै": 3606,
      "AN": 3607,
      "छे": 3608,
      "wan": 3609,
      "Rep": 3610,
      "reason": 3611,
      "हुँदैन": 3612,
      "society": 3613,
      "पोख": 3614,
      "ca": 3615,
      "ured": 3616,
      "father": 3617,
      "won": 3618,
      "ata": 3619,
      "16": 3620,
      "den": 3621,
      "necessary": 3622,
      "30": 3623,
      "उनीहरूको": 3624,
      "रिद": 3625,
      "ames": 3626,
      "वाता": 3627,
      "१४": 3628,
      "exam": 3629,
      "निजी": 3630,
      "took": 3631,
      "विज्ञा": 3632,
      "तिय": 3633,
      "सेना": 3634,
      "proper": 3635,
      "ork": 3636,
      "Dr": 3637,
      "understand": 3638,
      "large": 3639,
      "हरा": 3640,
      "ousand": 3641,
      "म्भ": 3642,
      "बाहेक": 3643,
      "गएको": 3644,
      "प्ट": 3645,
      "Some": 3646,
      "१७": 3647,
      "agement": 3648,
      "लग्न": 3649,
      "पूर्वक": 3650,
      "adv": 3651,
      "education": 3652,
      "Develop": 3653,
      "class": 3654,
      "reached": 3655,
      "lit": 3656,
      "निर": 3657,
      "सम्भव": 3658,
      "treat": 3659,
      "खरिद": 3660,
      "वार्ता": 3661,
      "Bar": 3662,
      "night": 3663,
      "uro": 3664,
      "ula": 3665,
      "कालीन": 3666,
      "great": 3667,
      "aged": 3668,
      "लिएर": 3669,
      "गै": 3670,
      "पृ": 3671,
      "कान": 3672,
      "rup": 3673,
      "गरिएका": 3674,
      "पुर्या": 3675,
      "कम्": 3676,
      "imp": 3677,
      "attack": 3678,
      "आउने": 3679,
      "ठूला": 3680,
      "members": 3681,
      "सात": 3682,
      "Co": 3683,
      "त्रि": 3684,
      "icip": 3685,
      "langu": 3686,
      "अन": 3687,
      "anti": 3688,
      "स्पर्": 3689,
      "स्क": 3690,
      "tax": 3691,
      "based": 3692,
      "अवधि": 3693,
      "invol": 3694,
      "With": 3695,
      "वातावरण": 3696,
      "फत": 3697,
      "ession": 3698,
      "announ": 3699,
      "पैसा": 3700,
      "basis": 3701,
      "परिषद्": 3702,
      "hether": 3703,
      "sociation": 3704,
      "साह": 3705,
      "समावेश": 3706,
      "ial": 3707,
      "श्रेष्ठ": 3708,
      "lay": 3709,
      ":\"": 3710,
      "Government": 3711,
      "oc": 3712,
      "वक्ता": 3713,
      "जस": 3714,
      "special": 3715,
      "पाउने": 3716,
      "हुँदै": 3717,
      "Wh": 3718,
      "amoun": 3719,
      "ont": 3720,
      "ट्या": 3721,
      "project": 3722,
      "Development": 3723,
      "Kar": 3724,
      "टाइ": 3725,
      "अभिया": 3726,
      "अधिक": 3727,
      "small": 3728,
      "ल्क": 3729,
      "देशको": 3730,
      "आक्रमण": 3731,
      "search": 3732,
      "संलग्न": 3733,
      "अं": 3734,
      "टको": 3735,
      "propos": 3736,
      "chief": 3737,
      "तपाईँले": 3738,
      "iday": 3739,
      "ब्रि": 3740,
      "अपेक्षा": 3741,
      "वासी": 3742,
      "भावित": 3743,
      "चीन": 3744,
      "साय": 3745,
      "ired": 3746,
      "asing": 3747,
      "गरिन्छ": 3748,
      "students": 3749,
      "18": 3750,
      "धानी": 3751,
      "प्प": 3752,
      "समुदाय": 3753,
      "areas": 3754,
      "things": 3755,
      "del": 3756,
      "र्चा": 3757,
      "ors": 3758,
      "तम": 3759,
      "पीड": 3760,
      "real": 3761,
      "dom": 3762,
      "sia": 3763,
      "एकी": 3764,
      "pen": 3765,
      "ze": 3766,
      "दैनन्": 3767,
      "ban": 3768,
      "feel": 3769,
      "छाडि": 3770,
      "visit": 3771,
      "paign": 3772,
      "राख्न": 3773,
      "पन": 3774,
      "tice": 3775,
      "Even": 3776,
      "स्तर": 3777,
      "statement": 3778,
      "each": 3779,
      "तथ": 3780,
      "employe": 3781,
      "टर्": 3782,
      "rested": 3783,
      "चिनि": 3784,
      "चलचित्र": 3785,
      "रोग": 3786,
      "समर्थ": 3787,
      "pursu": 3788,
      "mus": 3789,
      "बालबालिका": 3790,
      "Shres": 3791,
      "provide": 3792,
      "conduc": 3793,
      "प्रविधि": 3794,
      "फेला": 3795,
      "Shrestha": 3796,
      "competi": 3797,
      "news": 3798,
      "vironment": 3799,
      "ings": 3800,
      "विगत": 3801,
      "fer": 3802,
      "पाठ": 3803,
      "प्रभु": 3804,
      "दर्ता": 3805,
      "ented": 3806,
      "दाता": 3807,
      "cord": 3808,
      "मनो": 3809,
      "democracy": 3810,
      "भएकाले": 3811,
      "वान": 3812,
      "sts": 3813,
      "शील": 3814,
      "घण्ट": 3815,
      "शब्": 3816,
      "sibility": 3817,
      "प्रदान": 3818,
      "लागेको": 3819,
      "mid": 3820,
      "jour": 3821,
      "yal": 3822,
      "न्त्रिक": 3823,
      "तिक": 3824,
      "डान": 3825,
      "already": 3826,
      "प्रसा": 3827,
      "चाहि": 3828,
      "दियो": 3829,
      "financial": 3830,
      "free": 3831,
      "uty": 3832,
      "गर्नुपर्छ": 3833,
      "diffic": 3834,
      "11": 3835,
      "nolo": 3836,
      "हक": 3837,
      "Council": 3838,
      "यौं": 3839,
      "known": 3840,
      "चुनाव": 3841,
      "comes": 3842,
      "चिन्": 3843,
      "चरण": 3844,
      "Pras": 3845,
      "idered": 3846,
      "न्याय": 3847,
      "केन्द्रीय": 3848,
      "ष्ण": 3849,
      "आत्": 3850,
      "छलफल": 3851,
      "gin": 3852,
      "फुट": 3853,
      "considered": 3854,
      "ures": 3855,
      "strong": 3856,
      "ben": 3857,
      "problems": 3858,
      "औषधि": 3859,
      "ave": 3860,
      "कारो": 3861,
      "त्यही": 3862,
      "न्दा": 3863,
      "हरुमा": 3864,
      "भ्या": 3865,
      "आशा": 3866,
      "विषयमा": 3867,
      "सिंह": 3868,
      "sho": 3869,
      "ior": 3870,
      "सान": 3871,
      "साथी": 3872,
      "वर्षको": 3873,
      "दिइ": 3874,
      "too": 3875,
      "sy": 3876,
      "१३": 3877,
      "हात": 3878,
      "ग्या": 3879,
      "Gener": 3880,
      "छिन्": 3881,
      "initi": 3882,
      "लिने": 3883,
      "संशो": 3884,
      "शब्द": 3885,
      "aila": 3886,
      "नन्": 3887,
      "dri": 3888,
      "नभएको": 3889,
      "nal": 3890,
      "बाब": 3891,
      "dies": 3892,
      "media": 3893,
      "आधारमा": 3894,
      "World": 3895,
      "nation": 3896,
      "भूमिका": 3897,
      "success": 3898,
      "campaign": 3899,
      "तान्त्रिक": 3900,
      "देशमा": 3901,
      "व्यापक": 3902,
      "speci": 3903,
      "भेट": 3904,
      "सर्वो": 3905,
      "lear": 3906,
      "brought": 3907,
      "pain": 3908,
      "न्तरण": 3909,
      "irman": 3910,
      "सकेका": 3911,
      "abababab": 3912,
      "सरकारको": 3913,
      "तरि": 3914,
      "ैँ": 3915,
      "reach": 3916,
      "Kum": 3917,
      "sco": 3918,
      "परीक्षण": 3919,
      "लब": 3920,
      "पूर्ति": 3921,
      "film": 3922,
      "जिम्मे": 3923,
      "प्रसाद": 3924,
      "experi": 3925,
      "आरोप": 3926,
      "अभाव": 3927,
      "खण्ड": 3928,
      "िकि": 3929,
      "तेस्रो": 3930,
      "Oli": 3931,
      "कार्यकर्ता": 3932,
      "effe": 3933,
      "50": 3934,
      "face": 3935,
      "प्रहरीले": 3936,
      "बाँकी": 3937,
      "deter": 3938,
      "पोर्": 3939,
      "fun": 3940,
      "room": 3941,
      "addition": 3942,
      "fall": 3943,
      "billion": 3944,
      "त्वपूर्ण": 3945,
      "agar": 3946,
      "धर्": 3947,
      "सेट": 3948,
      "ability": 3949,
      "building": 3950,
      "्यार": 3951,
      "ब्र": 3952,
      "विश्वविद्यालय": 3953,
      "पदा": 3954,
      "मात्रै": 3955,
      "वृत्ति": 3956,
      "augh": 3957,
      "थापा": 3958,
      "vio": 3959,
      "court": 3960,
      "आमा": 3961,
      "using": 3962,
      "da": 3963,
      "प्रि": 3964,
      "ising": 3965,
      "tre": 3966,
      "ederal": 3967,
      "पुरु": 3968,
      "organization": 3969,
      "सां": 3970,
      "परिणा": 3971,
      "ually": 3972,
      "truc": 3973,
      "बोर्ड": 3974,
      "सहा": 3975,
      "सम्पत्ति": 3976,
      "समाधान": 3977,
      "idence": 3978,
      "ats": 3979,
      "All": 3980,
      "means": 3981,
      "न्दु": 3982,
      "Prasad": 3983,
      "ense": 3984,
      "seven": 3985,
      "ground": 3986,
      "टेलि": 3987,
      "Sha": 3988,
      "Similar": 3989,
      "पीडित": 3990,
      "पछाडि": 3991,
      "private": 3992,
      "ail": 3993,
      "बतायो": 3994,
      "pic": 3995,
      "क्न": 3996,
      "जय": 3997,
      "पुरुष": 3998,
      "appear": 3999,
      "cratic": 4000,
      "गामी": 4001,
      "हालै": 4002,
      "workers": 4003,
      "must": 4004,
      "डिया": 4005,
      "गरिने": 4006,
      "div": 4007,
      "ute": 4008,
      "ल्यै": 4009,
      "third": 4010,
      "मद्द": 4011,
      "भई": 4012,
      "thousand": 4013,
      "तै": 4014,
      "२५": 4015,
      "immedi": 4016,
      "देव": 4017,
      "प्राय": 4018,
      "निया": 4019,
      "forward": 4020,
      "fur": 4021,
      "release": 4022,
      "प्रजातन्त्र": 4023,
      "जग्": 4024,
      "मद्दत": 4025,
      "मौसम": 4026,
      "टल": 4027,
      "दिएका": 4028,
      "2007": 4029,
      "community": 4030,
      "भण्ड": 4031,
      "योजन": 4032,
      "ढी": 4033,
      "डब्": 4034,
      "services": 4035,
      "Thapa": 4036,
      "live": 4037,
      "lt": 4038,
      "गर्छ": 4039,
      "citiz": 4040,
      "ared": 4041,
      "impro": 4042,
      "pub": 4043,
      "योग्य": 4044,
      "added": 4045,
      "यौ": 4046,
      "pped": 4047,
      "ओली": 4048,
      "जग्गा": 4049,
      "Similarly": 4050,
      "Shar": 4051,
      "taking": 4052,
      "ecu": 4053,
      "others": 4054,
      "amount": 4055,
      "role": 4056,
      ".\"\"": 4057,
      "निष्": 4058,
      "investig": 4059,
      "लेको": 4060,
      "language": 4061,
      "living": 4062,
      "ठि": 4063,
      "season": 4064,
      "fort": 4065,
      "कारोबार": 4066,
      "देश्य": 4067,
      "paren": 4068,
      "cut": 4069,
      "यस्ता": 4070,
      "शुल्क": 4071,
      "ह्": 4072,
      "वल": 4073,
      "प्रदर्शन": 4074,
      "arr": 4075,
      "कुमार": 4076,
      "Res": 4077,
      "adminis": 4078,
      "along": 4079,
      "Brit": 4080,
      "ilities": 4081,
      "ney": 4082,
      "सम्झौता": 4083,
      "ution": 4084,
      "milit": 4085,
      "लाग्छ": 4086,
      "fair": 4087,
      "died": 4088,
      "करोड": 4089,
      "सङ्ग": 4090,
      "सोम": 4091,
      "17": 4092,
      "अरू": 4093,
      "ँदै": 4094,
      "vehic": 4095,
      "अनुभव": 4096,
      "त्यसको": 4097,
      "unity": 4098,
      "गर्दछन्": 4099,
      "निर्देशक": 4100,
      "वायु": 4101,
      "दाबी": 4102,
      "mber": 4103,
      "Do": 4104,
      "formed": 4105,
      "व्यवहार": 4106,
      "२००७": 4107,
      "परियोजना": 4108,
      "elec": 4109,
      "inj": 4110,
      "परम": 4111,
      "seems": 4112,
      "environment": 4113,
      "गुण": 4114,
      "हरि": 4115,
      "गरेपछि": 4116,
      "समाप्त": 4117,
      "उद्देश्य": 4118,
      "विष्य": 4119,
      "कार्यान्वयन": 4120,
      "थु": 4121,
      "भविष्य": 4122,
      "नारा": 4123,
      "केट": 4124,
      "उँदा": 4125,
      "आवश्यकता": 4126,
      "why": 4127,
      "सुरक्षित": 4128,
      "जमा": 4129,
      "ried": 4130,
      "डमा": 4131,
      "sug": 4132,
      "विवरण": 4133,
      "ृह": 4134,
      "ढु": 4135,
      "ns": 4136,
      "wri": 4137,
      "tural": 4138,
      "मानिसहरू": 4139,
      "wards": 4140,
      "छोरी": 4141,
      "director": 4142,
      "फाइल": 4143,
      "Association": 4144,
      "उपभो": 4145,
      "परिणाम": 4146,
      "तीमा": 4147,
      "hour": 4148,
      "mind": 4149,
      "non": 4150,
      "गर्छन्": 4151,
      "पास": 4152,
      "semb": 4153,
      "तः": 4154,
      "पुरस्": 4155,
      "ष्टा": 4156,
      "पत्रकार": 4157,
      "never": 4158,
      "वास्तविक": 4159,
      "कप": 4160,
      "चान": 4161,
      "uary": 4162,
      "कृषि": 4163,
      "प्रस्तु": 4164,
      "undred": 4165,
      "General": 4166,
      "स्थापित": 4167,
      "Gr": 4168,
      "ka": 4169,
      "वित्": 4170,
      "operation": 4171,
      "मुलुक": 4172,
      "आत": 4173,
      "little": 4174,
      "एवं": 4175,
      "झ्": 4176,
      "तरण": 4177,
      "खाना": 4178,
      "बाही": 4179,
      "ज्य": 4180,
      "wise": 4181,
      "foot": 4182,
      "कृतिक": 4183,
      "affe": 4184,
      "inking": 4185,
      "दृष्टि": 4186,
      "तुल": 4187,
      "प्ले": 4188,
      "icipality": 4189,
      "iversity": 4190,
      "vice": 4191,
      "सल": 4192,
      "चिकि": 4193,
      "soon": 4194,
      "Euro": 4195,
      "ease": 4196,
      "चिकित्": 4197,
      "यद्य": 4198,
      "तियार": 4199,
      "प्रच": 4200,
      "बच": 4201,
      "पुनः": 4202,
      "legal": 4203,
      "agreement": 4204,
      "रुपै": 4205,
      "opport": 4206,
      "होला": 4207,
      "र्क": 4208,
      "हस्ता": 4209,
      "ference": 4210,
      "represent": 4211,
      "जन्म": 4212,
      "सहभागी": 4213,
      "जिल्लामा": 4214,
      "lier": 4215,
      "fire": 4216,
      "गम्": 4217,
      "fut": 4218,
      "परमप्रभु": 4219,
      "away": 4220,
      "atives": 4221,
      "tional": 4222,
      "निम्ति": 4223,
      "chan": 4224,
      "सम्पन्न": 4225,
      "ताका": 4226,
      "प्रवेश": 4227,
      "nology": 4228,
      "got": 4229,
      "वित्तीय": 4230,
      "मिटर": 4231,
      "gest": 4232,
      "death": 4233,
      "South": 4234,
      "pursuant": 4235,
      "कालो": 4236,
      "Department": 4237,
      "गोली": 4238,
      "इतिहा": 4239,
      "section": 4240,
      "became": 4241,
      "Po": 4242,
      "atis": 4243,
      "रामी": 4244,
      "जीव": 4245,
      "jects": 4246,
      "best": 4247,
      "Although": 4248,
      "Ira": 4249,
      "kes": 4250,
      "सञ्चार": 4251,
      "until": 4252,
      "नदी": 4253,
      "tained": 4254,
      "तयारी": 4255,
      "fund": 4256,
      "शुक्र": 4257,
      "yet": 4258,
      "खुला": 4259,
      "Chief": 4260,
      "One": 4261,
      "CP": 4262,
      "इरहेको": 4263,
      "पहा": 4264,
      "काग": 4265,
      "पार्न": 4266,
      "song": 4267,
      "अपरा": 4268,
      "jud": 4269,
      "असफल": 4270,
      "दिन्छ": 4271,
      "हिल्यै": 4272,
      "Therefore": 4273,
      "Iraq": 4274,
      "sele": 4275,
      ")\"": 4276,
      "study": 4277,
      "earth": 4278,
      "जले": 4279,
      "plain": 4280,
      "फोन": 4281,
      "tical": 4282,
      "कर्ष": 4283,
      "always": 4284,
      "बजारमा": 4285,
      "अन्तर": 4286,
      "implement": 4287,
      "घण्टा": 4288,
      "ञ्च": 4289,
      "promo": 4290,
      "जोड": 4291,
      "sal": 4292,
      "ury": 4293,
      "bir": 4294,
      "हामीलाई": 4295,
      "ison": 4296,
      "regis": 4297,
      "यद्यपि": 4298,
      "investment": 4299,
      "14": 4300,
      "grap": 4301,
      "minister": 4302,
      "भीर": 4303,
      "पर्या": 4304,
      "hig": 4305,
      "क्टर": 4306,
      "ceed": 4307,
      "साहि": 4308,
      "टिक": 4309,
      "speak": 4310,
      "tention": 4311,
      "खोज्": 4312,
      "हाम": 4313,
      "प्राथ": 4314,
      "100": 4315,
      "conne": 4316,
      "express": 4317,
      "डु": 4318,
      "sent": 4319,
      "reco": 4320,
      "dro": 4321,
      "kind": 4322,
      "सम्पूर्ण": 4323,
      "भुक्ता": 4324,
      "द्धा": 4325,
      "प्राथमिक": 4326,
      "question": 4327,
      "How": 4328,
      "Ser": 4329,
      "संग": 4330,
      "गुरु": 4331,
      "istan": 4332,
      "Col": 4333,
      "issues": 4334,
      "central": 4335,
      "पुर्": 4336,
      "साधारण": 4337,
      "Nor": 4338,
      "civil": 4339,
      "मेश्वर": 4340,
      "ended": 4341,
      "bud": 4342,
      "concerned": 4343,
      "क्रो": 4344,
      "States": 4345,
      "गरिनेछ": 4346,
      "reign": 4347,
      "गाडी": 4348,
      "ards": 4349,
      "dam": 4350,
      "following": 4351,
      "नाका": 4352,
      "मन्": 4353,
      "ked": 4354,
      "गर्नुपर्ने": 4355,
      "ump": 4356,
      "woman": 4357,
      "राख्ने": 4358,
      "वर्तमान": 4359,
      "People": 4360,
      "incident": 4361,
      "कारबाही": 4362,
      "future": 4363,
      "काले": 4364,
      "न्याया": 4365,
      "yan": 4366,
      "जर": 4367,
      "reed": 4368,
      "कहिल्यै": 4369,
      "sions": 4370,
      "कवि": 4371,
      "सानो": 4372,
      "Madhe": 4373,
      "तापनि": 4374,
      "मार्फत": 4375,
      "दौ": 4376,
      "गौ": 4377,
      "May": 4378,
      "साहित्य": 4379,
      "incl": 4380,
      "पौ": 4381,
      "band": 4382,
      "वमा": 4383,
      "जको": 4384,
      "ल्ड": 4385,
      "मित": 4386,
      "difficult": 4387,
      "बुध": 4388,
      "Friday": 4389,
      "याद": 4390,
      "वितरण": 4391,
      "outs": 4392,
      "increasing": 4393,
      "भुक्तानी": 4394,
      "एकै": 4395,
      "पुगेको": 4396,
      "etc": 4397,
      "जनाएको": 4398,
      "बस्ने": 4399,
      "किलो": 4400,
      "संरचना": 4401,
      "चेत": 4402,
      ".,": 4403,
      "short": 4404,
      "killed": 4405,
      "च्चा": 4406,
      "पाल": 4407,
      "संशोधन": 4408,
      "Or": 4409,
      "Europe": 4410,
      "iding": 4411,
      "Spe": 4412,
      "raised": 4413,
      "ternal": 4414,
      "ger": 4415,
      "ountain": 4416,
      "पुस्तक": 4417,
      "टै": 4418,
      "sembly": 4419,
      "hara": 4420,
      "हरण": 4421,
      "क्लि": 4422,
      "start": 4423,
      "tel": 4424,
      "जति": 4425,
      "नेक": 4426,
      "यसरी": 4427,
      "आगामी": 4428,
      "इँ": 4429,
      "अग्र": 4430,
      "ailed": 4431,
      "सक्षम": 4432,
      "नुपर्छ": 4433,
      "लिया": 4434,
      "Monday": 4435,
      "तको": 4436,
      "पर्यो": 4437,
      "lan": 4438,
      "लागू": 4439,
      "हल": 4440,
      "मर": 4441,
      "anda": 4442,
      "मिति": 4443,
      "गम्भीर": 4444,
      "ulation": 4445,
      "trying": 4446,
      "कुञ्": 4447,
      "price": 4448,
      "पश्चिम": 4449,
      "key": 4450,
      "fact": 4451,
      "AP": 4452,
      "एच": 4453,
      "force": 4454,
      "production": 4455,
      "aring": 4456,
      "Wed": 4457,
      "ँड": 4458,
      "Bir": 4459,
      "anies": 4460,
      "कायम": 4461,
      "total": 4462,
      "प्रशासन": 4463,
      "विवाद": 4464,
      "atch": 4465,
      "disease": 4466,
      "सजि": 4467,
      "direct": 4468,
      "least": 4469,
      "job": 4470,
      "मान्छ": 4471,
      "सेयर": 4472,
      "hit": 4473,
      "भाइ": 4474,
      "कार्यक्रममा": 4475,
      "industry": 4476,
      "ines": 4477,
      "sus": 4478,
      "फर्कि": 4479,
      "यही": 4480,
      "शरी": 4481,
      "military": 4482,
      "DC": 4483,
      "AT": 4484,
      "rule": 4485,
      "इरहेका": 4486,
      "ugg": 4487,
      "Bh": 4488,
      "accoun": 4489,
      "goods": 4490,
      "whether": 4491,
      "प्रतिस्पर्": 4492,
      "asked": 4493,
      "द्रा": 4494,
      "सौ": 4495,
      "कठि": 4496,
      "sell": 4497,
      "जनक": 4498,
      "love": 4499,
      "जनताको": 4500,
      "प्रार": 4501,
      "happen": 4502,
      "Wednes": 4503,
      "बनेको": 4504,
      "music": 4505,
      "ठे": 4506,
      "परा": 4507,
      "ran": 4508,
      "फ्या": 4509,
      "Wednesday": 4510,
      "Cor": 4511,
      "leadership": 4512,
      "विमान": 4513,
      "फरक": 4514,
      "Pok": 4515,
      "13": 4516,
      "सोमबार": 4517,
      "याता": 4518,
      "liter": 4519,
      "स्थल": 4520,
      "हान": 4521,
      "places": 4522,
      "story": 4523,
      "शाही": 4524,
      "शुक्रबार": 4525,
      "gn": 4526,
      "त्न": 4527,
      "सिङ": 4528,
      "ons": 4529,
      "fav": 4530,
      "कर्मी": 4531,
      "१९९": 4532,
      "कहिले": 4533,
      "आफूलाई": 4534,
      "Secretary": 4535,
      "Sunday": 4536,
      "vious": 4537,
      "availa": 4538,
      "रोजग": 4539,
      "परमेश्वर": 4540,
      "active": 4541,
      "pose": 4542,
      "फार": 4543,
      "ming": 4544,
      "once": 4545,
      "aper": 4546,
      "Au": 4547,
      "पर्याप्त": 4548,
      "Ru": 4549,
      "भएमा": 4550,
      "flow": 4551,
      "माध्य": 4552,
      "क्षति": 4553,
      "सलाई": 4554,
      "Thurs": 4555,
      "चयन": 4556,
      "कसैले": 4557,
      "यातायात": 4558,
      "आइत": 4559,
      "involved": 4560,
      "भनेको": 4561,
      "शुरु": 4562,
      "नाथ": 4563,
      "Singh": 4564,
      "def": 4565,
      "eng": 4566,
      "Thursday": 4567,
      "cand": 4568,
      "!\"": 4569,
      "hundred": 4570,
      "nam": 4571,
      "लबार": 4572,
      "politics": 4573,
      "pati": 4574,
      "aid": 4575,
      "Cour": 4576,
      "Tues": 4577,
      "आठ": 4578,
      "ेश": 4579,
      "राख्": 4580,
      "वाइ": 4581,
      "distribu": 4582,
      "यि": 4583,
      "हटा": 4584,
      "final": 4585,
      "ory": 4586,
      "दोष": 4587,
      "बुधबार": 4588,
      "हत्या": 4589,
      "किस्ता": 4590,
      "प्रारम्भ": 4591,
      "Tuesday": 4592,
      "सामग्री": 4593,
      "American": 4594,
      "उसले": 4595,
      "केटी": 4596,
      "खाली": 4597,
      "सध": 4598,
      "अस्वीकार": 4599,
      "army": 4600,
      "ize": 4601,
      "related": 4602,
      "wi": 4603,
      "उदा": 4604,
      "ils": 4605,
      "फ्रा": 4606,
      "prin": 4607,
      "ँदैन": 4608,
      "site": 4609,
      "epar": 4610,
      "cused": 4611,
      "expected": 4612,
      "prepare": 4613,
      "Chin": 4614,
      "test": 4615,
      "Kumar": 4616,
      "झे": 4617,
      "While": 4618,
      "अनुमान": 4619,
      "बन्न": 4620,
      "मती": 4621,
      "नेपालका": 4622,
      "गृह": 4623,
      "संसद": 4624,
      "assist": 4625,
      "Ab": 4626,
      "rate": 4627,
      "Ju": 4628,
      "शिक्षक": 4629,
      "address": 4630,
      "अधिकृत": 4631,
      "परम्प": 4632,
      "serious": 4633,
      "कसै": 4634,
      "घरमा": 4635,
      "vities": 4636,
      "संकट": 4637,
      "ater": 4638,
      "bit": 4639,
      "ट्रो": 4640,
      "योगि": 4641,
      "companies": 4642,
      "certain": 4643,
      "aff": 4644,
      "र्ता": 4645,
      "परम्परा": 4646,
      "emp": 4647,
      "ive": 4648,
      "draw": 4649,
      "hon": 4650,
      "return": 4651,
      "crim": 4652,
      "God": 4653,
      "ific": 4654,
      "tele": 4655,
      "मल": 4656,
      "यस्तै": 4657,
      "ider": 4658,
      "पूर्वा": 4659,
      "written": 4660,
      "मासिक": 4661,
      "छोड": 4662,
      "history": 4663,
      "व्यापी": 4664,
      "treatment": 4665,
      "mean": 4666,
      "प्पणी": 4667,
      "ध्": 4668,
      "विवाह": 4669,
      "tics": 4670,
      "महत्": 4671,
      "टिप्पणी": 4672,
      "सित": 4673,
      "त्यति": 4674,
      "Yad": 4675,
      ",'": 4676,
      "Party": 4677,
      "तया": 4678,
      "rug": 4679,
      "गमन": 4680,
      "यता": 4681,
      "कोठा": 4682,
      "दारी": 4683,
      "स्ती": 4684,
      "ध्यान": 4685,
      "ठाउँमा": 4686,
      "महसु": 4687,
      "remo": 4688,
      "गते": 4689,
      "काअनुसार": 4690,
      "arrested": 4691,
      "sex": 4692,
      "located": 4693,
      "Pak": 4694,
      "नुपर्ने": 4695,
      "achie": 4696,
      "ition": 4697,
      "Am": 4698,
      "कुरामा": 4699,
      "25": 4700,
      "provided": 4701,
      "ization": 4702,
      "budget": 4703,
      "En": 4704,
      "rish": 4705,
      "मान्य": 4706,
      "म्मा": 4707,
      "establish": 4708,
      "चाहन्छ": 4709,
      "केर": 4710,
      "center": 4711,
      "चै": 4712,
      "सम्पादन": 4713,
      "गराउने": 4714,
      "complete": 4715,
      "मिला": 4716,
      "न्ने": 4717,
      "ध्यक्ष": 4718,
      "एजे": 4719,
      "find": 4720,
      "works": 4721,
      "सम्बन्धमा": 4722,
      "199": 4723,
      "मका": 4724,
      "बाइ": 4725,
      "राजधानी": 4726,
      "activities": 4727,
      "hous": 4728,
      "natur": 4729,
      "जाति": 4730,
      "पोरे": 4731,
      "नलाई": 4732,
      "submit": 4733,
      "gether": 4734,
      "उत्पाद": 4735,
      "Chinese": 4736,
      "आइतबार": 4737,
      "heart": 4738,
      "organized": 4739,
      "Yah": 4740,
      "भग": 4741,
      "established": 4742,
      "लेर": 4743,
      "selves": 4744,
      "सकिने": 4745,
      "अहिलेसम्म": 4746,
      "van": 4747,
      "goal": 4748,
      "नेपालले": 4749,
      "भौ": 4750,
      "separ": 4751,
      "व्यक्त": 4752,
      "बाबु": 4753,
      "कर्पोरे": 4754,
      "द्या": 4755,
      "प्रजातान्त्रिक": 4756,
      "फी": 4757,
      "ij": 4758,
      "बिरामी": 4759,
      "training": 4760,
      "Yadav": 4761,
      "आश्": 4762,
      "alleng": 4763,
      "जक": 4764,
      "cribed": 4765,
      "ulti": 4766,
      "management": 4767,
      "रहने": 4768,
      "यसमा": 4769,
      "हीबार": 4770,
      "deal": 4771,
      "tent": 4772,
      "टले": 4773,
      "आग्रह": 4774,
      "tific": 4775,
      "ustice": 4776,
      "adding": 4777,
      "चय": 4778,
      "र्भ": 4779,
      "weh": 4780,
      "break": 4781,
      "Sharma": 4782,
      "Yahweh": 4783,
      "Bud": 4784,
      "wel": 4785,
      "नियमित": 4786,
      "शनि": 4787,
      "tradi": 4788,
      "endra": 4789,
      "उन्": 4790,
      "बैठक": 4791,
      "Satur": 4792,
      "धित": 4793,
      "यादव": 4794,
      "arri": 4795,
      "gen": 4796,
      "trade": 4797,
      "प्रतिस्पर्धा": 4798,
      "खास": 4799,
      "uce": 4800,
      "फै": 4801,
      "Court": 4802,
      "सल्ला": 4803,
      "daugh": 4804,
      "एन्": 4805,
      "किएको": 4806,
      "क्लब": 4807,
      "inf": 4808,
      "ण्डा": 4809,
      "cting": 4810,
      "अक्": 4811,
      "available": 4812,
      "मेरा": 4813,
      "मन्दि": 4814,
      "date": 4815,
      "लाको": 4816,
      "stay": 4817,
      "परेका": 4818,
      "lost": 4819,
      "प्रतिक्रिया": 4820,
      "close": 4821,
      "निरन्तर": 4822,
      "प्रस्तुत": 4823,
      "रेकर्": 4824,
      "together": 4825,
      "स्को": 4826,
      "technology": 4827,
      "lam": 4828,
      "यसका": 4829,
      "hospital": 4830,
      "matter": 4831,
      "।\"\"": 4832,
      "र्जा": 4833,
      "ricul": 4834,
      "सन्तु": 4835,
      "hard": 4836,
      "उमेर": 4837,
      "प्टे": 4838,
      "गराउन": 4839,
      "apan": 4840,
      "एक्": 4841,
      "Chand": 4842,
      "पछिल्लो": 4843,
      "Since": 4844,
      "Fin": 4845,
      "played": 4846,
      "वर्षीय": 4847,
      "सङ्ख्या": 4848,
      "अल": 4849,
      "fes": 4850,
      "competition": 4851,
      "स्थानमा": 4852,
      "पुरानो": 4853,
      "धारणा": 4854,
      "front": 4855,
      "ural": 4856,
      "list": 4857,
      "कार्यकारी": 4858,
      "तारा": 4859,
      "deb": 4860,
      "जात": 4861,
      "पहिचान": 4862,
      "अत्य": 4863,
      "गुमा": 4864,
      "थिएँ": 4865,
      "vention": 4866,
      "बिहीबार": 4867,
      "दानी": 4868,
      "Saturday": 4869,
      "flo": 4870,
      "iting": 4871,
      "रात्मक": 4872,
      "नर": 4873,
      "जोखि": 4874,
      "खोज": 4875,
      "ल्यू": 4876,
      "himself": 4877,
      "लिम": 4878,
      "full": 4879,
      "border": 4880,
      "अरु": 4881,
      "ances": 4882,
      "ills": 4883,
      "निर्वाचन": 4884,
      "कन्": 4885,
      "त्यस्तै": 4886,
      "decided": 4887,
      "Fe": 4888,
      "दुः": 4889,
      "mag": 4890,
      "ङ्गा": 4891,
      "Not": 4892,
      "थप्": 4893,
      "विश्ले": 4894,
      "उनीहरू": 4895,
      "kets": 4896,
      "ट्रे": 4897,
      "Mun": 4898,
      "चुनौ": 4899,
      "Japan": 4900,
      "संसार": 4901,
      "फ्ट": 4902,
      "cost": 4903,
      "pt": 4904,
      "share": 4905,
      "केत": 4906,
      "पुरस्कार": 4907,
      "बाध्य": 4908,
      "ley": 4909,
      "immediately": 4910,
      "pread": 4911,
      "डब्ल्यू": 4912,
      "journal": 4913,
      "York": 4914,
      "brother": 4915,
      "४०": 4916,
      "ecutive": 4917,
      "San": 4918,
      "morning": 4919,
      "कूल": 4920,
      "ian": 4921,
      "पाकिस्ता": 4922,
      "बिना": 4923,
      "द्वन्": 4924,
      "Like": 4925,
      "carry": 4926,
      "प्रायः": 4927,
      "audi": 4928,
      "न्युयो": 4929,
      "पत": 4930,
      "फिल्म": 4931,
      "क्ने": 4932,
      "कहाँ": 4933,
      "६०": 4934,
      "Su": 4935,
      "hers": 4936,
      "electric": 4937,
      "न्दर्भ": 4938,
      "जाँच": 4939,
      "गैर": 4940,
      "olog": 4941,
      "इस": 4942,
      "',": 4943,
      "mountain": 4944,
      "क्रिय": 4945,
      "आफैं": 4946,
      "ंका": 4947,
      "ries": 4948,
      "बरा": 4949,
      "respe": 4950,
      "design": 4951,
      "parliament": 4952,
      "ढि": 4953,
      "चार्": 4954,
      "applic": 4955,
      "docu": 4956,
      "Gur": 4957,
      "ending": 4958,
      "सल्लाह": 4959,
      "खरा": 4960,
      "र्श": 4961,
      "programs": 4962,
      "लिङ": 4963,
      "cris": 4964,
      "Air": 4965,
      "pite": 4966,
      "व्याव": 4967,
      "उनीहरूलाई": 4968,
      "challeng": 4969,
      "hoto": 4970,
      "आलो": 4971,
      "federal": 4972,
      "Bhat": 4973,
      "पत्ता": 4974,
      "दुःख": 4975,
      "प्रतियोगि": 4976,
      "www": 4977,
      "looking": 4978,
      "संक": 4979,
      "आँखा": 4980,
      "अपराध": 4981,
      "weak": 4982,
      "terror": 4983,
      "charac": 4984,
      "रहेछ": 4985,
      "Nar": 4986,
      "prepar": 4987,
      "House": 4988,
      "र्स": 4989,
      "talks": 4990,
      "aly": 4991,
      "employees": 4992,
      "बन्दी": 4993,
      "................": 4994,
      "ones": 4995,
      "फ्रे": 4996,
      "्राइ": 4997,
      "ल्ली": 4998,
      "ताले": 4999,
      "grad": 5000,
      "बलियो": 5001,
      "मिडिया": 5002,
      "सेप्टे": 5003,
      "phone": 5004,
      "vement": 5005,
      "जसो": 5006,
      "माल": 5007,
      "pan": 5008,
      "Mus": 5009,
      "dou": 5010,
      "dle": 5011,
      "बोला": 5012,
      "pressure": 5013,
      "दृश्य": 5014,
      "corrup": 5015,
      "कृष्ण": 5016,
      "bab": 5017,
      "आधारित": 5018,
      "पक्षमा": 5019,
      "block": 5020,
      "gion": 5021,
      "announced": 5022,
      "International": 5023,
      "सम्पर्": 5024,
      "sure": 5025,
      "includ": 5026,
      "laun": 5027,
      "शनिबार": 5028,
      "समान": 5029,
      "ager": 5030,
      "Parliament": 5031,
      "प्रवक्ता": 5032,
      "सवारी": 5033,
      "kh": 5034,
      "प्रकाशित": 5035,
      "born": 5036,
      "mention": 5037,
      "साझे": 5038,
      "responsibility": 5039,
      "२४": 5040,
      "term": 5041,
      "irala": 5042,
      "University": 5043,
      "अस्पताल": 5044,
      "मान्छे": 5045,
      "Cl": 5046,
      "mob": 5047,
      "violen": 5048,
      "क्षर": 5049,
      "हेर्न": 5050,
      "क्षेत्रको": 5051,
      "कमजो": 5052,
      "शैली": 5053,
      "तपाईँको": 5054,
      "inst": 5055,
      "rea": 5056,
      "छिटो": 5057,
      "course": 5058,
      "leave": 5059,
      "trial": 5060,
      "सक्दैन": 5061,
      "त्यसै": 5062,
      "स्थितिमा": 5063,
      "बचत": 5064,
      "Koirala": 5065,
      "कम्तीमा": 5066,
      "धिकरण": 5067,
      "que": 5068,
      "धीश": 5069,
      "रात": 5070,
      "ट्रा": 5071,
      "favor": 5072,
      "ctions": 5073,
      "गिर": 5074,
      "आधा": 5075,
      "विकल्प": 5076,
      "दबाब": 5077,
      "प्रिय": 5078,
      "क्षमता": 5079,
      "उपभोक्ता": 5080,
      "परीक्षा": 5081,
      "CPN": 5082,
      "mess": 5083,
      "uni": 5084,
      "players": 5085,
      "पुग्यो": 5086,
      "ठीक": 5087,
      "everyone": 5088,
      "htt": 5089,
      "outside": 5090,
      "पार्ने": 5091,
      "nel": 5092,
      "sci": 5093,
      "aster": 5094,
      "अस्पता": 5095,
      "लगायतका": 5096,
      "across": 5097,
      "income": 5098,
      "inal": 5099,
      "फिर्ता": 5100,
      "further": 5101,
      "Rus": 5102,
      "ague": 5103,
      "क्सा": 5104,
      "देखिएको": 5105,
      "file": 5106,
      "मना": 5107,
      "Offic": 5108,
      "ki": 5109,
      "provision": 5110,
      "record": 5111,
      "पक्षी": 5112,
      "early": 5113,
      "quake": 5114,
      "हिंसा": 5115,
      "भट्ट": 5116,
      "कम्पनीले": 5117,
      "नल": 5118,
      "२१": 5119,
      "सीले": 5120,
      "vent": 5121,
      "सुझा": 5122,
      "These": 5123,
      "कोइरा": 5124,
      "वर्ण": 5125,
      "चाइ": 5126,
      "फू": 5127,
      "ेरी": 5128,
      "natural": 5129,
      "प्रत्यक्ष": 5130,
      "आन्त": 5131,
      "कद": 5132,
      "किसि": 5133,
      "From": 5134,
      "http": 5135,
      "tiv": 5136,
      "पत्रिका": 5137,
      "posed": 5138,
      "बजेट": 5139,
      "needs": 5140,
      "लिग": 5141,
      "abo": 5142,
      "ON": 5143,
      "सम्मान": 5144,
      "आन्तरिक": 5145,
      "official": 5146,
      "परे": 5147,
      "कठिन": 5148,
      "चुनौती": 5149,
      "स्ति": 5150,
      "अधिकां": 5151,
      "Di": 5152,
      "coord": 5153,
      "ुर्ुर्ुर्ुर्ुर्ुर्ुर्ुर्": 5154,
      "reme": 5155,
      "Demo": 5156,
      "quality": 5157,
      "Then": 5158,
      "ches": 5159,
      "word": 5160,
      "believe": 5161,
      "श्वास": 5162,
      "wide": 5163,
      "projects": 5164,
      "वेद": 5165,
      "doing": 5166,
      "हुन्छन्": 5167,
      "Can": 5168,
      "itor": 5169,
      "समितिले": 5170,
      "नेर": 5171,
      "Assembly": 5172,
      "benef": 5173,
      "अधिकारीहरूले": 5174,
      "सकेन": 5175,
      "black": 5176,
      "तर्क": 5177,
      "cli": 5178,
      "अभियान": 5179,
      "विधे": 5180,
      "त्रु": 5181,
      "केको": 5182,
      "exc": 5183,
      "something": 5184,
      "अर्का": 5185,
      "suff": 5186,
      "लाल": 5187,
      "यौन": 5188,
      "Isra": 5189,
      "असर": 5190,
      "लाग्ने": 5191,
      "शास": 5192,
      "रेकर्ड": 5193,
      "organizations": 5194,
      "श्रम": 5195,
      "यण": 5196,
      "reported": 5197,
      "पर्यटन": 5198,
      "sum": 5199,
      "didn": 5200,
      "गावि": 5201,
      "केन्द्रित": 5202,
      "स्थायी": 5203,
      "quarter": 5204,
      "22": 5205,
      "उभि": 5206,
      "better": 5207,
      "वर्षअघि": 5208,
      "gir": 5209,
      "समितिको": 5210,
      "practi": 5211,
      "prior": 5212,
      "multi": 5213,
      "culture": 5214,
      "उठ": 5215,
      "mig": 5216,
      "यन्त्र": 5217,
      "रिक्त": 5218,
      "event": 5219,
      "सिल": 5220,
      "फारि": 5221,
      "जिम्मेवारी": 5222,
      "बिन्दु": 5223,
      "हरेक": 5224,
      "Due": 5225,
      "sian": 5226,
      "उको": 5227,
      "चिनियाँ": 5228,
      "गलत": 5229,
      "भन्न": 5230,
      "yed": 5231,
      "cele": 5232,
      "न्यायाधीश": 5233,
      "पर्यटक": 5234,
      "उम्मे": 5235,
      "attr": 5236,
      "युरो": 5237,
      "tricts": 5238,
      "अधिकांश": 5239,
      "कल्प": 5240,
      "mater": 5241,
      "plans": 5242,
      "पशु": 5243,
      "सिफारि": 5244,
      "आलोचना": 5245,
      "इन्टर": 5246,
      "त्री": 5247,
      "chedu": 5248,
      "tives": 5249,
      "ource": 5250,
      "VDC": 5251,
      "न्यून": 5252,
      "rishna": 5253,
      "spir": 5254,
      "तालाई": 5255,
      "ither": 5256,
      "वर्षमा": 5257,
      "determin": 5258,
      "देउ": 5259,
      "previous": 5260,
      "result": 5261,
      "सन्देश": 5262,
      "crisis": 5263,
      "विधिक": 5264,
      "वाल": 5265,
      "प्रेम": 5266,
      "स्टो": 5267,
      "agricul": 5268,
      "themselves": 5269,
      "opened": 5270,
      "My": 5271,
      "secretary": 5272,
      "भवन": 5273,
      "continu": 5274,
      "पराम": 5275,
      "क्क": 5276,
      "fully": 5277,
      "completed": 5278,
      "उत्प": 5279,
      "wife": 5280,
      "techn": 5281,
      "निर्देशन": 5282,
      "Madhesi": 5283,
      "बढेको": 5284,
      "ram": 5285,
      ")-": 5286,
      "सब": 5287,
      "परामर्श": 5288,
      "officer": 5289,
      "resources": 5290,
      "हाम्रा": 5291,
      "began": 5292,
      "त्रै": 5293,
      "cing": 5294,
      "59": 5295,
      "likely": 5296,
      "भारतको": 5297,
      "फाइदा": 5298,
      "umb": 5299,
      "वाई": 5300,
      "lives": 5301,
      "begin": 5302,
      "lines": 5303,
      "नीको": 5304,
      "सामना": 5305,
      "Board": 5306,
      "forts": 5307,
      "निर्धारण": 5308,
      "Sep": 5309,
      "संस्कृति": 5310,
      "elections": 5311,
      "प्राधिकरण": 5312,
      "expressed": 5313,
      "भै": 5314,
      "veral": 5315,
      "published": 5316,
      "वास्तवमा": 5317,
      "Chairman": 5318,
      "अल्": 5319,
      "points": 5320,
      "प्रभावित": 5321,
      "केटा": 5322,
      "चर": 5323,
      "उपाध्यक्ष": 5324,
      "shop": 5325,
      "population": 5326,
      "सत्य": 5327,
      "During": 5328,
      "ita": 5329,
      "itself": 5330,
      "फुटबल": 5331,
      "मूल्या": 5332,
      "Sen": 5333,
      "सुन": 5334,
      "अर्थतन्त्र": 5335,
      "संकलन": 5336,
      "साना": 5337,
      "anything": 5338,
      "forest": 5339,
      "आम्": 5340,
      "hus": 5341,
      "Gu": 5342,
      "teac": 5343,
      "issued": 5344,
      "districts": 5345,
      "authority": 5346,
      "dead": 5347,
      "youth": 5348,
      "hn": 5349,
      "Pan": 5350,
      "stu": 5351,
      "सम्बो": 5352,
      "छ्या": 5353,
      "द्वन्द्व": 5354,
      "kept": 5355,
      "मारि": 5356,
      "pas": 5357,
      "trad": 5358,
      "स्थिर": 5359,
      "King": 5360,
      "might": 5361,
      "आपूर्ति": 5362,
      "अन्त": 5363,
      "व्यक्तिले": 5364,
      "भनाइ": 5365,
      "thought": 5366,
      "ड्राइ": 5367,
      "उसको": 5368,
      "मण्ड": 5369,
      ").": 5370,
      "पारी": 5371,
      "relation": 5372,
      "पोष्ट": 5373,
      "फोटो": 5374,
      "ken": 5375,
      "economy": 5376,
      "डिजा": 5377,
      "महसुस": 5378,
      "र्न": 5379,
      "ँडा": 5380,
      "lobal": 5381,
      "उम्मेद": 5382,
      "कडा": 5383,
      "conflic": 5384,
      "उपदफा": 5385,
      "कोण": 5386,
      "tember": 5387,
      "संस": 5388,
      "By": 5389,
      "शिक्षण": 5390,
      "ars": 5391,
      "daughter": 5392,
      "ङ्कन": 5393,
      "hur": 5394,
      "estim": 5395,
      "प्राविधिक": 5396,
      "candid": 5397,
      "24": 5398,
      "tell": 5399,
      "कामा": 5400,
      "famil": 5401,
      "यल": 5402,
      "supp": 5403,
      "facilities": 5404,
      "une": 5405,
      "ख्": 5406,
      "ults": 5407,
      "administration": 5408,
      "खर": 5409,
      "ayan": 5410,
      "AR": 5411,
      "दैनिक": 5412,
      "Commun": 5413,
      "सक्रिय": 5414,
      "राखेको": 5415,
      "ials": 5416,
      "आम्दानी": 5417,
      "सक्नेछ": 5418,
      "strate": 5419,
      "गए": 5420,
      "ऊर्जा": 5421,
      "चैत": 5422,
      "लम्ब": 5423,
      "हन": 5424,
      "ल्याउन": 5425,
      "uck": 5426,
      "एउटै": 5427,
      "ustr": 5428,
      "products": 5429,
      "डल": 5430,
      "sw": 5431,
      "neigh": 5432,
      "छिमे": 5433,
      "विश्वव्यापी": 5434,
      "विभा": 5435,
      "एन्ड": 5436,
      "पेश": 5437,
      "relations": 5438,
      "सुझाव": 5439,
      "communic": 5440,
      "September": 5441,
      "व्यक्तिगत": 5442,
      "घाइ": 5443,
      "Sar": 5444,
      "सव": 5445,
      "bl": 5446,
      "देशिक": 5447,
      "pointed": 5448,
      "कोरिया": 5449,
      "Ear": 5450,
      "बताएका": 5451,
      "gar": 5452,
      "structure": 5453,
      "खित": 5454,
      "चन्द्र": 5455,
      "सन्दर्भ": 5456,
      "बताउँछन्": 5457,
      "ंदै": 5458,
      "पृष्ठ": 5459,
      "नहुने": 5460,
      "doctor": 5461,
      "२३": 5462,
      "हुनुहुन्छ": 5463,
      "Tri": 5464,
      "आए": 5465,
      "Don": 5466,
      "कांग्रेस": 5467,
      "हुन्थ्यो": 5468,
      "hind": 5469,
      "त्रैमासिक": 5470,
      "poor": 5471,
      "नगर्ने": 5472,
      "रङ": 5473,
      "अर्था": 5474,
      "समर्थन": 5475,
      "पर्व": 5476,
      "profession": 5477,
      "contribu": 5478,
      "उदाहरण": 5479,
      "orig": 5480,
      "भ्रष्टा": 5481,
      "eight": 5482,
      "streng": 5483,
      "abroad": 5484,
      "भएन": 5485,
      "amb": 5486,
      "ग्राहक": 5487,
      "नाको": 5488,
      "उनुहोस्": 5489,
      "पाए": 5490,
      "giving": 5491,
      "risk": 5492,
      "defe": 5493,
      "Foreign": 5494,
      "नाममा": 5495,
      "disp": 5496,
      "conference": 5497,
      "recomm": 5498,
      "practice": 5499,
      "उपत्य": 5500,
      "anim": 5501,
      "लिपि": 5502,
      "bad": 5503,
      "Ga": 5504,
      "सम्बोधन": 5505,
      "राख्नु": 5506,
      "टेड": 5507,
      "hor": 5508,
      "Many": 5509,
      "प्ति": 5510,
      "gas": 5511,
      "दद": 5512,
      "schools": 5513,
      "Sup": 5514,
      "cies": 5515,
      "सम्पर्क": 5516,
      "वक्त": 5517,
      "हिजो": 5518,
      "attention": 5519,
      "reduc": 5520,
      "meas": 5521,
      "phys": 5522,
      "returned": 5523,
      "खोजि": 5524,
      "जोन": 5525,
      "जसरी": 5526,
      "impact": 5527,
      "टिङ": 5528,
      "camp": 5529,
      "gain": 5530,
      "drug": 5531,
      "inside": 5532,
      "कृष्ट": 5533,
      "met": 5534,
      "efforts": 5535,
      "तिनीहरूले": 5536,
      "democratic": 5537,
      "wind": 5538,
      "सश": 5539,
      "हीन": 5540,
      "loss": 5541,
      "प्रबन्ध": 5542,
      "पारि": 5543,
      "कित": 5544,
      "ging": 5545,
      "sugges": 5546,
      "सामु": 5547,
      "cially": 5548,
      "closed": 5549,
      "rain": 5550,
      "Kam": 5551,
      "खेलमा": 5552,
      "गम": 5553,
      "भनी": 5554,
      "ह्या": 5555,
      "स्तरी": 5556,
      "build": 5557,
      "सोही": 5558,
      "Aug": 5559,
      "घाइते": 5560,
      "really": 5561,
      "rather": 5562,
      "वरिष्ठ": 5563,
      "friends": 5564,
      "continue": 5565,
      "पान": 5566,
      "Pakistan": 5567,
      "staff": 5568,
      "spokes": 5569,
      "थिइन्": 5570,
      "ensus": 5571,
      "तथ्या": 5572,
      "Ras": 5573,
      "fill": 5574,
      "स्टा": 5575,
      "पको": 5576,
      "paid": 5577,
      "wr": 5578,
      "Section": 5579,
      "मूर्": 5580,
      "अवस्थित": 5581,
      "aware": 5582,
      "resol": 5583,
      "वक्तव्य": 5584,
      "vered": 5585,
      "हाइ": 5586,
      "अभिभाव": 5587,
      "कलाकार": 5588,
      "भिजन": 5589,
      "उपयोग": 5590,
      "स्पे": 5591,
      "growth": 5592,
      "Ph": 5593,
      "accident": 5594,
      "भूकम्प": 5595,
      "oil": 5596,
      "raise": 5597,
      "राखि": 5598,
      "hours": 5599,
      "having": 5600,
      "estern": 5601,
      "opportunity": 5602,
      "ams": 5603,
      "मेन्ट": 5604,
      "गरियो": 5605,
      "blood": 5606,
      "July": 5607,
      "नन्द": 5608,
      "सहज": 5609,
      "rel": 5610,
      "above": 5611,
      "मान्यता": 5612,
      "थोरै": 5613,
      "gave": 5614,
      "सजा": 5615,
      "तेल": 5616,
      "पदार्थ": 5617,
      "वेब": 5618,
      "टाढा": 5619,
      "board": 5620,
      "British": 5621,
      "migr": 5622,
      "sty": 5623,
      "लागत": 5624,
      "explo": 5625,
      "सही": 5626,
      "senior": 5627,
      "stop": 5628,
      "२२": 5629,
      "भनिन्": 5630,
      "Shi": 5631,
      "ator": 5632,
      "John": 5633,
      "पक्रा": 5634,
      "च्छे": 5635,
      "bat": 5636,
      "ike": 5637,
      "satis": 5638,
      "धर्म": 5639,
      "getting": 5640,
      "wood": 5641,
      "कुन": 5642,
      "जसको": 5643,
      "खत": 5644,
      "पुनर्स्थापना": 5645,
      "जवा": 5646,
      "शाखा": 5647,
      "institu": 5648,
      "ल्स": 5649,
      "teen": 5650,
      "Cup": 5651,
      "अभ्या": 5652,
      "गुना": 5653,
      "दोहो": 5654,
      "earthquake": 5655,
      "शर्मा": 5656,
      "पय": 5657,
      "किङ": 5658,
      "ग्रामी": 5659,
      "Dire": 5660,
      "tival": 5661,
      "forced": 5662,
      "विशेषज्ञ": 5663,
      "197": 5664,
      "Sap": 5665,
      "थ्": 5666,
      "thern": 5667,
      "धनी": 5668,
      "football": 5669,
      "रले": 5670,
      "yes": 5671,
      "आउन": 5672,
      "shi": 5673,
      "अतिरिक्त": 5674,
      "mp": 5675,
      "नभए": 5676,
      "sis": 5677,
      "ग्रामीण": 5678,
      "भूत": 5679,
      "changed": 5680,
      "लाले": 5681,
      "built": 5682,
      "खोजी": 5683,
      "गोल": 5684,
      "पक्राउ": 5685,
      "विध": 5686,
      "पाएको": 5687,
      "फ्रान्": 5688,
      "राजस्व": 5689,
      "छिमेकी": 5690,
      "डेल": 5691,
      "movie": 5692,
      "Mc": 5693,
      "लिरहेको": 5694,
      "पार्टीका": 5695,
      ").\"": 5696,
      "60": 5697,
      "experience": 5698,
      "raj": 5699,
      "राखे": 5700,
      "योगदान": 5701,
      "ञ्चल": 5702,
      "कतिपय": 5703,
      "research": 5704,
      "क्षिक": 5705,
      "va": 5706,
      "Ger": 5707,
      "नेकपा": 5708,
      "गाह": 5709,
      "भिडियो": 5710,
      "अवधिमा": 5711,
      "रक्षा": 5712,
      "भण्डार": 5713,
      "Comp": 5714,
      "स्तरीय": 5715,
      "govern": 5716,
      "eyes": 5717,
      "gold": 5718,
      "जोखिम": 5719,
      "रोजगारी": 5720,
      "data": 5721,
      "anger": 5722,
      "सायिक": 5723,
      "ज्ञानिक": 5724,
      "popular": 5725,
      "conflict": 5726,
      "proposal": 5727,
      "भ्रष्टाचार": 5728,
      "उद्ध": 5729,
      "उपकरण": 5730,
      "कुञ्जी": 5731,
      "ढो": 5732,
      "त्यसमा": 5733,
      "सिन्दा": 5734,
      "रणनीति": 5735,
      "strugg": 5736,
      "जनताले": 5737,
      "effective": 5738,
      "transport": 5739,
      "एनएन": 5740,
      "सङ्गी": 5741,
      "बम": 5742,
      "व्यक्तिलाई": 5743,
      "रीमा": 5744,
      "म्याक": 5745,
      "दिइएको": 5746,
      "सञ्जा": 5747,
      "सप": 5748,
      "कीय": 5749,
      "डिजाइन": 5750,
      "Car": 5751,
      "आवा": 5752,
      "ond": 5753,
      "stopped": 5754,
      "टका": 5755,
      "वरिपरि": 5756,
      "नामक": 5757,
      "settle": 5758,
      "employment": 5759,
      "बढाउन": 5760,
      "several": 5761,
      "कोही": 5762,
      "poration": 5763,
      "Lal": 5764,
      "cto": 5765,
      "राव": 5766,
      "deta": 5767,
      "husband": 5768,
      "Plan": 5769,
      "लडा": 5770,
      "हेरचाह": 5771,
      "State": 5772,
      "arrange": 5773,
      "देवी": 5774,
      "सीको": 5775,
      "खराब": 5776,
      "ृद्धि": 5777,
      "प्रभावकारी": 5778,
      "cases": 5779,
      "lands": 5780,
      "व्यावसायिक": 5781,
      "णि": 5782,
      "सोच": 5783,
      "प्रसार": 5784,
      "forces": 5785,
      "parents": 5786,
      "mal": 5787,
      "श्रृ": 5788,
      "Med": 5789,
      "वर्षसम्म": 5790,
      "needed": 5791,
      "Municipality": 5792,
      "40": 5793,
      "West": 5794,
      "शीर्ष": 5795,
      "ेरो": 5796,
      "चिन्ता": 5797,
      "शास्त्र": 5798,
      "Health": 5799,
      "पत्": 5800,
      "eat": 5801,
      "often": 5802,
      "playing": 5803,
      "Tam": 5804,
      "kill": 5805,
      "labor": 5806,
      "itation": 5807,
      "property": 5808,
      "सर्वोच्च": 5809,
      "म्पि": 5810,
      "join": 5811,
      "Bas": 5812,
      "Army": 5813,
      "उम्मेदवार": 5814,
      "Krishna": 5815,
      "२८": 5816,
      "षिक": 5817,
      "Republic": 5818,
      "अक्टो": 5819,
      "रोह": 5820,
      "cover": 5821,
      "vide": 5822,
      "ledge": 5823,
      "घटा": 5824,
      "fla": 5825,
      "यू": 5826,
      "पुगे": 5827,
      "सजिलो": 5828,
      "गरिन्": 5829,
      "Moham": 5830,
      "ington": 5831,
      "almost": 5832,
      "ब्य": 5833,
      "green": 5834,
      "तरी": 5835,
      "voice": 5836,
      "ँजी": 5837,
      "investigation": 5838,
      "rid": 5839,
      "२७": 5840,
      "North": 5841,
      "बनाएको": 5842,
      "forman": 5843,
      "लगाउने": 5844,
      "recently": 5845,
      "लनमा": 5846,
      "accused": 5847,
      "happy": 5848,
      "रहन्छ": 5849,
      "सामान": 5850,
      "बिहान": 5851,
      "न्थे": 5852,
      "buy": 5853,
      "चारिक": 5854,
      "oups": 5855,
      "प्रश्वास": 5856,
      "लेखक": 5857,
      "सिका": 5858,
      "Pre": 5859,
      "वार्षिक": 5860,
      "department": 5861,
      "Because": 5862,
      "river": 5863,
      "वार्ड": 5864,
      "प्रतिबद्ध": 5865,
      "tried": 5866,
      "बैठकमा": 5867,
      "Ind": 5868,
      "बढ्दो": 5869,
      "कठो": 5870,
      "utes": 5871,
      "नवी": 5872,
      "वैज्ञानिक": 5873,
      "गणतन्त्र": 5874,
      "mentioned": 5875,
      "Per": 5876,
      "29": 5877,
      "prepared": 5878,
      "apur": 5879,
      "कठोर": 5880,
      "adop": 5881,
      "opposition": 5882,
      "स्टर": 5883,
      "common": 5884,
      "path": 5885,
      "Center": 5886,
      "ugh": 5887,
      "enough": 5888,
      "स्वि": 5889,
      "ient": 5890,
      "check": 5891,
      "तत्काल": 5892,
      "Sam": 5893,
      "रुवा": 5894,
      "Des": 5895,
      "photo": 5896,
      "खुशी": 5897,
      "rules": 5898,
      "electricity": 5899,
      "Madhes": 5900,
      "towards": 5901,
      "stat": 5902,
      "ताव": 5903,
      "नारायण": 5904,
      "repe": 5905,
      "उत्पन्न": 5906,
      "ark": 5907,
      "condition": 5908,
      "uba": 5909,
      "न्युयोर्क": 5910,
      "letter": 5911,
      "विद्युत्": 5912,
      "विना": 5913,
      "exper": 5914,
      "behind": 5915,
      "hung": 5916,
      "भर्ना": 5917,
      "CE": 5918,
      "prescribed": 5919,
      "wis": 5920,
      "dre": 5921,
      "Kha": 5922,
      "fered": 5923,
      "bel": 5924,
      "महत्वपूर्ण": 5925,
      "मोर्चा": 5926,
      "Inter": 5927,
      "पाइन्छ": 5928,
      "जनतालाई": 5929,
      "गल्": 5930,
      "Sur": 5931,
      "Vice": 5932,
      "साधन": 5933,
      "currently": 5934,
      "banks": 5935,
      "बमोजिमको": 5936,
      "धानिक": 5937,
      "cip": 5938,
      "षक": 5939,
      "२६": 5940,
      "शरीर": 5941,
      "थी": 5942,
      "energy": 5943,
      "fy": 5944,
      "पहुँ": 5945,
      "ded": 5946,
      "उपयुक्त": 5947,
      "पर्दा": 5948,
      "अङ्क": 5949,
      "शाली": 5950,
      "लाम": 5951,
      "जिल्लाको": 5952,
      "भक्त": 5953,
      "विज्ञ": 5954,
      "बुझा": 5955,
      "regular": 5956,
      "required": 5957,
      "purpose": 5958,
      "hope": 5959,
      "साब": 5960,
      "दरबार": 5961,
      "match": 5962,
      "प्रकारको": 5963,
      "lig": 5964,
      "heard": 5965,
      "ada": 5966,
      "mented": 5967,
      "आगो": 5968,
      "प्राप्ता": 5969,
      "created": 5970,
      "पहुँच": 5971,
      "चालन": 5972,
      "Israel": 5973,
      "emer": 5974,
      "nothing": 5975,
      "neighbor": 5976,
      "hands": 5977,
      "Budd": 5978,
      "लेखा": 5979,
      "Octo": 5980,
      "न्डै": 5981,
      "affected": 5982,
      "account": 5983,
      "groups": 5984,
      "ट्टै": 5985,
      "create": 5986,
      "tarai": 5987,
      "October": 5988,
      "informed": 5989,
      "विजय": 5990,
      "cir": 5991,
      "गरेमा": 5992,
      "शाह": 5993,
      "न्ध": 5994,
      "धितो": 5995,
      "सत्ता": 5996,
      "Bha": 5997,
      "प्रतिनिधित्व": 5998,
      "नसक्ने": 5999,
      "ारो": 6000,
      "गुनासो": 6001,
      "विरोधी": 6002,
      "entre": 6003,
      "houses": 6004,
      "cel": 6005,
      "Author": 6006,
      "formation": 6007,
      "सक्नुहुन्छ": 6008,
      "usion": 6009,
      "जान्छ": 6010,
      "जवाफ": 6011,
      "Dav": 6012,
      "जेल": 6013,
      "moder": 6014,
      "लीको": 6015,
      "झन्डै": 6016,
      "Other": 6017,
      "छौ": 6018,
      "Him": 6019,
      "्युनि": 6020,
      "espe": 6021,
      "quarters": 6022,
      "सक्नु": 6023,
      "Bhattarai": 6024,
      "मूल": 6025,
      "Gurung": 6026,
      "clean": 6027,
      "सिफारिस": 6028,
      "presented": 6029,
      "ल्याउने": 6030,
      "War": 6031,
      "endent": 6032,
      "प्ला": 6033,
      "थालेको": 6034,
      "performan": 6035,
      "साहित": 6036,
      "आत्म": 6037,
      "Rai": 6038,
      "Pand": 6039,
      "auto": 6040,
      "prices": 6041,
      "wit": 6042,
      "चक": 6043,
      "२९": 6044,
      "त्यसलाई": 6045,
      "character": 6046,
      "rs": 6047,
      "पाउ": 6048,
      "अंश": 6049,
      "क्षेप": 6050,
      "कानू": 6051,
      "21": 6052,
      "Ele": 6053,
      "कन": 6054,
      "अधिकारीले": 6055,
      "Gir": 6056,
      "जम्मा": 6057,
      "terday": 6058,
      "adem": 6059,
      "मङ्ग": 6060,
      "Im": 6061,
      "institution": 6062,
      "birth": 6063,
      "हड": 6064,
      "क्का": 6065,
      "हस्ताक्षर": 6066,
      "ota": 6067,
      "क्य": 6068,
      "भन्नु": 6069,
      "धेरैजसो": 6070,
      "जहा": 6071,
      "trop": 6072,
      "dy": 6073,
      "क्याम्प": 6074,
      "citizen": 6075,
      "बासिन्दा": 6076,
      "tims": 6077,
      "lies": 6078,
      "प्रगति": 6079,
      "हुनुपर्छ": 6080,
      "Director": 6081,
      "daily": 6082,
      "म्बरमा": 6083,
      "१००": 6084,
      "fail": 6085,
      "prog": 6086,
      "games": 6087,
      "ahal": 6088,
      "ल्दै": 6089,
      "tial": 6090,
      "ंगा": 6091,
      "लगाउन": 6092,
      "दृष्टिकोण": 6093,
      "सिद्धा": 6094,
      "सीमित": 6095,
      "words": 6096,
      "saw": 6097,
      "बिलियन": 6098,
      "corruption": 6099,
      "पाउन": 6100,
      "fis": 6101,
      "aging": 6102,
      "mur": 6103,
      "रामा": 6104,
      "consider": 6105,
      "rated": 6106,
      "बढ्दै": 6107,
      "indep": 6108,
      "धारा": 6109,
      "violence": 6110,
      "value": 6111,
      "alleg": 6112,
      "tructure": 6113,
      "पात": 6114,
      "मिनेट": 6115,
      "vehicles": 6116,
      "ara": 6117,
      "रीको": 6118,
      "लिएका": 6119,
      "abababababababab": 6120,
      "joint": 6121,
      "volution": 6122,
      "निरी": 6123,
      "झु": 6124,
      "युरोप": 6125,
      "गिरफ्": 6126,
      "खासगरी": 6127,
      "ल्ट": 6128,
      "टिश": 6129,
      "travel": 6130,
      "बास": 6131,
      "tari": 6132,
      "firm": 6133,
      "Local": 6134,
      "mach": 6135,
      "Shah": 6136,
      "secu": 6137,
      "पाएका": 6138,
      "signific": 6139,
      "venue": 6140,
      "higher": 6141,
      "त्यसो": 6142,
      "Pou": 6143,
      "पूजा": 6144,
      "धो": 6145,
      "मिश्र": 6146,
      "अर": 6147,
      "हुन्न": 6148,
      "vember": 6149,
      "किसान": 6150,
      "लगानीकर्ता": 6151,
      "estic": 6152,
      "Har": 6153,
      "मुलुकमा": 6154,
      "failed": 6155,
      "देशका": 6156,
      "ड्ने": 6157,
      "developed": 6158,
      "Wash": 6159,
      "आकार": 6160,
      "सरकारलाई": 6161,
      "especially": 6162,
      "टाउको": 6163,
      "laws": 6164,
      "प्रारम्भिक": 6165,
      "spread": 6166,
      "म्बा": 6167,
      "Bi": 6168,
      "recogn": 6169,
      "commer": 6170,
      "मन्दिर": 6171,
      "प्रवृत्ति": 6172,
      "जबकि": 6173,
      "प्रेस": 6174,
      "anyone": 6175,
      "चर्य": 6176,
      "न्सर": 6177,
      "कलेज": 6178,
      "details": 6179,
      "entral": 6180,
      "Hospital": 6181,
      "गणना": 6182,
      "gency": 6183,
      "संघर्ष": 6184,
      "बच्चा": 6185,
      "शेर": 6186,
      "writing": 6187,
      "middle": 6188,
      "round": 6189,
      "MP": 6190,
      "ब्रु": 6191,
      "November": 6192,
      "नगरी": 6193,
      "chair": 6194,
      "क्षी": 6195,
      "pun": 6196,
      "vert": 6197,
      "nu": 6198,
      "रहनु": 6199,
      "एकल": 6200,
      "दूत": 6201,
      "gunj": 6202,
      "bill": 6203,
      "dol": 6204,
      "सबैले": 6205,
      "ensive": 6206,
      "सुकै": 6207,
      "क्षेत्रीय": 6208,
      "सुन्द": 6209,
      "victims": 6210,
      "Mor": 6211,
      "र्का": 6212,
      "Sy": 6213,
      "वीर": 6214,
      "Every": 6215,
      "families": 6216,
      "Dal": 6217,
      "मेलन": 6218,
      "माया": 6219,
      "gone": 6220,
      "xed": 6221,
      "suf": 6222,
      "साँच्च": 6223,
      "magaz": 6224,
      "रेडियो": 6225,
      "स्वय": 6226,
      "निर्मा": 6227,
      "Why": 6228,
      "एसिया": 6229,
      "defin": 6230,
      "सम्मेलन": 6231,
      "मुद्रा": 6232,
      "क्षेत्रका": 6233,
      "commis": 6234,
      "tw": 6235,
      "terms": 6236,
      "released": 6237,
      "leading": 6238,
      "ङले": 6239,
      "states": 6240,
      "आउ": 6241,
      "तराई": 6242,
      "आधु": 6243,
      "राह": 6244,
      "हतियार": 6245,
      "access": 6246,
      "नीले": 6247,
      "आयात": 6248,
      "executive": 6249,
      "नाफा": 6250,
      "कर्जा": 6251,
      "inated": 6252,
      "BC": 6253,
      "व्र": 6254,
      "मन्त्रालयले": 6255,
      "tow": 6256,
      "acted": 6257,
      "Washington": 6258,
      "प्रोत्": 6259,
      "pees": 6260,
      "medic": 6261,
      "टिल": 6262,
      "बद": 6263,
      "ुक": 6264,
      "base": 6265,
      "कम्युनि": 6266,
      "वैधानिक": 6267,
      "क्रियाकला": 6268,
      "elected": 6269,
      "influ": 6270,
      "इस्": 6271,
      "खान": 6272,
      "example": 6273,
      "Bab": 6274,
      "La": 6275,
      "छवि": 6276,
      "uel": 6277,
      "farmers": 6278,
      "prime": 6279,
      "संघका": 6280,
      "काठमाडौँ": 6281,
      "ane": 6282,
      "easy": 6283,
      "जनसंख्या": 6284,
      "रोक्न": 6285,
      "aving": 6286,
      "broad": 6287,
      "ष्ठा": 6288,
      "सकारात्मक": 6289,
      "आश्चर्य": 6290,
      "धानको": 6291,
      "Pa": 6292,
      "talk": 6293,
      "उचित": 6294,
      "रत": 6295,
      "destro": 6296,
      "spent": 6297,
      "राइ": 6298,
      "argu": 6299,
      "gious": 6300,
      "standing": 6301,
      "राय": 6302,
      "८०": 6303,
      "कमजोर": 6304,
      "काममा": 6305,
      "तालिम": 6306,
      "लाभ": 6307,
      "चिकित्सक": 6308,
      "aching": 6309,
      "२०५": 6310,
      "इन्जि": 6311,
      "चेताव": 6312,
      "brid": 6313,
      "fear": 6314,
      "stic": 6315,
      "इतिहास": 6316,
      "Dahal": 6317,
      "passed": 6318,
      "राउ": 6319,
      "owner": 6320,
      "City": 6321,
      "महत्त्वपूर्ण": 6322,
      "Most": 6323,
      "conduct": 6324,
      "injured": 6325,
      "दिनमा": 6326,
      "motor": 6327,
      "भट्टराई": 6328,
      "partic": 6329,
      "वासिङ": 6330,
      "expand": 6331,
      "त्रा": 6332,
      "प्राकृतिक": 6333,
      "festival": 6334,
      "UN": 6335,
      "positive": 6336,
      "णिज्य": 6337,
      "झर्": 6338,
      "न्तै": 6339,
      "weap": 6340,
      "स्तरमा": 6341,
      "Ste": 6342,
      "अन्त्यमा": 6343,
      "छनौ": 6344,
      "फ्याँ": 6345,
      "तिम्रो": 6346,
      "च्छेद": 6347,
      "fras": 6348,
      "January": 6349,
      "डको": 6350,
      "प्रचण्ड": 6351,
      "घन": 6352,
      "arya": 6353,
      "मय": 6354,
      "vote": 6355,
      "title": 6356,
      "prene": 6357,
      "prac": 6358,
      "उत्कृष्ट": 6359,
      "पोर्ट": 6360,
      "Sco": 6361,
      "Ge": 6362,
      "सत": 6363,
      "encies": 6364,
      "ever": 6365,
      "prison": 6366,
      "उडान": 6367,
      "AND": 6368,
      "weeks": 6369,
      "उपनि": 6370,
      "समितिका": 6371,
      "divid": 6372,
      "23": 6373,
      "citizens": 6374,
      "तिनीहरूलाई": 6375,
      "सोच्": 6376,
      "सधैँ": 6377,
      "ख्य": 6378,
      "performance": 6379,
      "आउँछ": 6380,
      "running": 6381,
      "omb": 6382,
      "७०": 6383,
      "लिखित": 6384,
      "मोटर": 6385,
      "यथा": 6386,
      "ल्नु": 6387,
      "Mem": 6388,
      "dic": 6389,
      "March": 6390,
      "Her": 6391,
      "hom": 6392,
      "होटल": 6393,
      "insur": 6394,
      "साल": 6395,
      "sle": 6396,
      "टोलीले": 6397,
      "साइट": 6398,
      "bodies": 6399,
      "appointed": 6400,
      "obje": 6401,
      "खाने": 6402,
      "पूर्वी": 6403,
      "नव": 6404,
      "ल्छ": 6405,
      "यसअघि": 6406,
      "भनिन्छ": 6407,
      "global": 6408,
      "Two": 6409,
      "Officer": 6410,
      "era": 6411,
      "क्रान्ति": 6412,
      "lying": 6413,
      "maintain": 6414,
      "Our": 6415,
      "जत": 6416,
      "frastructure": 6417,
      "Poudel": 6418,
      "Ra": 6419,
      "सहभागि": 6420,
      "देउवा": 6421,
      "wanted": 6422,
      "झ्या": 6423,
      "results": 6424,
      "intr": 6425,
      "आफूले": 6426,
      "सट्टा": 6427,
      "शंका": 6428,
      "udh": 6429,
      "आकर्ष": 6430,
      "कामदार": 6431,
      "मानसिक": 6432,
      "तुरु": 6433,
      "भोलि": 6434,
      "चेतावनी": 6435,
      "धार्": 6436,
      "सोध": 6437,
      "उपाय": 6438,
      "है": 6439,
      "डामा": 6440,
      "Speak": 6441,
      "eli": 6442,
      "School": 6443,
      "hear": 6444,
      "medical": 6445,
      "पराज": 6446,
      "ampion": 6447,
      "सङ्केत": 6448,
      "बचा": 6449,
      "mes": 6450,
      "command": 6451,
      "source": 6452,
      "Sa": 6453,
      "सम्भावित": 6454,
      "HM": 6455,
      "nature": 6456,
      "wrong": 6457,
      "cad": 6458,
      "anch": 6459,
      "club": 6460,
      "Asia": 6461,
      "Post": 6462,
      "अभिभावक": 6463,
      "गिरफ्तार": 6464,
      "ahead": 6465,
      "Bag": 6466,
      "बीचको": 6467,
      "August": 6468,
      "charge": 6469,
      "लाग्यो": 6470,
      "placed": 6471,
      "protect": 6472,
      "जसमा": 6473,
      "सिन": 6474,
      "Ti": 6475,
      "image": 6476,
      "डिङ": 6477,
      "Sher": 6478,
      "inten": 6479,
      "धम्": 6480,
      "संघले": 6481,
      "amend": 6482,
      "अनलाइन": 6483,
      "र्घ": 6484,
      "न्टा": 6485,
      "सङ्गीत": 6486,
      "निर्भर": 6487,
      "parts": 6488,
      "scen": 6489,
      "भइसकेको": 6490,
      "लेका": 6491,
      "tourism": 6492,
      "nine": 6493,
      "कार्यालयमा": 6494,
      "Up": 6495,
      "grand": 6496,
      "दिनको": 6497,
      "application": 6498,
      "मुक्त": 6499,
      "्यारे": 6500,
      "felt": 6501,
      "cro": 6502,
      "Ci": 6503,
      "acity": 6504,
      "Inves": 6505,
      "माओवादीले": 6506,
      "अथ": 6507,
      "ध्व": 6508,
      "हस्त": 6509,
      "message": 6510,
      "सेतो": 6511,
      "player": 6512,
      "yesterday": 6513,
      "seng": 6514,
      "shown": 6515,
      "बोल": 6516,
      "पुग्ने": 6517,
      "worked": 6518,
      "केका": 6519,
      "ङ्ग्रे": 6520,
      "माथिल्लो": 6521,
      "Fir": 6522,
      "न्च": 6523,
      "series": 6524,
      "एकपटक": 6525,
      "thinking": 6526,
      "खेती": 6527,
      "materials": 6528,
      "Deuba": 6529,
      "similar": 6530,
      "स्वामि": 6531,
      "तब": 6532,
      "implemented": 6533,
      "rig": 6534,
      "युव": 6535,
      "कक्षा": 6536,
      "३५": 6537,
      "America": 6538,
      "urged": 6539,
      "पुगेका": 6540,
      "व्यापारी": 6541,
      "रेखा": 6542,
      "ades": 6543,
      "प्रशं": 6544,
      "वधिक": 6545,
      "uses": 6546,
      "decla": 6547,
      "hik": 6548,
      "कदम": 6549,
      "picture": 6550,
      "हरूबाट": 6551,
      "ences": 6552,
      "appropri": 6553,
      "अनुहार": 6554,
      "तुलनामा": 6555,
      "Mic": 6556,
      "मात्रा": 6557,
      "हू": 6558,
      "modern": 6559,
      "style": 6560,
      "चर्चा": 6561,
      "safe": 6562,
      "Tim": 6563,
      "deli": 6564,
      "पार्टीको": 6565,
      "whose": 6566,
      "ticle": 6567,
      "मौसममा": 6568,
      "Educ": 6569,
      "imum": 6570,
      "ीकरण": 6571,
      "किशो": 6572,
      "claimed": 6573,
      "load": 6574,
      "गरें": 6575,
      "traf": 6576,
      "विष्ट": 6577,
      "physical": 6578,
      "स्वामित्व": 6579,
      "//": 6580,
      "संगठ": 6581,
      "intel": 6582,
      "लागे": 6583,
      "बुद्धि": 6584,
      "Ap": 6585,
      "Dhar": 6586,
      "बहि": 6587,
      "माध्यम": 6588,
      "एजेन्": 6589,
      "complain": 6590,
      "सभापति": 6591,
      "Em": 6592,
      "else": 6593,
      "द्वि": 6594,
      "बिस्तार": 6595,
      "विशेषता": 6596,
      "indic": 6597,
      "traffic": 6598,
      "ंश": 6599,
      "ext": 6600,
      "Likewise": 6601,
      "advant": 6602,
      "आम": 6603,
      "सम्मेल": 6604,
      "olo": 6605,
      "अभ्यास": 6606,
      "uter": 6607,
      "relationship": 6608,
      "लोकन": 6609,
      "successful": 6610,
      "प्रशिक्षण": 6611,
      "rise": 6612,
      "विज्ञान": 6613,
      "riage": 6614,
      "टिन": 6615,
      "Prach": 6616,
      "विपक्षी": 6617,
      "ilk": 6618,
      "भागमा": 6619,
      "्युटर": 6620,
      "पूर्वाधार": 6621,
      "Jha": 6622,
      "ier": 6623,
      "responsible": 6624,
      "सफा": 6625,
      "लोकप्रिय": 6626,
      "देख्": 6627,
      "उमा": 6628,
      "पचारिक": 6629,
      "कारणले": 6630,
      "Dur": 6631,
      "European": 6632,
      "यात्रु": 6633,
      "Pokhara": 6634,
      "विद्रो": 6635,
      "Bush": 6636,
      "mom": 6637,
      "oud": 6638,
      "इस्रा": 6639,
      "casion": 6640,
      "विभाजन": 6641,
      "knowledge": 6642,
      "Tar": 6643,
      "directly": 6644,
      "smo": 6645,
      "सिने": 6646,
      "गहि": 6647,
      "पुग्न": 6648,
      "प्रमाणित": 6649,
      "समर्": 6650,
      "implementation": 6651,
      "संवाद": 6652,
      "Prachanda": 6653,
      "सजाय": 6654,
      "गर्नका": 6655,
      "पुनर्निर्माण": 6656,
      "ira": 6657,
      "उपन्या": 6658,
      "sold": 6659,
      "कस्तो": 6660,
      "नम्बर": 6661,
      "discussion": 6662,
      "separate": 6663,
      "खुट्टा": 6664,
      "watch": 6665,
      "Khan": 6666,
      "filled": 6667,
      "particular": 6668,
      "च्छा": 6669,
      "male": 6670,
      "More": 6671,
      "वर्द्ध": 6672,
      "cop": 6673,
      "चार्य": 6674,
      "नग": 6675,
      "निर्वाचित": 6676,
      "रुपैयाँ": 6677,
      "tended": 6678,
      "transfer": 6679,
      "focus": 6680,
      "plant": 6681,
      "80": 6682,
      "पत्रमा": 6683,
      "ज्ञान": 6684,
      "ju": 6685,
      "सप्": 6686,
      "poten": 6687,
      "दायि": 6688,
      "त्ने": 6689,
      "क्रिकेट": 6690,
      "कटौ": 6691,
      ".'": 6692,
      "रुपैया": 6693,
      "धिकारी": 6694,
      "significant": 6695,
      "appoint": 6696,
      "Public": 6697,
      "साव": 6698,
      "काश": 6699,
      "योजक": 6700,
      "पुल": 6701,
      "लम्": 6702,
      "स्कृतिक": 6703,
      "OR": 6704,
      "दर्जन": 6705,
      "मौका": 6706,
      "कर्त": 6707,
      "व्यक्तिको": 6708,
      "शैक्षिक": 6709,
      "deep": 6710,
      "cross": 6711,
      "मङ्गलबार": 6712,
      "novel": 6713,
      "प्रकाशन": 6714,
      "gla": 6715,
      "डिक": 6716,
      "प्रतिष्ठा": 6717,
      "stock": 6718,
      "अनुगमन": 6719,
      "slow": 6720,
      "icket": 6721,
      "sales": 6722,
      "सचेत": 6723,
      "limited": 6724,
      "विधेयक": 6725,
      "ministry": 6726,
      "Del": 6727,
      "wers": 6728,
      "रेल": 6729,
      "entered": 6730,
      "Central": 6731,
      "agreed": 6732,
      "नोभे": 6733,
      "activ": 6734,
      "mark": 6735,
      "vehicle": 6736,
      "Je": 6737,
      "هه": 6738,
      "क्सी": 6739,
      "खाद्य": 6740,
      "ends": 6741,
      "engine": 6742,
      "operating": 6743,
      "लास": 6744,
      "चौथो": 6745,
      "ederation": 6746,
      "एमा": 6747,
      "दूर": 6748,
      "दशक": 6749,
      "rural": 6750,
      "schedu": 6751,
      "तथ्य": 6752,
      "अनुदान": 6753,
      "सिद्धान्त": 6754,
      "selected": 6755,
      "fairs": 6756,
      "दायित्व": 6757,
      "royal": 6758,
      "purch": 6759,
      "बिमा": 6760,
      "cell": 6761,
      "चिया": 6762,
      "occasion": 6763,
      "ko": 6764,
      "कम्पनीको": 6765,
      "बस्न": 6766,
      "अनुरोध": 6767,
      "थ्वी": 6768,
      "Tur": 6769,
      "residents": 6770,
      "PR": 6771,
      "लगभग": 6772,
      "lect": 6773,
      "विजे": 6774,
      "म्यान": 6775,
      "प्रवाह": 6776,
      "adio": 6777,
      "महे": 6778,
      "fiscal": 6779,
      "पृथ्वी": 6780,
      "मूल्याङ्कन": 6781,
      "student": 6782,
      "stain": 6783,
      "शिया": 6784,
      "2006": 6785,
      "टेलिभिजन": 6786,
      "आधुनिक": 6787,
      "Austr": 6788,
      "quick": 6789,
      "assistance": 6790,
      "Home": 6791,
      "च्छ": 6792,
      "कार्यसम्पादन": 6793,
      "tically": 6794,
      "चौध": 6795,
      "personal": 6796,
      "dollar": 6797,
      "विद्युत": 6798,
      "ग्रहण": 6799,
      "ring": 6800,
      "दीर्घ": 6801,
      "entire": 6802,
      "Australi": 6803,
      "sof": 6804,
      "illa": 6805,
      "कम्प्युटर": 6806,
      "करार": 6807,
      "कानुनी": 6808,
      "बनाइ": 6809,
      "……": 6810,
      "allowed": 6811,
      "sea": 6812,
      "रह्यो": 6813,
      "अपना": 6814,
      "सहायक": 6815,
      "cast": 6816,
      "बराबर": 6817,
      "प्रतिबन्ध": 6818,
      "certific": 6819,
      "Authority": 6820,
      "आतंक": 6821,
      "वाणिज्य": 6822,
      "फिक": 6823,
      "hum": 6824,
      "stituent": 6825,
      "included": 6826,
      "प्रदेश": 6827,
      "lent": 6828,
      "dig": 6829,
      "ग्रि": 6830,
      "fric": 6831,
      "लोड": 6832,
      "Dev": 6833,
      "सांसद": 6834,
      "धम्की": 6835,
      "High": 6836,
      "अघिल्लो": 6837,
      "additional": 6838,
      "अथवा": 6839,
      "रीले": 6840,
      "headquarters": 6841,
      "Ach": 6842,
      "Group": 6843,
      "चर्": 6844,
      "single": 6845,
      "26": 6846,
      "runs": 6847,
      "धार्मिक": 6848,
      "श्रो": 6849,
      "earlier": 6850,
      "ंख": 6851,
      "capacity": 6852,
      "सेप्टेम्बर": 6853,
      "Mohamed": 6854,
      "प्रदर्श": 6855,
      "Mean": 6856,
      "ारे": 6857,
      "बह": 6858,
      "omen": 6859,
      "largest": 6860,
      "turn": 6861,
      "cious": 6862,
      "कर्तव्य": 6863,
      "cat": 6864,
      "कटौती": 6865,
      "acting": 6866,
      "changes": 6867,
      "कतै": 6868,
      "अमेरिकामा": 6869,
      "ditions": 6870,
      "देखे": 6871,
      "27": 6872,
      "चाहिँ": 6873,
      "technical": 6874,
      "include": 6875,
      "Such": 6876,
      "mony": 6877,
      "परम्परागत": 6878,
      "bul": 6879,
      "500": 6880,
      "सदर": 6881,
      "प्राथमिकता": 6882,
      "जीवित": 6883,
      "cember": 6884,
      "providing": 6885,
      "ods": 6886,
      "मोबाइ": 6887,
      "बग": 6888,
      "हावा": 6889,
      "pression": 6890,
      "बताउनु": 6891,
      "वली": 6892,
      "आप": 6893,
      "sexual": 6894,
      "institutions": 6895,
      "UP": 6896,
      "इला": 6897,
      "प्राप्ताङ्क": 6898,
      "begun": 6899,
      "निर्यात": 6900,
      "Indus": 6901,
      "Himala": 6902,
      "literature": 6903,
      "views": 6904,
      "1959": 6905,
      "मतदान": 6906,
      "December": 6907,
      "crow": 6908,
      "Bang": 6909,
      "चिकित्सा": 6910,
      "Pal": 6911,
      "दिनुभयो": 6912,
      "निरा": 6913,
      "scre": 6914,
      "पुष्टि": 6915,
      "िकै": 6916,
      "porting": 6917,
      "उपत्यका": 6918,
      "havi": 6919,
      "दीय": 6920,
      "wants": 6921,
      "नियुक्त": 6922,
      "28": 6923,
      "लिमि": 6924,
      "KAT": 6925,
      "Meanwhile": 6926,
      "टिकट": 6927,
      "Febr": 6928,
      "du": 6929,
      "February": 6930,
      "Gork": 6931,
      "रगत": 6932,
      "rap": 6933,
      "अध्या": 6934,
      "चाल": 6935,
      "ञ्ज": 6936,
      "ड्न": 6937,
      "dev": 6938,
      "फर्म": 6939,
      "vey": 6940,
      "हिन्द": 6941,
      "First": 6942,
      "गर्छौं": 6943,
      "ological": 6944,
      "makes": 6945,
      "progress": 6946,
      "raf": 6947,
      "२००६": 6948,
      "Hu": 6949,
      "बिस्तारै": 6950,
      "स्टक": 6951,
      "figh": 6952,
      "राणा": 6953,
      "ANDU": 6954,
      "KATHM": 6955,
      "becoming": 6956,
      "introd": 6957,
      "तनाव": 6958,
      "Khad": 6959,
      "स्के": 6960,
      "dered": 6961,
      "Afric": 6962,
      "KATHMANDU": 6963,
      "तक": 6964,
      "आवाज": 6965,
      "Education": 6966,
      "संवैधानिक": 6967,
      "nic": 6968,
      "बिन": 6969,
      "ग्लो": 6970,
      "भण्डारी": 6971,
      "ished": 6972,
      "विज्ञापन": 6973,
      "ather": 6974,
      "revenue": 6975,
      "राको": 6976,
      "२०४": 6977,
      "भाग्य": 6978,
      "प्रत्या": 6979,
      "विन": 6980,
      "लिए": 6981,
      "aver": 6982,
      "uling": 6983,
      "वर्षा": 6984,
      "ori": 6985,
      "सपना": 6986,
      "निस्क": 6987,
      "आयोजित": 6988,
      "minutes": 6989,
      "however": 6990,
      "marriage": 6991,
      "व्याख्या": 6992,
      "Constituent": 6993,
      "named": 6994,
      "cked": 6995,
      "गर्नुभएको": 6996,
      "refer": 6997,
      "छनौट": 6998,
      "निज": 6999,
      "नैतिक": 7000,
      "गर्छु": 7001,
      "shows": 7002,
      "Earlier": 7003,
      "फोर्": 7004,
      "प्रमाणपत्र": 7005,
      "Let": 7006,
      "प्रवर्द्ध": 7007,
      "बढाउने": 7008,
      "Company": 7009,
      "isting": 7010,
      "Day": 7011,
      "nom": 7012,
      "उल्लेखनीय": 7013,
      "bes": 7014,
      "राखिएको": 7015,
      "हवाई": 7016,
      "encour": 7017,
      "David": 7018,
      "KC": 7019,
      "तरिकाले": 7020,
      "infrastructure": 7021,
      "यसैगरी": 7022,
      "June": 7023,
      "zed": 7024,
      "जोडि": 7025,
      "west": 7026,
      "स्कि": 7027,
      "सिद्ध": 7028,
      "आय": 7029,
      "गइरहेको": 7030,
      "Mal": 7031,
      "३१": 7032,
      "sources": 7033,
      "worth": 7034,
      "...\"": 7035,
      "evening": 7036,
      "hest": 7037,
      "ics": 7038,
      "istic": 7039,
      "fig": 7040,
      "स्वागत": 7041,
      "समन्व": 7042,
      "ण्डे": 7043,
      "color": 7044,
      "handari": 7045,
      "space": 7046,
      "commercial": 7047,
      "ero": 7048,
      "hate": 7049,
      "ners": 7050,
      "निको": 7051,
      "doz": 7052,
      "नीमा": 7053,
      "वेक्षण": 7054,
      "Korea": 7055,
      "इमा": 7056,
      "gets": 7057,
      "छुट्टै": 7058,
      "दिएर": 7059,
      "lers": 7060,
      "कागजात": 7061,
      "monitor": 7062,
      "improve": 7063,
      "fourth": 7064,
      "जानु": 7065,
      "अवै": 7066,
      "shot": 7067,
      "fle": 7068,
      "प्य": 7069,
      "हल्ला": 7070,
      "ल्याएको": 7071,
      "पसल": 7072,
      "SA": 7073,
      "हाय": 7074,
      "वाट": 7075,
      "वाला": 7076,
      "plom": 7077,
      "mas": 7078,
      "ङको": 7079,
      "hang": 7080,
      "जडान": 7081,
      "ically": 7082,
      "बाढी": 7083,
      "हुनाले": 7084,
      "चासो": 7085,
      "diplom": 7086,
      "paper": 7087,
      "moving": 7088,
      "Cla": 7089,
      "अस्पतालमा": 7090,
      "वर्णन": 7091,
      "type": 7092,
      "Jud": 7093,
      "throughout": 7094,
      "मधेश": 7095,
      "थालेका": 7096,
      "तिहासिक": 7097,
      "ँडै": 7098,
      "जरु": 7099,
      "अक्टोबर": 7100,
      "खड्": 7101,
      "रेन्द्र": 7102,
      "हर्": 7103,
      "Press": 7104,
      "avy": 7105,
      "patients": 7106,
      "क्रे": 7107,
      "सुन्दर": 7108,
      "महो": 7109,
      "commission": 7110,
      "नसकेको": 7111,
      "subject": 7112,
      "beginning": 7113,
      "राज्यको": 7114,
      "ators": 7115,
      "ba": 7116,
      "मंग": 7117,
      "industrial": 7118,
      "सेन्ट": 7119,
      "विभागले": 7120,
      "dial": 7121,
      "sper": 7122,
      "door": 7123,
      "surpr": 7124,
      "consensus": 7125,
      "typ": 7126,
      "शिव": 7127,
      "छन": 7128,
      "accept": 7129,
      "operate": 7130,
      "lower": 7131,
      "त्तम": 7132,
      "कोइराला": 7133,
      "क्ला": 7134,
      "विश्लेषण": 7135,
      "चाँडै": 7136,
      "Che": 7137,
      "भारतमा": 7138,
      "प्रचार": 7139,
      "aim": 7140,
      "पण": 7141,
      "सफ्ट": 7142,
      "आनन्द": 7143,
      "conditions": 7144,
      "appropriate": 7145,
      "प्रसारण": 7146,
      "प्रयोगकर्ता": 7147,
      "happened": 7148,
      "90": 7149,
      "squ": 7150,
      "लिमिटेड": 7151,
      "ब्रे": 7152,
      "राखेर": 7153,
      "दिव": 7154,
      "rou": 7155,
      "थिएनन्": 7156,
      "religious": 7157,
      "खेल्न": 7158,
      "inste": 7159,
      "डले": 7160,
      "till": 7161,
      "context": 7162,
      "aspe": 7163,
      "विनि": 7164,
      "Prov": 7165,
      "स्कट": 7166,
      "तोकि": 7167,
      "सबैलाई": 7168,
      "uli": 7169,
      "cure": 7170,
      "रित": 7171,
      "target": 7172,
      "domestic": 7173,
      "सङ्क": 7174,
      "evidence": 7175,
      "profit": 7176,
      "IC": 7177,
      "decre": 7178,
      "टनीति": 7179,
      "आयोगले": 7180,
      "proposed": 7181,
      "Federation": 7182,
      "पेली": 7183,
      "त्ती": 7184,
      "fight": 7185,
      "registered": 7186,
      "internal": 7187,
      "सेन": 7188,
      "analy": 7189,
      "किलोमिटर": 7190,
      "ji": 7191,
      "trol": 7192,
      "idea": 7193,
      "send": 7194,
      "meth": 7195,
      "listen": 7196,
      "Narayan": 7197,
      "सदरमु": 7198,
      "pil": 7199,
      "हिमा": 7200,
      "assad": 7201,
      "item": 7202,
      "उपनियम": 7203,
      "ऐतिहासिक": 7204,
      "थाल": 7205,
      "Ano": 7206,
      "ब्रिटिश": 7207,
      "ट्न": 7208,
      "individ": 7209,
      "डिसे": 7210,
      "cru": 7211,
      "recommend": 7212,
      "behavi": 7213,
      "बौ": 7214,
      "मन्त्रि": 7215,
      "ses": 7216,
      "passeng": 7217,
      "Tod": 7218,
      "फागु": 7219,
      "सम्पाद": 7220,
      "tourists": 7221,
      "submitted": 7222,
      "लनको": 7223,
      "भारतले": 7224,
      "४५": 7225,
      "प्रशास": 7226,
      "हरूमध्ये": 7227,
      "dress": 7228,
      "video": 7229,
      "संयोजक": 7230,
      "expect": 7231,
      "NE": 7232,
      "दय": 7233,
      "fif": 7234,
      "चोट": 7235,
      "whole": 7236,
      "करी": 7237,
      "Only": 7238,
      "hab": 7239,
      "तीव्र": 7240,
      "ises": 7241,
      "mouth": 7242,
      "regional": 7243,
      "बू": 7244,
      "कुर": 7245,
      "अदालतले": 7246,
      "उनुपर्ने": 7247,
      "alley": 7248,
      "scored": 7249,
      "advis": 7250,
      "कार्की": 7251,
      "stitute": 7252,
      "विविध": 7253,
      "पान्तरण": 7254,
      "mist": 7255,
      "बलि": 7256,
      "feature": 7257,
      "eth": 7258,
      "लाग्दो": 7259,
      "Trans": 7260,
      "बनाएर": 7261,
      "बस्ती": 7262,
      "कसैलाई": 7263,
      "document": 7264,
      "aten": 7265,
      "Another": 7266,
      "ied": 7267,
      "स्वयं": 7268,
      "cred": 7269,
      "makers": 7270,
      "contract": 7271,
      "हुनुपर्ने": 7272,
      "League": 7273,
      "बन्ने": 7274,
      "हामीसँग": 7275,
      "पहल": 7276,
      "परिण": 7277,
      "समूहले": 7278,
      "magazine": 7279,
      "पं": 7280,
      "समन्वय": 7281,
      "produced": 7282,
      "मल्": 7283,
      "religion": 7284,
      "Karki": 7285,
      "पूँजी": 7286,
      "शर्त": 7287,
      "ब्रो": 7288,
      "majority": 7289,
      "chairman": 7290,
      "employee": 7291,
      "TV": 7292,
      "ped": 7293,
      "Bra": 7294,
      "पढा": 7295,
      "कानूनी": 7296,
      "swe": 7297,
      "ruling": 7298,
      "manager": 7299,
      "हस्तान्तरण": 7300,
      "fare": 7301,
      "गाह्रो": 7302,
      "तथ्याङ्क": 7303,
      "ja": 7304,
      "bla": 7305,
      "award": 7306,
      "pack": 7307,
      "मानिसहरूले": 7308,
      "repeated": 7309,
      "enses": 7310,
      "सांस्कृतिक": 7311,
      "रिङ": 7312,
      "hose": 7313,
      "देहाय": 7314,
      "तापूर्वक": 7315,
      "वाही": 7316,
      "हिक": 7317,
      "Chaudh": 7318,
      "ौल": 7319,
      "log": 7320,
      "काउन्": 7321,
      "प्रकृति": 7322,
      "गरमा": 7323,
      "Ri": 7324,
      "अवसरमा": 7325,
      "पारेको": 7326,
      "क्यान्सर": 7327,
      "launched": 7328,
      "७५": 7329,
      "म्स": 7330,
      "युरोपेली": 7331,
      "जरुरी": 7332,
      "Pri": 7333,
      "मान्": 7334,
      "covered": 7335,
      "लीले": 7336,
      "sustain": 7337,
      "गर्नुहुन्छ": 7338,
      "generation": 7339,
      "partner": 7340,
      "link": 7341,
      "गएका": 7342,
      "Supreme": 7343,
      "Ban": 7344,
      "agencies": 7345,
      "भेटि": 7346,
      "online": 7347,
      "fication": 7348,
      "तल्लो": 7349,
      "नभई": 7350,
      "धितोपत्र": 7351,
      "atn": 7352,
      "पुस्ता": 7353,
      "porters": 7354,
      "cultural": 7355,
      "appeared": 7356,
      "demanded": 7357,
      "सडकमा": 7358,
      "compared": 7359,
      "persons": 7360,
      "white": 7361,
      "पुनरा": 7362,
      "दायिक": 7363,
      "साँच्चिकै": 7364,
      "newsp": 7365,
      "सशस्त्र": 7366,
      "होर": 7367,
      "haru": 7368,
      "spr": 7369,
      "अग": 7370,
      "Qu": 7371,
      "अदालतमा": 7372,
      "साझेदारी": 7373,
      "श्रृंख": 7374,
      "policies": 7375,
      "गुणस्तर": 7376,
      "tropol": 7377,
      "doub": 7378,
      "छोटो": 7379,
      "ony": 7380,
      "उसलाई": 7381,
      "पर्दैन": 7382,
      "चलिरहेको": 7383,
      "initiative": 7384,
      "Bhut": 7385,
      "Ter": 7386,
      "सिन्": 7387,
      "शता": 7388,
      "spee": 7389,
      "विस्त": 7390,
      "कार्ड": 7391,
      "Bal": 7392,
      "हारी": 7393,
      "UR": 7394,
      "सँगको": 7395,
      "धिका": 7396,
      "औसत": 7397,
      "demands": 7398,
      "fell": 7399,
      "बाटै": 7400,
      "cadres": 7401,
      "san": 7402,
      "सालमा": 7403,
      "aren": 7404,
      "celebr": 7405,
      "filed": 7406,
      "doesn": 7407,
      "निर्माता": 7408,
      "सूर्य": 7409,
      "र्ने": 7410,
      "verse": 7411,
      "शरण": 7412,
      "मुटु": 7413,
      "worship": 7414,
      "municipality": 7415,
      "५००": 7416,
      "fee": 7417,
      "७३": 7418,
      "त्यस्ता": 7419,
      "rown": 7420,
      "हडताल": 7421,
      "demon": 7422,
      "भन्नाले": 7423,
      "सञ्चालक": 7424,
      "priority": 7425,
      "cate": 7426,
      "Service": 7427,
      "महोत्": 7428,
      "भन्सार": 7429,
      "हिसाब": 7430,
      "card": 7431,
      "एनन्": 7432,
      "एड": 7433,
      "तरिका": 7434,
      "गन": 7435,
      "दिल्ली": 7436,
      "स्वरूप": 7437,
      "अष्ट्र": 7438,
      "About": 7439,
      "goti": 7440,
      "histor": 7441,
      "justice": 7442,
      "चम्": 7443,
      "उस": 7444,
      "प्रान्त": 7445,
      "someone": 7446,
      "ट्ने": 7447,
      "Bhandari": 7448,
      "prosper": 7449,
      "छुट्या": 7450,
      "insurance": 7451,
      "Under": 7452,
      "understanding": 7453,
      "देखाउने": 7454,
      "fal": 7455,
      "गाई": 7456,
      "पीडा": 7457,
      "नेको": 7458,
      "Club": 7459,
      "crip": 7460,
      "सनले": 7461,
      "प्रबन्धक": 7462,
      "।”": 7463,
      "संस्करण": 7464,
      "Corporation": 7465,
      "जातीय": 7466,
      "भन्नुहुन्छ": 7467,
      "क्रमश": 7468,
      "rupees": 7469,
      "Hol": 7470,
      "hav": 7471,
      "कानून": 7472,
      "sleep": 7473,
      "Rana": 7474,
      "रिरि": 7475,
      "उनीहरु": 7476,
      "मोबाइल": 7477,
      "decades": 7478,
      "बैं": 7479,
      "युक्ति": 7480,
      "प्रथ": 7481,
      "dispute": 7482,
      "bid": 7483,
      "sou": 7484,
      "Delhi": 7485,
      "Ed": 7486,
      "जरि": 7487,
      "huge": 7488,
      "जुलाई": 7489,
      "supply": 7490,
      "table": 7491,
      "customers": 7492,
      "त्रुटि": 7493,
      "cement": 7494,
      "uals": 7495,
      "acts": 7496,
      "sun": 7497,
      "Chaudhary": 7498,
      "सुरुमा": 7499,
      "चलाउने": 7500,
      "उत्पादक": 7501,
      "aled": 7502,
      "परिणत": 7503,
      "option": 7504,
      "चार्ज": 7505,
      "NA": 7506,
      "thre": 7507,
      "hop": 7508,
      "attem": 7509,
      "constitutional": 7510,
      "विस्तृत": 7511,
      "kid": 7512,
      "गल": 7513,
      "tence": 7514,
      "भेद": 7515,
      "nar": 7516,
      "लुका": 7517,
      "Those": 7518,
      "बसो": 7519,
      "अवैध": 7520,
      "इस्राए": 7521,
      "reform": 7522,
      "दीर्घकालीन": 7523,
      "stress": 7524,
      "ami": 7525,
      "पहाडी": 7526,
      "boy": 7527,
      "संघको": 7528,
      "mic": 7529,
      "hotel": 7530,
      "राजमार्ग": 7531,
      "वर्षे": 7532,
      "interests": 7533,
      "ढोका": 7534,
      "लिनु": 7535,
      "highest": 7536,
      "जहाज": 7537,
      "hood": 7538,
      "बीचमा": 7539,
      "strike": 7540,
      "बर्ग": 7541,
      "ology": 7542,
      "एकजना": 7543,
      "entreprene": 7544,
      "quali": 7545,
      "मौलिक": 7546,
      "वायुसेवा": 7547,
      "aur": 7548,
      "हिर्का": 7549,
      "निष्कर्ष": 7550,
      "Valley": 7551,
      "town": 7552,
      "weapons": 7553,
      "Hind": 7554,
      "window": 7555,
      "actions": 7556,
      "SE": 7557,
      "न्डर": 7558,
      "हेर्ने": 7559,
      "परिचय": 7560,
      "Today": 7561,
      "north": 7562,
      "org": 7563,
      "conc": 7564,
      "चरणमा": 7565,
      "ino": 7566,
      "super": 7567,
      "instead": 7568,
      "shares": 7569,
      "अद्या": 7570,
      "वेयर": 7571,
      "books": 7572,
      "murder": 7573,
      "Lord": 7574,
      "review": 7575,
      "दोषी": 7576,
      "preparing": 7577,
      "महिनामा": 7578,
      "questions": 7579,
      "mobile": 7580,
      "तत्व": 7581,
      "stage": 7582,
      "प्राव": 7583,
      "सकेपछि": 7584,
      "expensive": 7585,
      "identity": 7586,
      "इज": 7587,
      "क्रियाकलाप": 7588,
      "advert": 7589,
      "सञ्जाल": 7590,
      "Women": 7591,
      "धरा": 7592,
      "thousands": 7593,
      "succeed": 7594,
      "लेखिएको": 7595,
      "दित": 7596,
      "communication": 7597,
      "येश": 7598,
      "थप्नुभयो": 7599,
      "कार्यमा": 7600,
      "महत्व": 7601,
      "Union": 7602,
      "dest": 7603,
      "concl": 7604,
      "नोट": 7605,
      "सामान्यतया": 7606,
      "Lon": 7607,
      "Adhik": 7608,
      "union": 7609,
      "ograp": 7610,
      "aries": 7611,
      "potential": 7612,
      "Gi": 7613,
      "debate": 7614,
      "eval": 7615,
      "सिक्": 7616,
      "येशू": 7617,
      "freed": 7618,
      "बेच": 7619,
      "कहिलेका": 7620,
      "rote": 7621,
      "session": 7622,
      "temple": 7623,
      "फूल": 7624,
      "समक्ष": 7625,
      "मित्र": 7626,
      "विमानस्थल": 7627,
      "अहिलेको": 7628,
      "bomb": 7629,
      "इजा": 7630,
      "दर्शक": 7631,
      "write": 7632,
      "खारे": 7633,
      "लिस": 7634,
      "फर्का": 7635,
      "Tour": 7636,
      "बाह": 7637,
      "हुनसक्छ": 7638,
      "UK": 7639,
      "spokesman": 7640,
      "negoti": 7641,
      "गाउँमा": 7642,
      "गर्दैन": 7643,
      "conducted": 7644,
      "पञ्": 7645,
      "रेड": 7646,
      "जटिल": 7647,
      "declared": 7648,
      "सुनिश्चित": 7649,
      "airport": 7650,
      "easily": 7651,
      "ables": 7652,
      "स्ट्रि": 7653,
      "Where": 7654,
      "despite": 7655,
      "tru": 7656,
      "संसदीय": 7657,
      "पाइने": 7658,
      "Sal": 7659,
      "दमा": 7660,
      "निः": 7661,
      "wrote": 7662,
      "agricultural": 7663,
      "convention": 7664,
      "सम्मको": 7665,
      "लडाइँ": 7666,
      "unders": 7667,
      "त्कार": 7668,
      "thus": 7669,
      "terri": 7670,
      "फर्क": 7671,
      "ड्राइभर": 7672,
      "regula": 7673,
      "रंग": 7674,
      "East": 7675,
      "carrying": 7676,
      "श्या": 7677,
      "guar": 7678,
      "Adhikari": 7679,
      "model": 7680,
      "abs": 7681,
      "डब्ल्यूएम": 7682,
      "stead": 7683,
      "Ms": 7684,
      "नियुक्ति": 7685,
      "प्रतिज्ञा": 7686,
      "uri": 7687,
      "ङमा": 7688,
      "Reg": 7689,
      "climb": 7690,
      "suffering": 7691,
      "walk": 7692,
      "independent": 7693,
      "Adminis": 7694,
      "annual": 7695,
      "removed": 7696,
      "भौतिक": 7697,
      "प्रदू": 7698,
      "goes": 7699,
      "dist": 7700,
      "रचना": 7701,
      "प्रवर्द्धन": 7702,
      "कार्यालयले": 7703,
      "इन्छ": 7704,
      "songs": 7705,
      "विजेता": 7706,
      "Apr": 7707,
      "jan": 7708,
      "मिल्": 7709,
      "alone": 7710,
      "सबभन्दा": 7711,
      "altern": 7712,
      "ताजा": 7713,
      "ब्दी": 7714,
      "सम्मेलनमा": 7715,
      "nations": 7716,
      "वार्तामा": 7717,
      "directed": 7718,
      "lace": 7719,
      "क्रमशः": 7720,
      "टेको": 7721,
      "April": 7722,
      "distribution": 7723,
      "coach": 7724,
      "nings": 7725,
      "-\"": 7726,
      "सप्तरी": 7727,
      "Chandra": 7728,
      "web": 7729,
      "भिड": 7730,
      "girl": 7731,
      "ख्यक": 7732,
      "कक्ष": 7733,
      "lary": 7734,
      "selling": 7735,
      "Finance": 7736,
      "arrived": 7737,
      "loans": 7738,
      "tea": 7739,
      "charges": 7740,
      "औद": 7741,
      "प्रकट": 7742,
      "oking": 7743,
      "idential": 7744,
      "नजिकै": 7745,
      "स्मृ": 7746,
      "remains": 7747,
      "लभ": 7748,
      "रातो": 7749,
      "ङ्का": 7750,
      "bri": 7751,
      "cricket": 7752,
      "lied": 7753,
      "seek": 7754,
      "UPI": 7755,
      "प्रथम": 7756,
      "बिता": 7757,
      "खबर": 7758,
      "answer": 7759,
      "सहर": 7760,
      "ताप": 7761,
      "box": 7762,
      "inator": 7763,
      "स्ना": 7764,
      "Saptari": 7765,
      "Inc": 7766,
      "bon": 7767,
      "जोडा": 7768,
      "संस्थाको": 7769,
      "पत्नी": 7770,
      "mental": 7771,
      "reduce": 7772,
      "माछा": 7773,
      "\"‘": 7774,
      "lor": 7775,
      "औंला": 7776,
      "ारमा": 7777,
      "prim": 7778,
      "खाता": 7779,
      "veget": 7780,
      "comfort": 7781,
      "auti": 7782,
      "meaning": 7783,
      "suit": 7784,
      "दुर्घटना": 7785,
      "laugh": 7786,
      "बृद्धि": 7787,
      "भुवन": 7788,
      "News": 7789,
      "London": 7790,
      "benefit": 7791,
      "इटा": 7792,
      "lakh": 7793,
      "अर्थात्": 7794,
      "prevent": 7795,
      "सर्वोत्तम": 7796,
      "विरा": 7797,
      "die": 7798,
      "Si": 7799,
      "traditional": 7800,
      "सर्वेक्षण": 7801,
      "opening": 7802,
      "reasons": 7803,
      "holding": 7804,
      "status": 7805,
      "enjo": 7806,
      "म्पियन": 7807,
      "अद्यावधिक": 7808,
      "ट्रया": 7809,
      "लियम": 7810,
      "conscious": 7811,
      "nearly": 7812,
      "Pandey": 7813,
      "representatives": 7814,
      "except": 7815,
      "bringing": 7816,
      "ni": 7817,
      "keeping": 7818,
      "फ्याँकि": 7819,
      "सुदृ": 7820,
      "द्वी": 7821,
      "मिन": 7822,
      "कारि": 7823,
      "प्रतिलिपि": 7824,
      "केदार": 7825,
      "महासचिव": 7826,
      "pair": 7827,
      "Russia": 7828,
      "अर्ब": 7829,
      "जिम्मेवार": 7830,
      "estimated": 7831,
      "राती": 7832,
      "edi": 7833,
      "Who": 7834,
      "आएर": 7835,
      "उनुपर्छ": 7836,
      "तस्वी": 7837,
      "corre": 7838,
      "sad": 7839,
      "अँ": 7840,
      "थियौं": 7841,
      "protection": 7842,
      "possibility": 7843,
      "१९८": 7844,
      "cohol": 7845,
      "त्यसले": 7846,
      "offer": 7847,
      "za": 7848,
      "स्मृति": 7849,
      "avo": 7850,
      "events": 7851,
      "समग्र": 7852,
      "equip": 7853,
      "completely": 7854,
      "importance": 7855,
      "eating": 7856,
      "ँचा": 7857,
      "विद्यालयमा": 7858,
      "समुद्र": 7859,
      "मालिक": 7860,
      "्योगिक": 7861,
      "दौड": 7862,
      "acqu": 7863,
      "वैदेशिक": 7864,
      "pit": 7865,
      "35": 7866,
      "tradition": 7867,
      "गन्त": 7868,
      "takes": 7869,
      "speech": 7870,
      "cup": 7871,
      "Deputy": 7872,
      "दलित": 7873,
      "hero": 7874,
      "servation": 7875,
      "इजाजत": 7876,
      "स्वीकृति": 7877,
      "Rules": 7878,
      "roads": 7879,
      "bow": 7880,
      "मानक": 7881,
      "जाँदा": 7882,
      "विकासको": 7883,
      "तोकिएको": 7884,
      "युनि": 7885,
      "IT": 7886,
      "actor": 7887,
      "हेर्दा": 7888,
      "मामा": 7889,
      "damage": 7890,
      "ots": 7891,
      "license": 7892,
      "cities": 7893,
      "cou": 7894,
      "शहरमा": 7895,
      "Tech": 7896,
      "पदाधिकारी": 7897,
      "reve": 7898,
      "मर्मत": 7899,
      "television": 7900,
      "average": 7901,
      "मुलुकको": 7902,
      "leaving": 7903,
      "signed": 7904,
      "हातमा": 7905,
      "moved": 7906,
      "नियमा": 7907,
      "कहिलेकाही": 7908,
      "reti": 7909,
      "चाहने": 7910,
      "गाँ": 7911,
      "personnel": 7912,
      "निर्वाच": 7913,
      "Kir": 7914,
      "बौद्ध": 7915,
      "हुनुपर्दछ": 7916,
      "लगाइएको": 7917,
      "pie": 7918,
      "बढेर": 7919,
      "उहाँको": 7920,
      "औद्योगिक": 7921,
      "इच्छा": 7922,
      "iture": 7923,
      "सामुदायिक": 7924,
      "Britain": 7925,
      "म्र": 7926,
      "inion": 7927,
      "वर्षदेखि": 7928,
      "नियर": 7929,
      "drama": 7930,
      "secret": 7931,
      "actu": 7932,
      "मुस्": 7933,
      "Red": 7934,
      "tili": 7935,
      "asi": 7936,
      "showed": 7937,
      "कविता": 7938,
      "इन्टरनेट": 7939,
      "Despite": 7940,
      "establishment": 7941,
      "authorities": 7942,
      "network": 7943,
      "माघ": 7944,
      "पक्षीय": 7945,
      "डाक्टर": 7946,
      "Democratic": 7947,
      "बेलामा": 7948,
      "समी": 7949,
      "resent": 7950,
      "श्रीमती": 7951,
      "famous": 7952,
      "division": 7953,
      "हेरि": 7954,
      "limate": 7955,
      "गएर": 7956,
      "शू": 7957,
      "एयर": 7958,
      "निर्धार": 7959,
      "assador": 7960,
      "वासिङ्ट": 7961,
      "archy": 7962,
      "proced": 7963,
      "198": 7964,
      "डलरको": 7965,
      "सदरमुकाम": 7966,
      "everything": 7967,
      "behavior": 7968,
      "ओर्": 7969,
      "षा": 7970,
      "सला": 7971,
      "हुनेछन्": 7972,
      "वरी": 7973,
      "contain": 7974,
      "श्रेष्ठले": 7975,
      "आह्": 7976,
      "धन्य": 7977,
      "revolution": 7978,
      "मुख्यतया": 7979,
      "ID": 7980,
      "कालमा": 7981,
      "दको": 7982,
      "levels": 7983,
      "occur": 7984,
      "तले": 7985,
      "जीवनमा": 7986,
      "gent": 7987,
      "Dar": 7988,
      "चीनको": 7989,
      "pi": 7990,
      "ेन्द्र": 7991,
      "inde": 7992,
      "गहिरो": 7993,
      "Last": 7994,
      "operated": 7995,
      "Trump": 7996,
      "सुना": 7997,
      "teachers": 7998,
      "soldi": 7999,
      "agency": 8000,
      "introduc": 8001,
      "wall": 8002,
      "France": 8003,
      "च्याम्पियन": 8004,
      "track": 8005,
      "interview": 8006,
      "moment": 8007,
      "मिरे": 8008,
      "राजदूत": 8009,
      "eld": 8010,
      "ential": 8011,
      "pul": 8012,
      "डाइ": 8013,
      "पेन्": 8014,
      "continued": 8015,
      "bin": 8016,
      "दण्ड": 8017,
      "parliamentary": 8018,
      "Br": 8019,
      "century": 8020,
      "opportun": 8021,
      "हरियो": 8022,
      "शताब्दी": 8023,
      "चरि": 8024,
      "टेर": 8025,
      "Chit": 8026,
      "त्याग": 8027,
      "बसि": 8028,
      "कल्पना": 8029,
      "आर्जन": 8030,
      "गन्": 8031,
      "च्ने": 8032,
      "KP": 8033,
      "31": 8034,
      "FA": 8035,
      "izing": 8036,
      "मुद्दामा": 8037,
      "Lama": 8038,
      "निर्धारित": 8039,
      "respect": 8040,
      "victory": 8041,
      "settlement": 8042,
      "studying": 8043,
      "समे": 8044,
      "क्यालि": 8045,
      "कम्युनिष्ट": 8046,
      "जनालाई": 8047,
      "हानि": 8048,
      "Prad": 8049,
      "delay": 8050,
      "चट्टा": 8051,
      "powers": 8052,
      "इन्कर्पोरे": 8053,
      "tron": 8054,
      "गल्ती": 8055,
      "खेल्ने": 8056,
      "limit": 8057,
      "वडा": 8058,
      "उल्ल": 8059,
      "०५": 8060,
      "न्डो": 8061,
      "संविधानसभा": 8062,
      "क्र्या": 8063,
      "receive": 8064,
      "thes": 8065,
      "brand": 8066,
      "पात्र": 8067,
      "Hindu": 8068,
      "बेलायत": 8069,
      "ओलीले": 8070,
      "नोभेम्बर": 8071,
      "गयो": 8072,
      "steps": 8073,
      "प्रदूषण": 8074,
      "सिना": 8075,
      "markets": 8076,
      "कुराको": 8077,
      "अत्यन्त": 8078,
      "bridge": 8079,
      "ore": 8080,
      "नष्ट": 8081,
      "गर्व": 8082,
      "cash": 8083,
      "arding": 8084,
      "भनेका": 8085,
      "साता": 8086,
      "तस्वीर": 8087,
      "poem": 8088,
      "ल्पा": 8089,
      "सद्": 8090,
      "remove": 8091,
      "rend": 8092,
      "regard": 8093,
      "Lam": 8094,
      "इन्कर्पोरेटि": 8095,
      "fast": 8096,
      "बुद्ध": 8097,
      "रञ्": 8098,
      "प्रावधान": 8099,
      "चाहन्छन्": 8100,
      "winning": 8101,
      "Park": 8102,
      "गरिब": 8103,
      "जै": 8104,
      "believed": 8105,
      "खना": 8106,
      "function": 8107,
      "सर्वसाधारण": 8108,
      "गठबन्ध": 8109,
      "33": 8110,
      "जुद": 8111,
      "Asian": 8112,
      "Its": 8113,
      "collection": 8114,
      "तत्कालीन": 8115,
      "डिकल": 8116,
      "ER": 8117,
      "केवल": 8118,
      "struggle": 8119,
      "’\"": 8120,
      "reports": 8121,
      "लन्ड": 8122,
      "hatever": 8123,
      "ढुङ्गा": 8124,
      "Kamal": 8125,
      "बुझ्न": 8126,
      "confidence": 8127,
      "परिस्थिति": 8128,
      "दिशा": 8129,
      "amendment": 8130,
      "स्वतन्त्रता": 8131,
      "राग": 8132,
      "growing": 8133,
      "Colle": 8134,
      "suspe": 8135,
      "ढे": 8136,
      "उपन्यास": 8137,
      "Chris": 8138,
      "लक्षित": 8139,
      "नाकाबन्दी": 8140,
      "सावधानी": 8141,
      "जलवायु": 8142,
      "ट्यु": 8143,
      "सुश्री": 8144,
      "Iran": 8145,
      "तुरुन्तै": 8146,
      "alcohol": 8147,
      "स्यौ": 8148,
      "industries": 8149,
      "ING": 8150,
      "tempor": 8151,
      "बैंकले": 8152,
      "size": 8153,
      "नर्": 8154,
      "phase": 8155,
      "व्यवस्थाप": 8156,
      "fulfill": 8157,
      "महेन्द्र": 8158,
      "looked": 8159,
      "caused": 8160,
      "ङ्गो": 8161,
      "निकायले": 8162,
      "भाविक": 8163,
      "Tele": 8164,
      "लागेका": 8165,
      "बढ्ने": 8166,
      "inspe": 8167,
      "भएकोले": 8168,
      "नेपाललाई": 8169,
      "गतिविधि": 8170,
      "credit": 8171,
      "gs": 8172,
      "sense": 8173,
      "discussed": 8174,
      "प्रै": 8175,
      "पका": 8176,
      "गाविस": 8177,
      "Mid": 8178,
      "भुटा": 8179,
      "२०६": 8180,
      "broken": 8181,
      "documents": 8182,
      "England": 8183,
      "पेट्रो": 8184,
      "porate": 8185,
      "बसेको": 8186,
      "यती": 8187,
      "resh": 8188,
      "Mahen": 8189,
      "अगस्ट": 8190,
      "carried": 8191,
      "utam": 8192,
      "computer": 8193,
      "response": 8194,
      "screen": 8195,
      "टेटे": 8196,
      "blockade": 8197,
      "direction": 8198,
      "las": 8199,
      "त्यसरी": 8200,
      "अस्ति": 8201,
      "touch": 8202,
      "ीको": 8203,
      "referred": 8204,
      "ift": 8205,
      "समयसम्म": 8206,
      "communities": 8207,
      "Chr": 8208,
      "बनाइएको": 8209,
      "proval": 8210,
      "faith": 8211,
      "घटनामा": 8212,
      "claims": 8213,
      "tori": 8214,
      "turned": 8215,
      "protest": 8216,
      "मुक्ति": 8217,
      "tled": 8218,
      "followed": 8219,
      "oting": 8220,
      "Gan": 8221,
      "Three": 8222,
      "accord": 8223,
      "feet": 8224,
      "married": 8225,
      "constructed": 8226,
      "educational": 8227,
      "प्रचलित": 8228,
      "east": 8229,
      "उन्न": 8230,
      "step": 8231,
      "Ang": 8232,
      "45": 8233,
      "fine": 8234,
      "पथ": 8235,
      "Fund": 8236,
      "ministers": 8237,
      "टाँ": 8238,
      "चलाउन": 8239,
      "sometimes": 8240,
      "Cur": 8241,
      "sides": 8242,
      "reser": 8243,
      "जीवनको": 8244,
      "धिकारिक": 8245,
      "शिखर": 8246,
      "contact": 8247,
      "craft": 8248,
      "माओवादीको": 8249,
      "Organ": 8250,
      "onal": 8251,
      "युग": 8252,
      "महारा": 8253,
      "निम्न": 8254,
      "cum": 8255,
      "औपचारिक": 8256,
      "haps": 8257,
      "गोर": 8258,
      "Khadka": 8259,
      "Gautam": 8260,
      "असन्तु": 8261,
      "प्रतियोगिता": 8262,
      "इएका": 8263,
      "फौ": 8264,
      "fru": 8265,
      "फोर": 8266,
      "illegal": 8267,
      "bag": 8268,
      "लम्बन": 8269,
      "खाद्या": 8270,
      "कपडा": 8271,
      "फागुन": 8272,
      "Ben": 8273,
      "abin": 8274,
      "लीमा": 8275,
      "समाजमा": 8276,
      "प्रकारका": 8277,
      "Char": 8278,
      "Yes": 8279,
      "ford": 8280,
      "appears": 8281,
      "true": 8282,
      "'.": 8283,
      "अख्": 8284,
      "raising": 8285,
      "मार्च": 8286,
      "मंगलबार": 8287,
      "वाको": 8288,
      "career": 8289,
      "सुनि": 8290,
      "ध्यापक": 8291,
      "उत्तरी": 8292,
      "सहभागिता": 8293,
      "speed": 8294,
      "लीय": 8295,
      "save": 8296,
      "70": 8297,
      "धानमा": 8298,
      "पित": 8299,
      "existing": 8300,
      "dream": 8301,
      "सञ्चालित": 8302,
      "Gorkha": 8303,
      "sac": 8304,
      "सक्छौं": 8305,
      "बुझ्": 8306,
      "journalists": 8307,
      "ping": 8308,
      "विहीन": 8309,
      "drinking": 8310,
      "proceed": 8311,
      "अनुमो": 8312,
      "पोखरा": 8313,
      "झैं": 8314,
      "मानिसहरूलाई": 8315,
      "spirit": 8316,
      "माटो": 8317,
      "यसो": 8318,
      "double": 8319,
      "निःशुल्क": 8320,
      "रोकि": 8321,
      "जरिवा": 8322,
      "बढ्न": 8323,
      "ट्रम्प": 8324,
      "परिभाषा": 8325,
      "dialog": 8326,
      "एल्": 8327,
      "मस्यौ": 8328,
      "Mis": 8329,
      "consult": 8330,
      "नं": 8331,
      "बिदा": 8332,
      "विनाश": 8333,
      "NC": 8334,
      "एँ": 8335,
      "beg": 8336,
      "क्कै": 8337,
      "Wal": 8338,
      "accep": 8339,
      "Pur": 8340,
      "hot": 8341,
      "BS": 8342,
      "पन्": 8343,
      "ficient": 8344,
      "आजको": 8345,
      "ster": 8346,
      "इका": 8347,
      "केपी": 8348,
      "भाषण": 8349,
      "३२": 8350,
      "aya": 8351,
      "राखेका": 8352,
      "अनिवार्": 8353,
      "beauti": 8354,
      "Security": 8355,
      "bably": 8356,
      "राहत": 8357,
      "remember": 8358,
      "किशोर": 8359,
      "पर्न": 8360,
      "प्रतिस्थापन": 8361,
      "equal": 8362,
      "साझेदार": 8363,
      "वित्र": 8364,
      "तान": 8365,
      "freedom": 8366,
      "बाबजुद": 8367,
      "caste": 8368,
      "सत्र": 8369,
      "दशकमा": 8370,
      "कारखाना": 8371,
      "उद्य": 8372,
      "experts": 8373,
      "offices": 8374,
      "ल्डर": 8375,
      "aud": 8376,
      "राम्र": 8377,
      "मोड": 8378,
      "parent": 8379,
      "Mahar": 8380,
      "टुक्रा": 8381,
      "काँ": 8382,
      "opinion": 8383,
      "झो": 8384,
      "चिन्ति": 8385,
      "हालको": 8386,
      "perform": 8387,
      "south": 8388,
      "लक्ष्": 8389,
      "केन्द्रमा": 8390,
      "films": 8391,
      "atic": 8392,
      "teams": 8393,
      "helped": 8394,
      "इलो": 8395,
      "आधिकारिक": 8396,
      "Shak": 8397,
      "खोज्ने": 8398,
      "चिन्तित": 8399,
      "cin": 8400,
      "त्रिभुवन": 8401,
      "तालिका": 8402,
      "परिभाष": 8403,
      "cholar": 8404,
      "फेस": 8405,
      "मस्यौदा": 8406,
      "exchange": 8407,
      "normal": 8408,
      "gers": 8409,
      "साझा": 8410,
      "कर्षण": 8411,
      "investors": 8412,
      "विश्लेषक": 8413,
      "वासन": 8414,
      "Both": 8415,
      "Child": 8416,
      "akash": 8417,
      "अष्ट्रे": 8418,
      "Sept": 8419,
      "jus": 8420,
      "mine": 8421,
      "agend": 8422,
      "arrangements": 8423,
      "journey": 8424,
      "खेलकु": 8425,
      "ल्दा": 8426,
      "Far": 8427,
      "SP": 8428,
      "task": 8429,
      "हस्तक्षेप": 8430,
      "Administration": 8431,
      "danger": 8432,
      "पश्चिमी": 8433,
      "परिभाषित": 8434,
      "पल्ट": 8435,
      "stone": 8436,
      "opportunities": 8437,
      "क्वा": 8438,
      "uclear": 8439,
      "कमल": 8440,
      "ghan": 8441,
      "discrim": 8442,
      "इन्धन": 8443,
      "दूता": 8444,
      "princip": 8445,
      "committed": 8446,
      "sociated": 8447,
      "विद्य": 8448,
      "setting": 8449,
      "Ob": 8450,
      "चाँ": 8451,
      "goals": 8452,
      "पहाड": 8453,
      "blind": 8454,
      "भत्": 8455,
      "शिष्ट": 8456,
      "Janak": 8457,
      "शक्तिको": 8458,
      "बुबा": 8459,
      "आधारभूत": 8460,
      "itan": 8461,
      "ुर्ुर्ुर्ुर्ुर्ुर्ुर्ुर्ुर्ुर्ुर्ुर्ुर्ुर्ुर्ुर्": 8462,
      "Bhak": 8463,
      "साउ": 8464,
      "Chitwan": 8465,
      "Australia": 8466,
      "Lim": 8467,
      "crime": 8468,
      "बसोबास": 8469,
      "yo": 8470,
      "डेटा": 8471,
      "थपि": 8472,
      "mobil": 8473,
      "घाँ": 8474,
      "challenge": 8475,
      "PRNew": 8476,
      "अनुमोदन": 8477,
      "अनिवार्य": 8478,
      "बताइएको": 8479,
      "wenty": 8480,
      "administra": 8481,
      "फाइन": 8482,
      "शित": 8483,
      "सदा": 8484,
      "गर्भ": 8485,
      "काठमाडौंमा": 8486,
      "टर्की": 8487,
      "integr": 8488,
      "spoke": 8489,
      "pse": 8490,
      "सदन": 8491,
      "specified": 8492,
      "चिसो": 8493,
      "rich": 8494,
      "ulture": 8495,
      "tood": 8496,
      "ensation": 8497,
      "Arab": 8498,
      "ंगो": 8499,
      "यसबाट": 8500,
      "rench": 8501,
      "presence": 8502,
      "Management": 8503,
      "जसलाई": 8504,
      "९०": 8505,
      "clothes": 8506,
      "understood": 8507,
      "relief": 8508,
      "survi": 8509,
      "आह्वान": 8510,
      "armed": 8511,
      "discussions": 8512,
      "cancer": 8513,
      "commitment": 8514,
      "Cap": 8515,
      "approval": 8516,
      "प्लेट": 8517,
      "डेर": 8518,
      "spend": 8519,
      "sports": 8520,
      "emphas": 8521,
      "lights": 8522,
      "झ्याल": 8523,
      "Trib": 8524,
      "चिन्ह": 8525,
      "thir": 8526,
      "lades": 8527,
      "विद्": 8528,
      "latest": 8529,
      "ंदा": 8530,
      "Malay": 8531,
      "यहू": 8532,
      "किसिमको": 8533,
      "park": 8534,
      "लिन्छ": 8535,
      "types": 8536,
      "पढ्न": 8537,
      "रहन": 8538,
      "प्रसिद्ध": 8539,
      "monarchy": 8540,
      "मधेसी": 8541,
      "सामेल": 8542,
      "Social": 8543,
      "अफगा": 8544,
      "प्रतिबद्धता": 8545,
      "reduced": 8546,
      "article": 8547,
      "बलपूर्वक": 8548,
      "1979": 8549,
      "Face": 8550,
      "Whether": 8551,
      "names": 8552,
      "नेका": 8553,
      "locals": 8554,
      "knew": 8555,
      "Acharya": 8556,
      "bour": 8557,
      "rob": 8558,
      "सबैको": 8559,
      "सेवाको": 8560,
      "थित": 8561,
      "यथार्थ": 8562,
      "सक्दछ": 8563,
      "भाडा": 8564,
      "धन्यवाद": 8565,
      "रमाइलो": 8566,
      "साँझ": 8567,
      "लेन": 8568,
      "३६": 8569,
      "jun": 8570,
      "देख्न": 8571,
      "range": 8572,
      "planning": 8573,
      "Lab": 8574,
      "कमि": 8575,
      "Afghan": 8576,
      "हैन": 8577,
      "enced": 8578,
      "पछ्या": 8579,
      "mode": 8580,
      "sky": 8581,
      "participate": 8582,
      "rates": 8583,
      "थापाले": 8584,
      "न्तु": 8585,
      "बनेका": 8586,
      "Lt": 8587,
      "desire": 8588,
      "शङ्का": 8589,
      "compla": 8590,
      "उपस्थिति": 8591,
      "Geor": 8592,
      "candidate": 8593,
      "Ham": 8594,
      "conven": 8595,
      "चिनो": 8596,
      "हासिल": 8597,
      "programme": 8598,
      "Federal": 8599,
      "अप्रि": 8600,
      "मधेशी": 8601,
      "ट्रि": 8602,
      "आउनु": 8603,
      "चालित": 8604,
      "Gre": 8605,
      "कुराका": 8606,
      "offering": 8607,
      "reading": 8608,
      "सत्": 8609,
      "ध्ये": 8610,
      "Maha": 8611,
      "oriented": 8612,
      "वु": 8613,
      "लगाएको": 8614,
      "विज्ञप्ति": 8615,
      "Sm": 8616,
      "probably": 8617,
      "notice": 8618,
      "राजी": 8619,
      "Justice": 8620,
      "मासु": 8621,
      "विप": 8622,
      "infe": 8623,
      "itage": 8624,
      "huvan": 8625,
      "सीप": 8626,
      "पट्ट": 8627,
      "arrest": 8628,
      "counter": 8629,
      "्यारो": 8630,
      "ansion": 8631,
      "सोधे": 8632,
      "beautiful": 8633,
      "assy": 8634,
      "देखाउँछ": 8635,
      "तर्फबाट": 8636,
      "'.\"": 8637,
      "Sci": 8638,
      "ght": 8639,
      "scheduled": 8640,
      "खारेज": 8641,
      "प्रशस्त": 8642,
      "खेर": 8643,
      "त्तिकै": 8644,
      "Also": 8645,
      "उहा": 8646,
      "biggest": 8647,
      "एकीकृत": 8648,
      "Banglades": 8649,
      "dance": 8650,
      "अपरि": 8651,
      "पवित्र": 8652,
      "professional": 8653,
      "नाटक": 8654,
      "पुरमा": 8655,
      "ordin": 8656,
      "ष्णु": 8657,
      "सिट": 8658,
      "inton": 8659,
      "ारु": 8660,
      "stra": 8661,
      "लस": 8662,
      "politici": 8663,
      "Commer": 8664,
      "शाला": 8665,
      "घाटा": 8666,
      "adopted": 8667,
      "जुर": 8668,
      "तिमीहरू": 8669,
      "missed": 8670,
      "promotion": 8671,
      "Internet": 8672,
      "remained": 8673,
      "वेदनशील": 8674,
      "ैंचा": 8675,
      "चरा": 8676,
      "achieve": 8677,
      "gur": 8678,
      "sitting": 8679,
      "व्": 8680,
      "ग्यास": 8681,
      "wild": 8682,
      "उनीहरुले": 8683,
      "बाटोमा": 8684,
      "बरु": 8685,
      "stream": 8686,
      "atnagar": 8687,
      "chi": 8688,
      "effort": 8689,
      "टीमा": 8690,
      "कुर्": 8691,
      "expend": 8692,
      "doctors": 8693,
      "couple": 8694,
      "सस्तो": 8695,
      "practic": 8696,
      "benefits": 8697,
      "punish": 8698,
      "बैठकले": 8699,
      "measures": 8700,
      "harm": 8701,
      "पाकिस्तान": 8702,
      "विद्यमान": 8703,
      "२००५": 8704,
      "परिचालन": 8705,
      "ili": 8706,
      "Western": 8707,
      "receiving": 8708,
      "समीक्षा": 8709,
      "dem": 8710,
      "ici": 8711,
      "trou": 8712,
      "cooperation": 8713,
      "original": 8714,
      "आकाश": 8715,
      "Modi": 8716,
      "lateral": 8717,
      "NO": 8718,
      "प्रोत्साहित": 8719,
      "सम्ममा": 8720,
      "पाण्डे": 8721,
      "दलका": 8722,
      "शिवि": 8723,
      "respective": 8724,
      "Royal": 8725,
      "Biratnagar": 8726,
      "milk": 8727,
      "थुप्रै": 8728,
      "परमप्रभुले": 8729,
      "items": 8730,
      "Jour": 8731,
      "Institute": 8732,
      "नेतृत्वमा": 8733,
      "नय": 8734,
      "Forum": 8735,
      "चरित्र": 8736,
      "यसँग": 8737,
      "स्थलमा": 8738,
      "अरब": 8739,
      "ancy": 8740,
      "लेखि": 8741,
      "reaching": 8742,
      "देखिने": 8743,
      "गुरुङ": 8744,
      "duty": 8745,
      "millions": 8746,
      "youths": 8747,
      "मारी": 8748,
      "फोर्निया": 8749,
      "मधु": 8750,
      "पारे": 8751,
      "participation": 8752,
      "\"-": 8753,
      "spending": 8754,
      "household": 8755,
      "hearing": 8756,
      "एकता": 8757,
      "आफैँ": 8758,
      "रूपान्तरण": 8759,
      "पार्टीले": 8760,
      "तिमीलाई": 8761,
      "Law": 8762,
      "certificate": 8763,
      "मद": 8764,
      "explain": 8765,
      "demonstr": 8766,
      "climate": 8767,
      "आचार्य": 8768,
      "Villa": 8769,
      "Dharan": 8770,
      "judge": 8771,
      "रङ्ग": 8772,
      "हृ": 8773,
      "कोलागि": 8774,
      "belief": 8775,
      "बाँच": 8776,
      "served": 8777,
      "जुनसुकै": 8778,
      "दक्ष": 8779,
      "क्यालिफोर्निया": 8780,
      "fuel": 8781,
      "सन्दर्भमा": 8782,
      "प्रशंसा": 8783,
      "निजा": 8784,
      "रोमा": 8785,
      "छै": 8786,
      "नगद": 8787,
      "बसेर": 8788,
      "सिमा": 8789,
      "Ass": 8790,
      "Dhak": 8791,
      "serve": 8792,
      "trust": 8793,
      "strategy": 8794,
      "western": 8795,
      "धिकार": 8796,
      "yourself": 8797,
      "glass": 8798,
      "Da": 8799,
      "respond": 8800,
      "basic": 8801,
      "wat": 8802,
      "Tamang": 8803,
      "mechan": 8804,
      "feeling": 8805,
      "तिनका": 8806,
      "तहमा": 8807,
      "quickly": 8808,
      "बला": 8809,
      "लगाएर": 8810,
      "सन्त": 8811,
      "sound": 8812,
      "ounding": 8813,
      "मञ्च": 8814,
      "रन": 8815,
      "तिमीले": 8816,
      "collected": 8817,
      "believes": 8818,
      "हटाउन": 8819,
      "resign": 8820,
      "imag": 8821,
      "मोदी": 8822,
      "ठोस": 8823,
      "science": 8824,
      "bound": 8825,
      "स्टि": 8826,
      "फ्लो": 8827,
      "भूति": 8828,
      "टीका": 8829,
      "seeing": 8830,
      "bot": 8831,
      "इने": 8832,
      "attacks": 8833,
      "suffered": 8834,
      "driver": 8835,
      "सुन्": 8836,
      "ops": 8837,
      "जनसङ्ख्या": 8838,
      "Affairs": 8839,
      "एशिया": 8840,
      "अख्तियार": 8841,
      "Ash": 8842,
      "French": 8843,
      "हिस्": 8844,
      "ensure": 8845,
      "sequ": 8846,
      "planned": 8847,
      "विगतमा": 8848,
      "race": 8849,
      "approved": 8850,
      "alleged": 8851,
      "ires": 8852,
      "loan": 8853,
      "ब्बर": 8854,
      "स्की": 8855,
      "टिभी": 8856,
      "Second": 8857,
      "षे": 8858,
      "मानिन्छ": 8859,
      "विभागका": 8860,
      "Pun": 8861,
      "अन्ततः": 8862,
      "रेन्ट": 8863,
      "क्सि": 8864,
      "Gold": 8865,
      "determined": 8866,
      "सेन्": 8867,
      "देखाउन": 8868,
      "survey": 8869,
      "शासक": 8870,
      "फायर": 8871,
      "studies": 8872,
      "प्रतिवेद": 8873,
      "मिल": 8874,
      "मिने": 8875,
      "costs": 8876,
      "चका": 8877,
      "संगीत": 8878,
      "स्टिक": 8879,
      "विकासमा": 8880,
      "बगैंचा": 8881,
      "घरे": 8882,
      "कसित": 8883,
      "मुद्र": 8884,
      "healthy": 8885,
      "कमी": 8886,
      "damaged": 8887,
      "zing": 8888,
      "नवीकरण": 8889,
      "बन": 8890,
      "eastern": 8891,
      "Sto": 8892,
      "धनको": 8893,
      "Rastra": 8894,
      "scene": 8895,
      "खाद्यान्न": 8896,
      "confir": 8897,
      "मरे": 8898,
      "Represent": 8899,
      "scholar": 8900,
      "chance": 8901,
      "2005": 8902,
      "solution": 8903,
      "आण": 8904,
      "लिई": 8905,
      "college": 8906,
      "मृत": 8907,
      "relating": 8908,
      "ctives": 8909,
      "वाणी": 8910,
      "pover": 8911,
      "Road": 8912,
      "जला": 8913,
      "सम्पदा": 8914,
      "रेष्ट": 8915,
      "मूर्ति": 8916,
      "Vi": 8917,
      "न्डे": 8918,
      "radio": 8919,
      "showing": 8920,
      "agriculture": 8921,
      "nuclear": 8922,
      "ढाँचा": 8923,
      "भनिएको": 8924,
      "Deep": 8925,
      "examination": 8926,
      "छान": 8927,
      "gather": 8928,
      "हार्": 8929,
      "Instead": 8930,
      "२००८": 8931,
      "ethnic": 8932,
      "Rights": 8933,
      "नियमावली": 8934,
      "जर्म": 8935,
      "मोह": 8936,
      "परिवारका": 8937,
      "pick": 8938,
      "संयोजन": 8939,
      "सकिँदैन": 8940,
      "कोठामा": 8941,
      "sacri": 8942,
      "jung": 8943,
      "चाहन्छु": 8944,
      "mir": 8945,
      "destroyed": 8946,
      "नगरेको": 8947,
      "deplo": 8948,
      "ल्याण्ड": 8949,
      "गर्नुपर्नेछ": 8950,
      "appointment": 8951,
      "ande": 8952,
      "डरा": 8953,
      "temporary": 8954,
      "शारी": 8955,
      "थाल्यो": 8956,
      "Muk": 8957,
      "कामको": 8958,
      "संस्थाले": 8959,
      "दूध": 8960,
      "mountains": 8961,
      "लेखन": 8962,
      "stor": 8963,
      "longer": 8964,
      "सत्त": 8965,
      "्रय": 8966,
      "gree": 8967,
      "दलीय": 8968,
      "शक्तिशाली": 8969,
      "bey": 8970,
      "सहायता": 8971,
      "बेल": 8972,
      "सन्धि": 8973,
      "discuss": 8974,
      "म्बु": 8975,
      "शाल": 8976,
      "ढंग": 8977,
      "पचा": 8978,
      "visi": 8979,
      "कार्यक्रमको": 8980,
      "बाग": 8981,
      "फोहोर": 8982,
      "governance": 8983,
      "monitoring": 8984,
      "पालन": 8985,
      "psy": 8986,
      "calls": 8987,
      "Communist": 8988,
      "consumers": 8989,
      "audience": 8990,
      "मन्त्रिपरिषद्": 8991,
      "purchase": 8992,
      "डिसेम्बर": 8993,
      "मेडिकल": 8994,
      "SC": 8995,
      "ओग": 8996,
      "Region": 8997,
      "आणविक": 8998,
      "क्लिन्ट": 8999,
      "रहँदा": 9000,
      "सल्लाहकार": 9001,
      "agenda": 9002,
      "liber": 9003,
      "लागी": 9004,
      "एपी": 9005,
      "३४": 9006,
      "Sri": 9007,
      "वेदी": 9008,
      "km": 9009,
      "Tarai": 9010,
      "म्य": 9011,
      "emo": 9012,
      "विस्": 9013,
      "जिल्लाका": 9014,
      "गराएको": 9015,
      "migration": 9016,
      "ays": 9017,
      "tees": 9018,
      "हरुका": 9019,
      "अंग्रे": 9020,
      "लगाए": 9021,
      "ademy": 9022,
      "धके": 9023,
      "Journal": 9024,
      "pace": 9025,
      "किता": 9026,
      "writer": 9027,
      "विष्": 9028,
      "solve": 9029,
      "Ir": 9030,
      "झण्डा": 9031,
      "हुला": 9032,
      "accordance": 9033,
      "fees": 9034,
      "सूचीमा": 9035,
      "गाउ": 9036,
      "cere": 9037,
      "नेतृत्वको": 9038,
      "eye": 9039,
      "looks": 9040,
      "इराकमा": 9041,
      "बंग": 9042,
      "programmes": 9043,
      "satisfac": 9044,
      "thi": 9045,
      "prod": 9046,
      "प्रिमि": 9047,
      "धू": 9048,
      "समारोह": 9049,
      "अस्तित्व": 9050,
      "restaur": 9051,
      "म्याद": 9052,
      "either": 9053,
      "कर्ताको": 9054,
      "missing": 9055,
      "require": 9056,
      "स्वर्ग": 9057,
      "drawn": 9058,
      "homes": 9059,
      "शारीरिक": 9060,
      "पिता": 9061,
      "cep": 9062,
      "स्ने": 9063,
      "concern": 9064,
      "equipment": 9065,
      "nia": 9066,
      "sib": 9067,
      "customs": 9068,
      "2008": 9069,
      "powerful": 9070,
      "mass": 9071,
      "sets": 9072,
      "विश्वा": 9073,
      "handed": 9074,
      "Ltd": 9075,
      "केश": 9076,
      "आवास": 9077,
      "tas": 9078,
      "ker": 9079,
      "wait": 9080,
      "निवेदन": 9081,
      "कुराहरू": 9082,
      "असो": 9083,
      "ध्वनि": 9084,
      "kers": 9085,
      "बिजु": 9086,
      "erc": 9087,
      "Facebook": 9088,
      "कका": 9089,
      "मार्ट": 9090,
      "श्रेणी": 9091,
      "राष्टि": 9092,
      "dozen": 9093,
      "संवेदनशील": 9094,
      "Former": 9095,
      "ona": 9096,
      "saf": 9097,
      "minute": 9098,
      "भेला": 9099,
      "hite": 9100,
      "डलरमा": 9101,
      "lawy": 9102,
      "cold": 9103,
      "दोब्बर": 9104,
      "यनमा": 9105,
      "संख्यक": 9106,
      "तरकारी": 9107,
      "difference": 9108,
      "विशिष्ट": 9109,
      "दिगो": 9110,
      "बोलपत्र": 9111,
      "इजाजतपत्र": 9112,
      "kar": 9113,
      "अप्": 9114,
      "mitted": 9115,
      "Sah": 9116,
      "संगठन": 9117,
      "Bel": 9118,
      "tomor": 9119,
      "साक्षी": 9120,
      "Camp": 9121,
      "Stre": 9122,
      "घरेलु": 9123,
      "केटाकेटी": 9124,
      "tomorrow": 9125,
      "guaran": 9126,
      "teaching": 9127,
      "बिया": 9128,
      "मूलक": 9129,
      "मानवअधिकार": 9130,
      "अत्यधिक": 9131,
      "विकसित": 9132,
      "crowd": 9133,
      "passengers": 9134,
      "दिई": 9135,
      "manent": 9136,
      "वेशन": 9137,
      "comfortable": 9138,
      "oth": 9139,
      "सङ्घ": 9140,
      "honor": 9141,
      "talking": 9142,
      "vation": 9143,
      "turing": 9144,
      "ema": 9145,
      "specific": 9146,
      "बहस": 9147,
      "wak": 9148,
      "killing": 9149,
      "मात्रामा": 9150,
      "truth": 9151,
      "सरो": 9152,
      "इराकी": 9153,
      "Bus": 9154,
      "सगरमा": 9155,
      "यान": 9156,
      "poe": 9157,
      "cords": 9158,
      "नाक": 9159,
      "expansion": 9160,
      "comment": 9161,
      "changing": 9162,
      "learn": 9163,
      "manner": 9164,
      "route": 9165,
      "Kal": 9166,
      "विदेशमा": 9167,
      "नियन्त्रणमा": 9168,
      "तपाईंले": 9169,
      "upon": 9170,
      "जरिवाना": 9171,
      "एक्स": 9172,
      "suggested": 9173,
      "उत्साह": 9174,
      "clearly": 9175,
      "victim": 9176,
      "ब्राउ": 9177,
      "विनिमय": 9178,
      "३३": 9179,
      "request": 9180,
      "ests": 9181,
      "mail": 9182,
      "Which": 9183,
      "विराटन": 9184,
      "Das": 9185,
      "atory": 9186,
      "Kan": 9187,
      "स्वाभाविक": 9188,
      "राजाको": 9189,
      "Ghim": 9190,
      "सहकारी": 9191,
      "सेप्टेम्बरमा": 9192,
      "गर्यौं": 9193,
      "क्ट": 9194,
      "ikram": 9195,
      "अत्या": 9196,
      "abled": 9197,
      "whe": 9198,
      "developing": 9199,
      "डरलाग्दो": 9200,
      "Front": 9201,
      "Bangladesh": 9202,
      "सुख": 9203,
      "चाहना": 9204,
      "product": 9205,
      "users": 9206,
      "व्यस्त": 9207,
      "dry": 9208,
      "नोक्सा": 9209,
      "produce": 9210,
      "स्वस्थ": 9211,
      "सहयोगी": 9212,
      "medicines": 9213,
      "छोराछोरी": 9214,
      "eshwar": 9215,
      "आउँदा": 9216,
      "Ghimire": 9217,
      "निरीक्षण": 9218,
      "इले": 9219,
      "प्राध्यापक": 9220,
      "balance": 9221,
      "ligence": 9222,
      "द्रष्ट": 9223,
      "fighting": 9224,
      "plat": 9225,
      "हिने": 9226,
      "operations": 9227,
      "Clinton": 9228,
      "यसैबीच": 9229,
      "खोजिरहेका": 9230,
      "उद्देश्यले": 9231,
      "launch": 9232,
      "क्रस": 9233,
      "White": 9234,
      "सृ": 9235,
      "न्थ्यो": 9236,
      "महिनाको": 9237,
      "ठेगा": 9238,
      "विपरी": 9239,
      "घटेको": 9240,
      "तोकिए": 9241,
      "alternative": 9242,
      "दिन्छन्": 9243,
      "extreme": 9244,
      "Eve": 9245,
      "अह": 9246,
      "नबाट": 9247,
      "रूख": 9248,
      "decisions": 9249,
      "heavy": 9250,
      "Thom": 9251,
      "complaint": 9252,
      "बनाएका": 9253,
      "सकेनन्": 9254,
      "officers": 9255,
      "Pokha": 9256,
      "speaking": 9257,
      "colla": 9258,
      "yat": 9259,
      "DA": 9260,
      "प्रती": 9261,
      "prev": 9262,
      "din": 9263,
      "एक्लै": 9264,
      "store": 9265,
      "influence": 9266,
      "tsman": 9267,
      "३८": 9268,
      "alys": 9269,
      "आन्दोलनको": 9270,
      "वान्": 9271,
      "एनएनएनएन": 9272,
      "noon": 9273,
      "कार्यरत": 9274,
      "असम्भव": 9275,
      "Sim": 9276,
      "ufac": 9277,
      "निश्चय": 9278,
      "सगरमाथा": 9279,
      "repeatedly": 9280,
      "अमेरिकाको": 9281,
      "वाम": 9282,
      "max": 9283,
      "controver": 9284,
      "उठाउन": 9285,
      "उद्धार": 9286,
      "page": 9287,
      "नभएका": 9288,
      "tg": 9289,
      "IM": 9290,
      "station": 9291,
      "मेश": 9292,
      "जित्न": 9293,
      "overall": 9294,
      "मध्यम": 9295,
      "teria": 9296,
      "हिन्दू": 9297,
      "जापा": 9298,
      "आकर्षित": 9299,
      "threat": 9300,
      "पक्षले": 9301,
      "माइक्रो": 9302,
      "Stating": 9303,
      "includes": 9304,
      "earch": 9305,
      "स्पर्श": 9306,
      "Four": 9307,
      "माको": 9308,
      "राष्ट्रको": 9309,
      "atistics": 9310,
      "uge": 9311,
      "झर": 9312,
      "टीको": 9313,
      "council": 9314,
      "सरकारमा": 9315,
      "विकासका": 9316,
      "Dan": 9317,
      "Industry": 9318,
      "feed": 9319,
      "उपस्थित": 9320,
      "memor": 9321,
      "ललित": 9322,
      "citizenship": 9323,
      "निषे": 9324,
      "निकासी": 9325,
      "पानीको": 9326,
      "zone": 9327,
      "funds": 9328,
      "clock": 9329,
      "मन्त्रालयका": 9330,
      "कता": 9331,
      "पुष्": 9332,
      "सरल": 9333,
      "Pokharel": 9334,
      "fl": 9335,
      "कस्": 9336,
      "शाय": 9337,
      "अवरोध": 9338,
      "poverty": 9339,
      "भारी": 9340,
      "र्ा": 9341,
      "परमेश्वरले": 9342,
      "झन्": 9343,
      "Here": 9344,
      "तौल": 9345,
      "ष्म": 9346,
      "सफलता": 9347,
      "demanding": 9348,
      "दानमा": 9349,
      "anta": 9350,
      "ideas": 9351,
      "wearing": 9352,
      "akes": 9353,
      "pu": 9354,
      "ब्रिटे": 9355,
      "चालक": 9356,
      "अनेक": 9357,
      "प्रेरित": 9358,
      "Germany": 9359,
      "एसियाली": 9360,
      "विच": 9361,
      "सहमत": 9362,
      "gradually": 9363,
      "decade": 9364,
      "पर्दो": 9365,
      "remaining": 9366,
      "ब्रान्ड": 9367,
      "४८": 9368,
      "province": 9369,
      "पदमा": 9370,
      "Mahendra": 9371,
      "Web": 9372,
      "सम्झनु": 9373,
      "नाय": 9374,
      "क्ष्": 9375,
      "Human": 9376,
      "Jer": 9377,
      "cession": 9378,
      "ista": 9379,
      "पट": 9380,
      "काराग": 9381,
      "icide": 9382,
      "75": 9383,
      "द्रष्टव्य": 9384,
      "sons": 9385,
      "toms": 9386,
      "tropolitan": 9387,
      "SO": 9388,
      "calling": 9389,
      "coordinator": 9390,
      "emergency": 9391,
      "मित्त": 9392,
      "rice": 9393,
      "कसले": 9394,
      "दिनेछ": 9395,
      "rences": 9396,
      "विपरीत": 9397,
      "activis": 9398,
      "ठेकेदार": 9399,
      "Ber": 9400,
      "Bur": 9401,
      "unit": 9402,
      "waste": 9403,
      "rail": 9404,
      "continues": 9405,
      "वर्षपछि": 9406,
      "cow": 9407,
      "animals": 9408,
      "inno": 9409,
      "ङ्ख": 9410,
      "sear": 9411,
      "गरेनन्": 9412,
      "ships": 9413,
      "begins": 9414,
      "खानेपा": 9415,
      "consid": 9416,
      "interested": 9417,
      "Ja": 9418,
      "seed": 9419,
      "College": 9420,
      "निजामती": 9421,
      "पौडेल": 9422,
      "Hari": 9423,
      "आयोगको": 9424,
      "Christ": 9425,
      "Cam": 9426,
      "numbers": 9427,
      "supported": 9428,
      "Ve": 9429,
      "announcement": 9430,
      "सुपर": 9431,
      "स्वार्थ": 9432,
      "पुर्याउने": 9433,
      "तुलना": 9434,
      "reality": 9435,
      "भित्रै": 9436,
      "शान्त": 9437,
      "farming": 9438,
      "literary": 9439,
      "टाउन": 9440,
      "hydro": 9441,
      "ower": 9442,
      "मानिसको": 9443,
      "immediate": 9444,
      "AL": 9445,
      "defense": 9446,
      "पिल": 9447,
      "फोर्ड": 9448,
      "critic": 9449,
      "determination": 9450,
      "akh": 9451,
      "बढि": 9452,
      "इयो": 9453,
      "वादको": 9454,
      "आँकडा": 9455,
      "ऋतु": 9456,
      "बताउँदै": 9457,
      "छैनौं": 9458,
      "treated": 9459,
      "्रिक": 9460,
      "waiting": 9461,
      "पया": 9462,
      "ols": 9463,
      "मगर": 9464,
      "Nir": 9465,
      "थर": 9466,
      "regarding": 9467,
      "मतदाता": 9468,
      "चन्द": 9469,
      "Prakash": 9470,
      "Lead": 9471,
      "गरेकी": 9472,
      "standard": 9473,
      "rebel": 9474,
      "मुनि": 9475,
      "tourist": 9476,
      "शीर्षक": 9477,
      "imal": 9478,
      "Employ": 9479,
      "३९": 9480,
      "Constitution": 9481,
      "Tribhuvan": 9482,
      "tree": 9483,
      "Min": 9484,
      "पब्": 9485,
      "Lalit": 9486,
      "skills": 9487,
      "Dh": 9488,
      "ब्याक": 9489,
      "रव": 9490,
      "विच्छेद": 9491,
      "पोस्ट": 9492,
      "branch": 9493,
      "शुद्ध": 9494,
      "valid": 9495,
      "ढिलो": 9496,
      "न्टि": 9497,
      "जुरी": 9498,
      "राजनीतिमा": 9499,
      "reconstruction": 9500,
      "Khanal": 9501,
      "fit": 9502,
      "भय": 9503,
      "अलग": 9504,
      "concerns": 9505,
      "Rule": 9506,
      "origin": 9507,
      "Open": 9508,
      "returning": 9509,
      "Buddha": 9510,
      "holders": 9511,
      "कर्मचारीको": 9512,
      "Gul": 9513,
      "कृपया": 9514,
      "seemed": 9515,
      "Stud": 9516,
      "River": 9517,
      "tin": 9518,
      "उता": 9519,
      "निकुञ्": 9520,
      "न्यूनतम": 9521,
      "पौडे": 9522,
      "suffer": 9523,
      "Jes": 9524,
      "Nations": 9525,
      "export": 9526,
      "fish": 9527,
      "----": 9528,
      "ओछ्या": 9529,
      "कास": 9530,
      "Agr": 9531,
      "ico": 9532,
      "becomes": 9533,
      "रिजा": 9534,
      "205": 9535,
      "महिलाको": 9536,
      "शहरी": 9537,
      "गइरहेका": 9538,
      "liance": 9539,
      "simple": 9540,
      "न्ती": 9541,
      "समायोजन": 9542,
      "उँदछ": 9543,
      "rigation": 9544,
      "Maj": 9545,
      "Ta": 9546,
      "sensi": 9547,
      "एव": 9548,
      "किताब": 9549,
      "न्यू": 9550,
      "defeated": 9551,
      "Shiv": 9552,
      "Bhar": 9553,
      "दायी": 9554,
      "consumer": 9555,
      "बीसी": 9556,
      "gative": 9557,
      "हेर्नुहोस्": 9558,
      "ुत": 9559,
      "ब्जा": 9560,
      "statements": 9561,
      "soldiers": 9562,
      "uta": 9563,
      "artist": 9564,
      "ailing": 9565,
      "dark": 9566,
      "नेताहरूले": 9567,
      "registration": 9568,
      "संसद्": 9569,
      "नभएसम्म": 9570,
      "एला": 9571,
      "pir": 9572,
      "female": 9573,
      "मूल्यमा": 9574,
      "usive": 9575,
      "apers": 9576,
      "विश्वको": 9577,
      "फिल्ड": 9578,
      "palace": 9579,
      "rot": 9580,
      "urban": 9581,
      "activity": 9582,
      "जनाको": 9583,
      "beat": 9584,
      "त्यसका": 9585,
      "dollars": 9586,
      "इङ्ग": 9587,
      "बाँध": 9588,
      "बसेका": 9589,
      "exis": 9590,
      "मनमा": 9591,
      "ias": 9592,
      "illed": 9593,
      "राखी": 9594,
      "अर्थात": 9595,
      "summer": 9596,
      "Rom": 9597,
      "expenses": 9598,
      "expenditure": 9599,
      "ored": 9600,
      "stuck": 9601,
      "comed": 9602,
      "sud": 9603,
      "भारतका": 9604,
      "Os": 9605,
      "पाठ्य": 9606,
      "Member": 9607,
      "ग्ने": 9608,
      "remote": 9609,
      "habit": 9610,
      "पर्खा": 9611,
      "२००४": 9612,
      "प्रवासी": 9613,
      "देखाएको": 9614,
      "रोय": 9615,
      "finally": 9616,
      "प्रक्रियामा": 9617,
      "Village": 9618,
      "व्यवस्थित": 9619,
      "governments": 9620,
      "परराष्ट्र": 9621,
      "starting": 9622,
      "saving": 9623,
      "sites": 9624,
      "vas": 9625,
      "Before": 9626,
      "plays": 9627,
      "भाँ": 9628,
      "प्रतिशतले": 9629,
      "बुट": 9630,
      "भान्": 9631,
      "connected": 9632,
      "Bill": 9633,
      "maker": 9634,
      "प्रतिवेदनले": 9635,
      "friendly": 9636,
      "stances": 9637,
      "प्रतिभा": 9638,
      "बनाउनु": 9639,
      "कलाई": 9640,
      "पेट": 9641,
      "पोलि": 9642,
      "३७": 9643,
      "votes": 9644,
      "Durbar": 9645,
      "gives": 9646,
      "valley": 9647,
      "हजारौं": 9648,
      "Agric": 9649,
      "हद": 9650,
      "क्षतिपूर्ति": 9651,
      "र्ग": 9652,
      "थान": 9653,
      "permanent": 9654,
      "तलब": 9655,
      "Forest": 9656,
      "सक्दा": 9657,
      "बहिनी": 9658,
      "पञ्चा": 9659,
      "historical": 9660,
      "isla": 9661,
      "अल्प": 9662,
      "ह्यान्ड": 9663,
      "uries": 9664,
      "shut": 9665,
      "mart": 9666,
      "चौधरी": 9667,
      "छौँ": 9668,
      "कर्मचारीले": 9669,
      "divided": 9670,
      "साइकल": 9671,
      "avi": 9672,
      "stant": 9673,
      "champion": 9674,
      "wered": 9675,
      "रही": 9676,
      "दुर्व्यवहार": 9677,
      "prosperity": 9678,
      "bha": 9679,
      "भीड": 9680,
      "Bu": 9681,
      "मज": 9682,
      "अंग्रेजी": 9683,
      "rank": 9684,
      "cient": 9685,
      "intellect": 9686,
      "earned": 9687,
      "चाहेको": 9688,
      "increases": 9689,
      "Tem": 9690,
      "गर्नुअघि": 9691,
      "inqu": 9692,
      "बाली": 9693,
      "wear": 9694,
      "Baj": 9695,
      "push": 9696,
      "aka": 9697,
      "दददद": 9698,
      "सेवामा": 9699,
      "तिमीहरूले": 9700,
      "hibi": 9701,
      "अफ्रि": 9702,
      "शायद": 9703,
      "अभिनय": 9704,
      "सहयोगमा": 9705,
      "vac": 9706,
      "Ministers": 9707,
      "्यौं": 9708,
      "चाहन्थे": 9709,
      "Vir": 9710,
      "map": 9711,
      "curren": 9712,
      "सजिलै": 9713,
      "धर": 9714,
      "tom": 9715,
      "sister": 9716,
      "सहकार्य": 9717,
      "कूटनीति": 9718,
      "Pancha": 9719,
      "method": 9720,
      "अप्रत्या": 9721,
      "छोड्": 9722,
      "Super": 9723,
      "चट्टान": 9724,
      "aves": 9725,
      "घडी": 9726,
      ".'\"": 9727,
      "पहिला": 9728,
      "Syri": 9729,
      "platform": 9730,
      "नदिने": 9731,
      "पठाउने": 9732,
      "jected": 9733,
      "गिराव": 9734,
      "शत्रु": 9735,
      "उपलब्धि": 9736,
      "नायक": 9737,
      "डिजि": 9738,
      "तपाईंको": 9739,
      "श्रमिक": 9740,
      "burn": 9741,
      "Times": 9742,
      "साई": 9743,
      "भरपर्दो": 9744,
      "क्यु": 9745,
      "चाहे": 9746,
      "मोहन": 9747,
      "Islam": 9748,
      "अनौ": 9749,
      "सञ्चालनमा": 9750,
      "इको": 9751,
      "सधैं": 9752,
      "awareness": 9753,
      "योजनामा": 9754,
      "स्थाना": 9755,
      "अवधारणा": 9756,
      "घाट": 9757,
      "माइल": 9758,
      "32": 9759,
      "विशाल": 9760,
      "Ran": 9761,
      "स्मि": 9762,
      "क्यामेरा": 9763,
      "voc": 9764,
      "aspects": 9765,
      "तिर्": 9766,
      "alysis": 9767,
      "उत्तम": 9768,
      "उँदैन": 9769,
      "योजनाको": 9770,
      "Elec": 9771,
      "म्बार": 9772,
      "ऐनको": 9773,
      "नारी": 9774,
      "teacher": 9775,
      "abinet": 9776,
      "jobs": 9777,
      "ressive": 9778,
      "कुकुर": 9779,
      "पेशा": 9780,
      "करीब": 9781,
      "चढ": 9782,
      "कसैको": 9783,
      "gra": 9784,
      "याम": 9785,
      "प्रादेशिक": 9786,
      "paying": 9787,
      "coordination": 9788,
      "नया": 9789,
      "उनीहरुको": 9790,
      "महोत्सव": 9791,
      "उज्या": 9792,
      "दिंदै": 9793,
      "रोक्": 9794,
      "सूचका": 9795,
      "cycle": 9796,
      "NR": 9797,
      "Africa": 9798,
      "Cali": 9799,
      "संकेत": 9800,
      "Foot": 9801,
      "अन्तरक्रिया": 9802,
      "शरणा": 9803,
      "जोशी": 9804,
      "निरन्तरता": 9805,
      "Ann": 9806,
      "candidates": 9807,
      "avoid": 9808,
      "index": 9809,
      "Push": 9810,
      "cher": 9811,
[...]
